t i
t h
i n
a n
r e
e n
e r
e d</w>
o f</w>
th e</w>
o n
o n</w>
r o
an d</w>
a ti
i n</w>
a t
i t
a l</w>
a r
o r
- @</w>
@ -@</w>
s t
a l
e s</w>
s i
d i
a s
a c
e c
e l
i c
in g</w>
e r</w>
t o</w>
o r</w>
o m
u l
o l
u r
ati on</w>
a s</w>
t s</w>
e s
re s
p ro
o s
en t</w>
t r
d e
u n
T h
it h</w>
w ith</w>
i s</w>
v e</w>
l y</w>
c on
a t</w>
p l
ti on</w>
a p
a n</w>
c h
a m
i l
i m
u c
er e</w>
e m
i s
t er
a g
e x
e n</w>
i d
u s
at ed</w>
f or</w>
p h
a b
i c</w>
o c
w as</w>
c om
f f
Th e</w>
e t
it y</w>
p er
o u
w ere</w>
c e</w>
on s</w>
e v
en ts</w>
c l
o g
o t
s u
i g
q u
o p
a d
at e</w>
th at</w>
b y</w>
m e
p ati
o w
st r
a r</w>
l e</w>
v i
as e</w>
i f
w h
re n
u m
p res
t ed</w>
si s</w>
u d
d uc
s e
in e</w>
n e
ar e</w>
l e
re d</w>
s p
ti n
c el
si on</w>
t e
ic al</w>
re c
h a
f or
pati ents</w>
m o
i b
ro m</w>
ac ti
f rom</w>
n o
g en
c o
m ent</w>
ti c</w>
l o
s h
p a
e p
an t</w>
i r
ur e</w>
p o
m a
s y
p re
v er
0 .
p ar
u t
e en</w>
g n
th e
e ff
ro u
b e</w>
as s
en ce</w>
ti ve</w>
i z
r a
en t
p or
ati ons</w>
u s</w>
h e
r i
ti c
ig h
c re
m on
re l
en ti
v el
al ly</w>
si gn
t er</w>
t re
ti m
u m</w>
ol og
h y
t ro
o b
l s</w>
ar y</w>
ag e</w>
on al</w>
s c
for m
b et
ul ar</w>
tin g</w>
th er</w>
a in
sp ec
in f
en d
s er
an g
if ic
ou s</w>
l i
di c
di ff
i d</w>
tr an
d er
st ud
as ed</w>
res p
eff ec
e ren
th is</w>
on e</w>
t h</w>
es e</w>
e ar
f ac
an c
o d</w>
I n</w>
al y
i al</w>
ati ve</w>
stud y</w>
es s</w>
an ce</w>
re g
c or
v ed</w>
o x
no t</w>
m or
in ter
or s</w>
p os
cel ls</w>
o d
i es</w>
s ur
th er
an t
a f
g rou
su b
m in
in cre
y p
d ing</w>
acti v
diff eren
sign ific
ab le</w>
an ti
pro te
er s</w>
ar i
ic h</w>
di s
o un
or y</w>
es s
b i
w een</w>
s e</w>
an aly
res ul
v e
al l</w>
oc i
i a</w>
bet ween</w>
st e
wh ich</w>
ha ve</w>
m ic
re s</w>
c ar
t ec
tre at
os e</w>
en c
ap os
in v
& apos
un c
us e</w>
f i
y m
in g
p r
y t
al u
l ev
ti ons</w>
as es</w>
at es</w>
l ow
i r</w>
u t</w>
th an</w>
y l
af ter</w>
cel l</w>
treat ment</w>
es t</w>
l u
duc ed</w>
us ed</w>
t u
W e</w>
a y</w>
i t</w>
resp on
ati n
ass oci
a y
en tr
lo w</w>
ul ation</w>
e st
it s</w>
el s</w>
al s</w>
com pl
m un
il ity</w>
me th
i th
tran s
b e
r an
v ari
t w
ar g
us ing</w>
ro m
d s</w>
v id
d er</w>
con tro
ur ing</w>
0. 0
pres sion</w>
o l</w>
th ese</w>
& #
c ur
i ti
&# 9
di se
ot h</w>
h ib
Th is</w>
h as</w>
b een</w>
f unc
el ec
c a
t or</w>
ou t</w>
atin g</w>
O N
u di
igh t</w>
j ec
sh ow
w e</w>
em ent</w>
s o</w>
vel y</w>
b l
cl in
b ut</w>
N A</w>
f ol
de vel
g l
b in
ther ap
st udi
cl ud
v er</w>
re e</w>
grou p</w>
r ap
mor e</w>
on g</w>
ac ter
t a
os t</w>
d ec
c ol
i p
resul ts</w>
as t</w>
ma y</w>
I n
tw o</w>
m an
t en
am in
oun d</w>
m at
str uc
1 .
w e
s t</w>
ig h</w>
activ ity</w>
prote in</w>
the ir</w>
per i
el y</w>
r u
p ol
devel op
er al</w>
h igh
ha d</w>
i st
c an</w>
at a</w>
vi r
t ;</w>
tr ac
ou r</w>
a st
s ec
og en
d uring</w>
iz ed</w>
al so</w>
olog ical</w>
mic ro
associ ated</w>
p e
b oth</w>
h igh</w>
m et
a v
con c
me di
ul d</w>
ch ang
t yp
1 0</w>
re qu
f in
c r
dise ase</w>
t ors</w>
id e</w>
es ti
analy sis</w>
in hib
m al
re por
sy n
S I
pro c
d e</w>
pa red</w>
t ain
r is
me as
g h</w>
ant ly</w>
g g
im mun
em b
w ith
e l</w>
de p
2 0
c ul
ch em
in clud
ab ility</w>
clin ical</w>
he al
om e</w>
w or
si ve</w>
ti onal</w>
h um
si st
s uc
e d
n or
R E
anc er</w>
iz ation</w>
g r
l in
su gg
d ata</w>
k e</w>
ec h
pa th
po si
o ther</w>
ear s</w>
m ul
pl e</w>
s am
ay s</w>
t om
t um
rap h
un der
f ic
ev er</w>
it e</w>
f r
n i
C L
de ter
ac h</w>
lev els</w>
incre ased</w>
tim e</w>
p ot
ex pression</w>
id enti
T S</w>
f ir
signific antly</w>
an ts</w>
e t</w>
l oc
d om
duc tion</w>
ob ser
ati c</w>
rel ated</w>
t ure</w>
effec ts</w>
s en
pres s
f ound</w>
ev alu
b le</w>
el l
in s</w>
therap y</w>
g ro
v en
signific ant</w>
M E
0 0</w>
effec t</w>
com pared</w>
di ag
d ro
dep end
e ar</w>
ent al</w>
per form
S U
studi es</w>
c ancer</w>
com p
e i
se qu
ch ar
o per
n o</w>
pl as
ti vely</w>
inf ec
s ev
m al</w>
el l</w>
ac h
il e</w>
al l
ap pro
ste m</w>
og raph
al ity</w>
&apos ;</w>
ris k</w>
p s</w>
D S</w>
u al</w>
ow ever</w>
m s</w>
differen t</w>
hum an</w>
su p
meas u
in dic
t o
l t;</w>
& lt;</w>
qu ot
show ed</w>
& quot
&quot ;</w>
y ears</w>
il l
esti g
&apos ;
r ate</w>
vi e
sur g
b ased</w>
contro l</w>
in duced</w>
s es</w>
ou t
m a</w>
A l
olog y</w>
sh o
mo d
e re
por t
ti s
C ON
inv estig
ac tion</w>
an is
at er</w>
a ff
ti es</w>
conc entr
T H
pati ent</w>
U SI
f e
CL USI
k ing</w>
u ro
CON CLUSI
h o
m ost</w>
enti al</w>
pl ic
fi ed</w>
on ic</w>
om a</w>
&apos; s</w>
v al
in to</w>
k s</w>
id ence</w>
k n
2 .
f u
c es</w>
m il
SU L
m ar
a in</w>
form ation</w>
RE SUL
ac c
o ph
b lo
RESUL TS</w>
de tec
if ic</w>
it ed</w>
c y
c h</w>
u e</w>
dec re
cl e</w>
enc y</w>
Th ese</w>
y n
ra di
rec ep
pres ent</w>
A C
ut e</w>
b o
c yt
os ph
tic al</w>
ur al</w>
pro vid
vi v
c al
w ell</w>
s ol
g re
m ech
d es
char acter
ol ec
tr a
e g
e tic</w>
c ases</w>
grou ps</w>
u tion</w>
ch il
func tion</w>
um b
im pro
gen e</w>
k in
spec ific</w>
T I
high er</w>
oc yt
si ons</w>
TH O
on ly</w>
resp ec
o ver
ME THO
de l</w>
con tr
1 9
uc le
v alu
respon se</w>
an s</w>
1 ;</w>
&#9 1;</w>
en z
blo od</w>
typ e</w>
m ents</w>
obser ved</w>
f l
tis su
a il
3 ;</w>
&#9 3;</w>
ec ted</w>
y si
ti v
gro w
ro s
th ree</w>
ing s</w>
com m
s ti
gen er
hy dro
l if
reg i
u p
er g
at ory</w>
m p
f lu
im port
en g
mo del</w>
y l</w>
de mon
demon str
a d</w>
fol low
v ing</w>
D NA</w>
nor mal</w>
p op
i um</w>
METHO DS</w>
d ru
suc h</w>
sy stem</w>
wh o</w>
a th
on g
s o
at ure</w>
ot al</w>
1 2</w>
in c
heal th</w>
u p</w>
ro le</w>
h ist
N D</w>
tec h
s tim
ren t</w>
fac tors</w>
an d
par tic
tic s</w>
depend ent</w>
wh en</w>
b r
c are</w>
n on</w>
ph osph
C h
ac id</w>
5 0</w>
hy per
mul ti
f ib
H owever</w>
th rou
m ut
m y
e th
v as
com bin
o ver</w>
I I</w>
chil d
fir st</w>
z ed</w>
y s
ic i
kn ow
pr im
at s</w>
ent ly</w>
con di
ac t</w>
ex amin
d el
pro g
th ose</w>
it r
tre ated</w>
in al</w>
inv ol
for e</w>
chang es</w>
m olec
tain ed</w>
ph ysi
2 0</w>
pro duc
ass ess
n umb
mech anis
R NA</w>
con t
ar d</w>
s ul
lev el</w>
di vid
po st
g en</w>
3 .
R O
t y</w>
as s</w>
t otal</w>
m is
er y</w>
incre ase</w>
re n</w>
or t</w>
per im
it al</w>
ab l
no sis</w>
T o</w>
m emb
r ang
cl u
st em
od y</w>
si ble</w>
ad di
c ular</w>
m us
re vie
l arg
l ess</w>
deter min
x im
ab ol
ati onal</w>
respec tively</w>
or g
o re
car di
meth od</w>
develop ment</w>
tr i
l im
u res</w>
o sis</w>
ep ti
pre dic
f er
co un
grow th</w>
ag es</w>
is h
th s</w>
ne w</w>
ter n
b ody</w>
tum or</w>
p er</w>
perform ed</w>
a re
ne uro
ic ally</w>
m ac
od s</w>
acti ve</w>
am ong</w>
a i
pl ac
out com
me dic
9 5</w>
os p
co uld</w>
E C
pot ential</w>
w om
O N</w>
child ren</w>
t em
s elec
f requ
sen si
cr ib
di rec
sub jec
fac tor</w>
p at
en ted</w>
i v
y ing</w>
ma in
m i
al ph
0 1</w>
l am
low er</w>
i ed</w>
me an</w>
ph en
an e
c ap
k ed</w>
d ed</w>
ter s</w>
f t</w>
s ity</w>
con si
numb er</w>
1 5</w>
ri p
o us
with in</w>
si mil
c in
import ant</w>
C on
m g</w>
repor ted</w>
c ase</w>
ex perim
sy stem
reg ul
h em
throu gh</w>
th ou
recep tor</w>
includ ing</w>
b re
res s</w>
d ings</w>
ad e</w>
ear ly</w>
om e
bi o
u r</w>
id s</w>
is ol
b ra
bin ding</w>
di sc
iti es</w>
n on
rel ati
y c
4 .
am ine</w>
te st
we e
ti l
re ve
ex pos
n ucle
ograph y</w>
wom en</w>
v ol
n ec
p ec
e x</w>
with out</w>
ON S</w>
s ed</w>
posi tive</w>
y ear</w>
A n
3 0</w>
tissu e</w>
r ats</w>
com par
mon ths</w>
n os
I t</w>
ag ing</w>
prote ins</w>
l ym
enz ym
di d</w>
met abol
t est</w>
e ther</w>
ot yp
u b
ol d</w>
A T
mic e</w>
identi fied</w>
ti on
ap p
col l
a si
v es</w>
d ays</w>
ni qu
m it
t ly</w>
des crib
fac e</w>
g o
the sis</w>
t arg
ar ter
alph a</w>
it er
ha vi
e ach</w>
ch rom
S t
d o
tiv ity</w>
i red</w>
C I</w>
wor k</w>
d ue</w>
C D
ic e</w>
th ere</w>
o id</w>
d ose</w>
in divid
e u
sugg est</w>
memb ran
ing le</w>
ch r
g u
tech niqu
ogen e
sc op
c al</w>
inhib it
bet a</w>
pl es</w>
min i
ma j
g h
diag nosis</w>
z e</w>
n ing</w>
ver y</w>
hy po
per c
CONCLUSI ONS</w>
w il
re sist
tu res</w>
oper ative</w>
c at
ti s</w>
fin dings</w>
or der</w>
s k
sy mp
vir us</w>
thou gh</w>
oc cur
et y</w>
ar di
infec tion</w>
inf lu
on d
fu l</w>
acti ons</w>
ous ly</w>
fic ation</w>
i p</w>
be havi
sur viv
al e</w>
5 .
pres ence</w>
or al</w>
ur ther</w>
is e</w>
dru g</w>
a x
l l
in iti
C om
bra in</w>
b ec
ser um</w>
f il
m ot
ad ul
it es</w>
vas cular</w>
prim ary</w>
wh ile</w>
for m</w>
diag nos
a sis</w>
in t
surg ery</w>
w ay</w>
p ri
ati s
s ingle</w>
ex pl
or e</w>
re duced</w>
ox id
i l</w>
simil ar</w>
f em
l ab
1 4</w>
P ro
en h
activ ation</w>
ent ation</w>
differen ces</w>
pop ulation</w>
ex trac
s ing</w>
A s</w>
h osp
ros s</w>
al ed</w>
ad mini
know n</w>
ev idence</w>
r ati
in tr
pol y
ear ch</w>
d ay</w>
inf lam
mor ph
spec ies</w>
sup por
ob tained</w>
at ely</w>
P C
plas ma</w>
ac y</w>
l ine</w>
b acter
2 5</w>
a u
gen es</w>
6 .
pre vi
studi ed</w>
j u
f o
ab out</w>
revie w</w>
a ut
1 1</w>
f am
differen ti
l at
rec ei
stim ul
decre ased</w>
un der</w>
en e
s ome</w>
d en
is m</w>
sy ch
v is
measu red</w>
condi tions</w>
er i
ro ph
p ul
Th ere</w>
ish ed</w>
ne ur
t al</w>
K G
e qu
g s</w>
B AC
l ong</w>
m ental</w>
cl es</w>
1 6</w>
7 .
ter m</w>
symp tom
RO U
concentr ation</w>
follow ing</w>
2 4</w>
k ers</w>
BAC KG
BACKG ROU
s el
comm on</w>
j ur
p an
BACKGROU ND</w>
p ur
sho uld</w>
lym ph
am e
ar ti
li ver</w>
ec t</w>
compl et
addi tion</w>
concentr ations</w>
as si
ac ute</w>
n er
v enti
a z
m all</w>
gl uc
1 8</w>
I V</w>
d es</w>
develop ed</w>
cel l
itr o</w>
tran sc
ic s</w>
1 3</w>
repor t</w>
l ac
R es
reve aled</w>
rang e</w>
st ate</w>
peri od</w>
im pl
cor rel
chem ical</w>
a di
re duc
g e</w>
in te
on d</w>
ex c
surviv al</w>
C A
subjec ts</w>
ar t</w>
v ement</w>
b one</w>
on sh
1 0
f ul
E x
elec tr
the y</w>
ain s</w>
P A
co h
chang e</w>
ne g
an im
investig ated</w>
demonstr ated</w>
di ab
character is
d rom
ch ol
res sion</w>
elec tro
sho w</w>
c op
di str
chr onic</w>
in jur
effec tive</w>
compl ic
s mall</w>
ag ement</w>
proc ed
ven tion</w>
v itro</w>
st ress</w>
anc ed</w>
ig n
f our</w>
st er
ocyt es</w>
m ine</w>
molec ular</w>
ei ther</w>
enc es</w>
struc ture</w>
est er
includ ed</w>
pr acti
p sych
m en
ad v
res earch</w>
we ight</w>
k e
es ting</w>
a c</w>
press ure</w>
press ed</w>
membran e</w>
sam ples</w>
larg e</w>
un d</w>
CONCLUSI ON</w>
t ox
relati onsh
c er
yn am
maj or</w>
sugg est
re si
pa in</w>
4 0</w>
r ates</w>
compl ex</w>
k g</w>
examin ed</w>
func tional</w>
an y</w>
O B
car cin
sur face</w>
lo b
ol e</w>
w ater</w>
eff ici
c ir
ox y
ain st</w>
J EC
evalu ated</w>
oc c
I L</w>
M e
em ia</w>
ab s
determin ed</w>
proc ess
b ility</w>
W h
con tin
meth ods</w>
pro duction</w>
8 .
pro b
appro ach</w>
ag ainst</w>
o f
i tion</w>
der s</w>
g a
di es</w>
p u
se t</w>
par ti
O ur</w>
deter mine</w>
ph ase</w>
ren al</w>
ve l</w>
TI V
syn drom
n ess</w>
d r
ant i</w>
f urther</w>
1 00</w>
transc rip
g ra
partic ip
pro per
el d</w>
l os
es tim
OB JEC
A c
l un
qu ality</w>
vir on
po in
m in</w>
cur rent</w>
st and
us es</w>
OBJEC TIV
disc us
qu anti
be fore</w>
ap plic
s ch
ar ly</w>
distr ib
re le
valu es</w>
con duc
E R
er c
mus cle</w>
ta ke</w>
g t;</w>
& gt;</w>
in formation</w>
ver se</w>
sam e</w>
v s</w>
1 7</w>
op ath
c an
b as
r at</w>
tain ing</w>
symptom s</w>
ome tr
D i
a e</w>
gre ater</w>
ic ity</w>
si de</w>
f ree</w>
heal th
is t</w>
lif e</w>
ain ing</w>
li ke</w>
str ation</w>
h or
proc ess</w>
mo di
posi tion</w>
wh ether</w>
f ail
en ing</w>
de m
wil l</w>
o therapy</w>
a use</w>
en viron
6 0</w>
contr ib
vari ous</w>
provid e</w>
at us</w>
spec tive</w>
show n</w>
under st
el ial</w>
f y</w>
t ality</w>
neg ative</w>
in jec
ane ous</w>
as ing</w>
f oc
di st
S C
f low</w>
respon ses</w>
man agement</w>
av ail
con sist
A d
expos ure</w>
e al</w>
ell ular</w>
ex peri
im p
ta in</w>
si ze</w>
tic ally</w>
at eg
p epti
fol low</w>
surg ical</w>
olog ic</w>
comp on
ur ation</w>
detec ted</w>
ul es</w>
de fic
cyt o
rati o</w>
v al</w>
0.0 5</w>
h om
en s</w>
invol ved</w>
mechanis ms</w>
syndrom e</w>
pres ented</w>
enzym e</w>
wh ere
pos sible</w>
wee ks</w>
f eren
multi ple</w>
suc c
sev eral</w>
om ic</w>
l ong
en e</w>
no vel</w>
mor tality</w>
og ni
proper ties</w>
rec ur
ren ce</w>
tin al</w>
clu sion</w>
at or</w>
m uc
sel f</w>
o th
u k
outcom es</w>
pro tec
T w
ag ed</w>
at ures</w>
com mun
O n
im aging</w>
b il
lun g</w>
perform ance</w>
differen ce</w>
de fin
ll ed</w>
t ur
resist ance</w>
therap eu
man y</w>
de red</w>
assess ed</w>
measu re
flu o
medic al</w>
li p
t en</w>
A L
regi on</w>
car b
tom y</w>
he art</w>
s cre
n an
associ ation</w>
rec or
n al</w>
re duction</w>
at r
et es</w>
contro ls</w>
str ateg
s al
I N
con fir
los s</w>
mod els</w>
i ly</w>
S T
viv o</w>
mechanis m</w>
immun e</w>
at h</w>
l ight</w>
where as</w>
o ur
c entr
1 9</w>
org an
un d
est abl
d u
y st
en d</w>
sti tu
et al</w>
injur y</w>
par ame
al ized</w>
s ite</w>
ar mac
E n
m ed</w>
de f
le uk
I m
lif er
isol ated</w>
gr ad
h el
pre gn
pos e</w>
ad en
N e
C T</w>
o st
ec tion</w>
typ es</w>
in duc
bo dies</w>
yl ation</w>
ogene sis</w>
e p</w>
sequ ence</w>
mat ory</w>
medi ated</w>
P ati
frequ ency</w>
anc y</w>
ograph ic</w>
p ap
m ag
sev ere</w>
a ro
ang i
oc ardi
anc es</w>
ac et
2 1</w>
C O
G F</w>
in sul
tu b
pro lifer
H e
m ass</w>
y ro
at al</w>
analy zed</w>
bl oc
o ch
em ents</w>
com po
is h</w>
v entr
cy cl
res c
be ing</w>
H IV</w>
am p
A M
sensi tivity</w>
b ac
st age</w>
t ural</w>
evalu ate</w>
ran dom
tran sp
c ere
i e
val ence</w>
techniqu e</w>
us e
a ir
ass ay</w>
contin u
a ver
inhib ition</w>
mon ary</w>
em s</w>
ic es</w>
therapeu tic</w>
su s</w>
cal c
fu sion</w>
reg ulation</w>
suppor t</w>
iz e</w>
s mo
t end
li k
pos ed</w>
valu e</w>
contr ast</w>
are a</w>
y r
characteris tics</w>
relationsh ip</w>
iti s</w>
A n</w>
s us
dise ases</w>
der i
d ys
w a
fam ily</w>
ti n</w>
gen etic</w>
tem per
i an</w>
in ten
i on</w>
vi a</w>
vol um
ag on
Al l</w>
0.0 0
ogen ic</w>
al ization</w>
a m</w>
cl assi
gr am
9 .
pe a
ic ular</w>
sec re
ter min
an n
inflam matory</w>
et er</w>
le ft</w>
w ays</w>
ph ot
hosp ital</w>
gluc ose</w>
parame ters</w>
st atis
decre ase</w>
individ u
8 0</w>
S A</w>
le sions</w>
outcom e</w>
con struc
M S</w>
ec ts</w>
combin ation</w>
met ast
detec tion</w>
Al though</w>
pu bl
de x</w>
al ing</w>
o t</w>
d os
ain ed</w>
erg y</w>
ser v
health y</w>
in ary</w>
ma in</w>
mis sion</w>
re action</w>
ex p
bre ast</w>
inc idence</w>
ic h
oc ial</w>
A I
l og
admini stration</w>
ic ul
pos t</w>
P re
pro f
is on</w>
con taining</w>
cell ular</w>
0.0 01</w>
e ding</w>
me tr
es c
s af
fi ve</w>
U n
trans pl
ist s</w>
A D
indic ate</w>
mal e</w>
system s</w>
re tro
R e
st atus</w>
ca used</w>
ab il
l as
th rom
k er</w>
h owever</w>
ad ing</w>
vi ties</w>
requ ired</w>
it ation</w>
e ph
describ ed</w>
ic acy</w>
ab ly</w>
deri ved</w>
he pati
cardi ac</w>
b ene
ten sion</w>
rele ase</w>
consi dered</w>
ac cur
an ding</w>
ca use</w>
distrib ution</w>
or ig
s ites</w>
n it
test ed</w>
i di
evalu ation</w>
l ig
si m
follow ed</w>
inte gr
or ders</w>
g e
tum ors</w>
per s
op tim
s y</w>
si g
recep tors</w>
or ing</w>
previ ously</w>
o di
high ly</w>
ag g
avail able</w>
the si
spec ific
os om
sec ond</w>
st s</w>
M R
anim als</w>
syn thesis</w>
A f
pro mot
otyp e</w>
ul ts</w>
R ec
carcin oma</w>
ph armac
dis tin
en s
resul t</w>
s oci
A B
9 0</w>
F or</w>
targ et</w>
20 0
I C
i ev
l iter
scop y</w>
in es</w>
identi fy</w>
conduc ted</w>
H ere</w>
th ro
pro duced</w>
correl ation</w>
immun o
A ND</w>
investig ate</w>
insul in</w>
e ts</w>
m RNA</w>
OBJECTIV E</w>
direc t</w>
on ary</w>
el ev
complic ations</w>
if ied</w>
p tion</w>
Pati ents</w>
kin ase</w>
ex hib
l es</w>
ai m</w>
O R</w>
recei ved</w>
experim ental</w>
amin o</w>
ap pl
in ation</w>
bec ause</w>
ra m</w>
del i
tin e</w>
res t</w>
defic i
ul e</w>
Af ter</w>
ma xim
m er
m l</w>
C a
o ste
ass ess</w>
influ ence</w>
dru gs</w>
ex pressed</w>
b ro
o s</w>
all eng
ot ox
P O
co ur
2 2</w>
atr ic</w>
ep ith
imp act</w>
fe atures</w>
gl yc
eff icacy</w>
C R
mat er
anti bodies</w>
op to
de ath</w>
impro ved</w>
diab etes</w>
bet ter</w>
gen eral</w>
assess ment</w>
E ff
r h
tran si
n at
ri al</w>
el ine</w>
u ted</w>
stand ard</w>
t oc
car ri
y s</w>
d ynam
aly sis</w>
stim ulation</w>
ho w</w>
A s
int es
i f</w>
con f
he ter
su ff
pre valence</w>
adul t</w>
in trac
s in
individu als</w>
on es</w>
at ten
c ri
iv en</w>
d am
hydro x
ocyt e</w>
volum e</w>
mon it
d ow
Res ults</w>
str ic
u re
aff ected</w>
m m</w>
fail ure</w>
hor mon
gener ation</w>
path way</w>
ch alleng
le d
7 0</w>
i ally</w>
the tic</w>
fi eld</w>
un i
ap opto
sk in</w>
lik ely</w>
h al
I g
h er
l eng
tim es</w>
k en</w>
im pa
ro sis</w>
e y
si onal</w>
pl o
S E</w>
o ff
H C
sub st
t le</w>
ati n</w>
arter y</w>
ol ic</w>
pol ym
acti vities</w>
physi cal</w>
sam ple</w>
sur ve
ant ation</w>
fr ac
ol y
g am
inv a
cont ent</w>
un ds</w>
anti body</w>
1 ,
ul ations</w>
th en</w>
A R
at ors</w>
liter ature</w>
A r
h ep
u til
incre asing</w>
id ity</w>
a im
par t</w>
tissu es</w>
in dependent</w>
D E
pat tern
sensi tive</w>
over all</w>
si mul
fluo resc
w o
indic ated</w>
1 2
trans f
r ing</w>
pul monary</w>
en ergy</w>
ox ide</w>
A P
dis orders</w>
r y
pl at
c ross</w>
b el
pl ay</w>
ev en</w>
rel ative</w>
feren ce</w>
radi ation</w>
individ ual</w>
s l
m en</w>
ad ju
inter action</w>
dom in
inter vention</w>
analy ses</w>
o m</w>
v acc
si x</w>
in dex</w>
ol s</w>
wh ere</w>
neur ons</w>
w ent</w>
o p</w>
y oun
ol ution</w>
1 3
t ation</w>
fem ale</w>
cor related</w>
cal cul
temper ature</w>
of ten</w>
u sion</w>
mal ign
mo use</w>
ter n</w>
sequ ences</w>
den sity</w>
tu red</w>
ne ed</w>
is ed</w>
sig n</w>
led ge</w>
or b
contro lled</w>
character ized</w>
le ast</w>
m ade</w>
proced ure</w>
vir al</w>
complet e</w>
o red</w>
br al</w>
at eral</w>
impro ve</w>
under went</w>
sc ore</w>
o tic</w>
b ri
appro xim
l y
19 9
ver sus</w>
i sion</w>
R N
N o</w>
so ur
i de
iz ing</w>
aver age</w>
particip ants</w>
pat tern</w>
ud e</w>
the re
diagnos tic</w>
am oun
o ti
poin t</w>
1 4
gh t</w>
str ains</w>
ro p
p rec
pattern s</w>
N F</w>
n et
demonstr ate</w>
se par
ke y</w>
bi ological</w>
initi al</w>
enh anced</w>
ste red</w>
cul ture</w>
B M
b or
ob jec
s co
I II</w>
P s</w>
b ur
ven ess</w>
te red</w>
ad he
enc ed</w>
techniqu es</w>
regi ons</w>
ati vely</w>
ir atory</w>
obser v
succ ess
reg ar
P h
E S</w>
occur red</w>
cor ding</w>
g iven</w>
test s</w>
m ight</w>
ag ents</w>
i .
n er</w>
appl ied</w>
phosph or
2 8</w>
om as</w>
abl es</w>
centr al</w>
combin ed</w>
cor onary</w>
S D</w>
P A</w>
an ds</w>
re mo
A t</w>
id ne
pot enti
cl os
r ight</w>
mo der
u ally</w>
adul ts</w>
end oth
ur ther
s ocial</w>
al es</w>
si l
ful ly</w>
urther more</w>
are as</w>
ond ary</w>
ev ents</w>
mi x
al low
tr ial</w>
pa ren
2 3</w>
su m
activ ated</w>
ex erc
ach iev
min im
t ol
pap er</w>
3 5</w>
inhibit or</w>
gre es</w>
leng th</w>
str y</w>
P D</w>
loc al</w>
on t
behavi or</w>
re pe
sign aling</w>
inhib ited</w>
struc tural</w>
e duc
know ledge</w>
process es</w>
th al
gu id
w ide</w>
b ir
Tw o</w>
p H</w>
5 3</w>
se en</w>
PC R</w>
ut es</w>
pepti de</w>
ay ed</w>
coll ected</w>
lim ited</w>
infec ted</w>
qu e</w>
discus sed</w>
de grees</w>
prolifer ation</w>
och ond
spec tr
lin es</w>
struc tures</w>
erg ic</w>
F urthermore</w>
anti gen</w>
ventr icular</w>
the m</w>
ex t</w>
peri ph
un it</w>
w id
s em
spec tro
practi ce</w>
7 5</w>
sign ed</w>
sh ort</w>
di men
in e
rec ent</w>
compo unds</w>
par t
wo uld</w>
compar ison</w>
ch ain</w>
ch arg
l it
G F
ne ed
resul ted</w>
use ful</w>
cor rec
go od</w>
ul tr
inter actions</w>
er ing</w>
th yro
. 0
fol d</w>
reg ression</w>
se g
c ogni
or ption</w>
D is
U sing</w>
re main
plas m
k idne
form s</w>
intes tinal</w>
tr aining</w>
s it
confir med</w>
oph ag
ut ure</w>
revie w
m el
cr iter
suggest ed</w>
tech n
P T
au th
ec tomy</w>
hist ory</w>
- -
mag ne
d uration</w>
c i
m ation</w>
s w
bacter ial</w>
incre ases</w>
defin ed</w>
tri als</w>
0.0 1</w>
m ig
ner ve</w>
de v
mo l</w>
re pres
is tic</w>
o vascular</w>
injec tion</w>
n ur
P E
measu res</w>
su per
medi an</w>
an e</w>
ac ross</w>
ch o
applic ation</w>
st re
l or
underst anding</w>
t op
bas eline</w>
an al
ast ro
a k
ra y</w>
c ou
pan cre
d oc
suggest s</w>
scre ening</w>
calc ium</w>
experim ents</w>
e b
fib r
sco res</w>
selec ted</w>
o in
ur ine</w>
t ow
ul ated</w>
nec ess
al coh
e red</w>
ar ds</w>
establ ished</w>
S ur
l ay
pa ir</w>
t able</w>
ch ed</w>
P ar
re comm
im plic
approxim ately</w>
P L
os cop
ver sity</w>
d ra
0 00</w>
om y</w>
pro posed</w>
metabol ism</w>
C o
str ain</w>
S E
ur s</w>
t ory</w>
dam age</w>
sub sequ
acc um
4 5</w>
P S</w>
previ ous</w>
sub str
sugg esting</w>
Th us</w>
D e
bi om
func tions</w>
consi der
ep t</w>
n u
2 7</w>
pro por
sec ondary</w>
p ow
ter i
nor mal
esti on
On e</w>
emb ry
exerc ise</w>
ga str
mut ations</w>
differenti ation</w>
periph eral</w>
diagnos ed</w>
my ocardi
He al
4 8</w>
gl ut
h ar
st ro
og en</w>
cap ac
sc ale</w>
con clud
id es</w>
dis order</w>
measure ments</w>
ad ap
al tern
examin ation</w>
l l</w>
apopto sis</w>
quanti t
2 6</w>
r im
A P</w>
is chem
1 5
C lin
arti cle</w>
o v
rel ev
pop ulations</w>
form ed</w>
pregn ancy</w>
d o</w>
pro gram
post operative</w>
st able</w>
gl y
C T
vis ual</w>
metabol ic</w>
ac ids</w>
es pec
dom ain</w>
y i
ess ential</w>
espec ially</w>
al one</w>
3 1</w>
Th e
d ou
3 6</w>
p ite</w>
1 6
d on
r are</w>
mit ochond
compon ents</w>
provid es</w>
ai ly</w>
3 2</w>
cri tical</w>
s et
c t</w>
medi ate</w>
infec tions</w>
venti onal</w>
1 8
do es</w>
Wh en</w>
sol ution</w>
de sign</w>
ic ro
t esting</w>
le ad</w>
dic al</w>
th us</w>
T R
se x</w>
enc ing</w>
b u
b asis</w>
bi op
oxy gen</w>
a or
requ i
compl ex
cour se</w>
experi ence</w>
hosp it
c u
lip id</w>
transcrip tion</w>
B i
or i
sti ll</w>
oc y
cogni tive</w>
fr ag
b al
ad s</w>
con ver
ul arly</w>
ac cording</w>
le ar
el ing</w>
r ine</w>
criter ia</w>
ent er</w>
effici ent</w>
fac il
prog ression</w>
tra um
or atory</w>
ho urs</w>
v it
m id
re fl
resist ant</w>
aff ect</w>
sign al</w>
ser ies</w>
sen s
is o
electr on</w>
strateg ies</w>
st ability</w>
Q u
on set</w>
impro vement</w>
wee k</w>
rap id</w>
cl ear</w>
am pl
in tra
rec over
g lob
de g
resi d
cor respon
diff icul
addi tional</w>
th i
estion n
resp iratory</w>
A D</w>
ut aneous</w>
di g
I F
cy cle</w>
m es
meth yl
path ways</w>
sc i
gam ma</w>
appro pri
pro bl
eri or</w>
or ity</w>
ne l</w>
scop ic</w>
em plo
re ma
ol der</w>
cl er
d aily</w>
rema ins</w>
in si
p i
kidne y</w>
coh ort</w>
ve red</w>
up take</w>
inhibit ors</w>
us t</w>
chol ester
S P
M R</w>
M eth
o ple</w>
describ e</w>
f uture</w>
reduc e</w>
t ent</w>
d ri
st ed</w>
tol er
ific ation</w>
abs ence</w>
str ong
gr ade</w>
deli very</w>
chem otherapy</w>
M D
flu id</w>
ten sive</w>
pro mis
commun ity</w>
fo od</w>
rel i
B P</w>
my el
re ver
al though</w>
produc ts</w>
sp inal</w>
molec ules</w>
plac ement</w>
dos es</w>
lin ked</w>
m am
r e</w>
3 7</w>
consist ent</w>
t as
c ost</w>
id ine</w>
3 8</w>
O f</w>
3 4</w>
og n
provid ed</w>
ant agon
ther s</w>
recomm end
ach es</w>
in duction</w>
g i
ac e</w>
W ith</w>
po or</w>
t a</w>
ac coun
random ized</w>
U R
d at
import ance</w>
de grad
6 5</w>
medi um</w>
b ial</w>
loc ation</w>
epith elial</w>
b ar
A T</w>
expos ed</w>
is su
s pl
lin ear</w>
3 3</w>
Heal th</w>
O S</w>
ar ch</w>
inter val</w>
im ens</w>
proced ures</w>
om er
deg ree</w>
2 9</w>
er y
sol u
C s</w>
ol esc
pr e</w>
de pression</w>
admini stered</w>
hyper tension</w>
youn g</w>
ogen ous</w>
s le
v ent</w>
g ran
di et</w>
nucle ar</w>
O n</w>
conc er
th ir
hormon e</w>
am ide</w>
en ting</w>
l ation</w>
l ying</w>
o w</w>
re at
environ ment</w>
og ether</w>
regul ated</w>
resul ting</w>
pri or</w>
plat el
A N
B oth</w>
MR I</w>
en co
Ch in
capac ity</w>
ren g
elev ated</w>
ultr as
condi tion</w>
gro und</w>
physi ological</w>
transp ort</w>
probl ems</w>
di um</w>
mar kers</w>
recover y</w>
compon ent</w>
in tro
ib le</w>
nat ural</w>
o si
pre par
in ity</w>
mech an
e ds</w>
ic an</w>
inflam mation</w>
hep at
n ot
A S</w>
T ran
pe ople</w>
hepati c</w>
1 7
i ting</w>
pos si
il s</w>
C S
c o</w>
Th ere
defici ency</w>
M ore
er ity</w>
achiev ed</w>
trans fer
R T</w>
G en
o z
it on
os ome</w>
ta ken</w>
h ost</w>
C H
arter ial</w>
suff ici
r ation</w>
secre tion</w>
More over</w>
r ib
tox icity</w>
teri or</w>
al ter
a er
p ut</w>
In ter
partic ularly</w>
inva sive</w>
mut ation</w>
cat aly
mon th</w>
p en
ast s</w>
saf ety</w>
op en</w>
pur pose</w>
ne um
magne tic</w>
l ed</w>
cr yst
t e</w>
s om
endoth elial</w>
chrom at
st reng
S er
mar k
fic ial</w>
si a</w>
gastr ic</w>
cardi ovascular</w>
system ic</w>
sup pl
vari ables</w>
o ids</w>
fi x
4 2</w>
tr ig
de n</w>
myocardi al</w>
termin al</w>
necess ary</w>
en ter
modi fied</w>
stro ke</w>
mac roph
stimul ated</w>
val ent</w>
e ight</w>
ad verse</w>
cl ass</w>
c epti
con ventional</w>
ch lor
ip s</w>
anti bio
appropri ate</w>
phosph ate</w>
19 8
polym er
0. 5</w>
cere bral</w>
or ies</w>
mot or</w>
RN As</w>
S H</w>
ex amine</w>
s ex
am in</w>
G rou
e tics</w>
ill ary</w>
coun tr
al g
vie w</w>
need ed</w>
specific ity</w>
statis tically</w>
yc in</w>
pro toc
transf er</w>
transpl antation</w>
ear ance</w>
am eter</w>
f un
b ul
org anis
ol ar</w>
There fore</w>
l ast</w>
su mp
St ud
col i</w>
quantit ative</w>
selec tive</w>
wh ole</w>
et ed</w>
eri als</w>
m em
recor ded</w>
p al
re stric
pl ant</w>
l ate</w>
prog ram</w>
poly morph
M M
lac k</w>
ne w
fib ro
on ucle
ar c
e tion</w>
j unc
ca uses</w>
fluoresc ence</w>
j oin
F in
b enz
cl e
monit oring</w>
at t
mod ul
includ e</w>
ti veness</w>
opath y</w>
throm b
direc tly</w>
ab dom
fe w</w>
fi t</w>
fam il
val id
tem por
vari ation</w>
d ate</w>
og lob
em entation</w>
0. 9
gen ic</w>
eph al
he ad</w>
cholester ol</w>
c m</w>
aim ed</w>
high est</w>
carri ed</w>
ad olesc
4 4</w>
intr av
un its</w>
sev erity</w>
al k
l a
diab etic</w>
venti ons</w>
calcul ated</w>
sus cepti
as p
partic ular</w>
P D
sul f
up on</w>
there fore</w>
TI ON</w>
lat eral</w>
an terior</w>
devel op</w>
bacter ia</w>
ur b
regar ding</w>
ri x</w>
an ning</w>
H R</w>
identi fication</w>
rec ogn
tre m
distin ct</w>
p ig
dou ble</w>
ati c
ac qu
on omic</w>
estim ated</w>
2 ,
ic ation</w>
cor por
re pair</w>
sim ple</w>
meas ure</w>
z ation</w>
anim al</w>
ir e</w>
c um
malign ant</w>
ho od</w>
tion ing</w>
inf ants</w>
te x</w>
e .</w>
u ter
ad d
li qu
so dium</w>
res sive</w>
tion ally</w>
Ca 2</w>
under lying</w>
res on
amoun t</w>
m an</w>
or d
otyp es</w>
id al</w>
ter ms</w>
qu estionn
A mon
ro w</w>
S T</w>
sev en</w>
P R
alcoh ol</w>
ro gen</w>
plic ation</w>
t ogether</w>
osom al</w>
relev ant</w>
environ mental</w>
gen s</w>
om y
r ab
in ated</w>
appro aches</w>
treat ments</w>
C N
d op
V E
pl ing</w>
enzym es</w>
f at</w>
H y
ag ent</w>
D uring</w>
as pec
x i
dys function</w>
ar r
ent y</w>
0. 8
ometr ic</w>
str ong</w>
metr y</w>
ne o
oper ation</w>
g li
sle ep</w>
per fusion</w>
se p
ac ts</w>
th ic
rec tal</w>
Amon g</w>
mut ant</w>
M ul
maxim um</w>
rel ation</w>
ha ving</w>
l ec
p neum
f at
lab oratory</w>
4 3</w>
review ed</w>
surve y</w>
arti cles</w>
n g</w>
develop ing</w>
res h
re al</w>
ri tis</w>
relati vely</w>
occ ur</w>
muc h</w>
i. e.</w>
b est</w>
moder ate</w>
i stry</w>
D L</w>
ad ren
ar ch
a qu
E D</w>
intrac ellular</w>
S ev
exhib ited</w>
measure ment</w>
C A</w>
indic ating</w>
pa rent</w>
ip p
accur acy</w>
pre vention</w>
os a</w>
dow n</w>
gen ome</w>
v ical</w>
app ears</w>
Clin ical</w>
process ing</w>
con st
ph yl
de signed</w>
inter ventions</w>
strateg y</w>
5 5</w>
Grou p</w>
c rip
o od</w>
stud ents</w>
cur ren
air e</w>
comp are</w>
le m</w>
le ading</w>
emplo y
mal es</w>
subsequ ent</w>
s atis
adv anced</w>
micro scopy</w>
frequ ently</w>
el i
ab normal
acc ep
altern ative</w>
en sive</w>
bir th</w>
pre ven
sump tion</w>
educ ation</w>
di atric</w>
7 2</w>
pea k</w>
C l
hy bri
U S</w>
ometr y</w>
hal f</w>
m L</w>
re x
invol vement</w>
p ac
an ol</w>
fem ales</w>
inten sity</w>
c y</w>
bac k</w>
in take</w>
t i</w>
vi sion</w>
contrib ute</w>
it ary</w>
dimen sional</w>
vie w
effec tiveness</w>
s pati
v en</w>
tr ation</w>
olog ically</w>
main ly</w>
facil it
a k</w>
n s</w>
rec ently</w>
thesi zed</w>
al ong</w>
P er
sp e
el ed</w>
A b
L A</w>
gener ated</w>
pro spective</w>
mat rix</w>
enc ies</w>
hel p</w>
me ans</w>
accum ulation</w>
lit tle</w>
eb o</w>
on tal</w>
lear ning</w>
impa ir
S S</w>
net work</w>
ex tent</w>
oc k</w>
sh or
ru p
ax is</w>
op o
inhibit ory</w>
sour ce</w>
perc ent
R eg
es ophag
A mer
S ub
der iv
fr action</w>
loc ated</w>
sh if
oti de</w>
SI G
re construc
ne u
s al</w>
tu al</w>
poin ts</w>
ell a</w>
conf idence</w>
vari ate</w>
asi c</w>
to ol</w>
P UR
at tr
e ting</w>
L I
charg e</w>
vari able</w>
carb on</w>
rou s</w>
a de
auth ors</w>
s per
PUR PO
wil d</w>
go ing</w>
ur inary</w>
- 1</w>
mater ial</w>
th em
sh ap
ep tion</w>
mel an
coll ag
A p
objec tive</w>
aff inity</w>
plac ebo</w>
ot rop
2. 5</w>
am e</w>
O R
PURPO SE</w>
im ages</w>
h and</w>
D ata</w>
O 2</w>
b le
subst anti
ol ig
mem ory</w>
thir d</w>
in corpor
selec tion</w>
effici ency</w>
ner v
C a</w>
inc ub
an es
hist o
oph il
3 9</w>
adv ant
og s</w>
A u
as th
prob lem</w>
ab o
per sist
regul atory</w>
re st
gn os
com position</w>
P C</w>
ar b
et ary</w>
sy m
w all</w>
B y</w>
mit ted</w>
no w</w>
thyro id</w>
cor tex</w>
com mon
re tin
hypo thesis</w>
sin ce</w>
v ar
mat ure</w>
e ti
ass ays</w>
ic a</w>
mitochond rial</w>
s qu
show s</w>
t y
res ection</w>
inter nal</w>
4 1</w>
C ol
throu gh
kn ess</w>
cul tures</w>
reson ance</w>
le sion</w>
g astro
or ation</w>
ig n</w>
trac t</w>
phosphor ylation</w>
Stud y</w>
ing ly</w>
repor ts</w>
or ph
pro fil
es tion</w>
A C</w>
isol ates</w>
u tive</w>
ne on
Th ree</w>
f av
ste p</w>
um er
ade qu
liqu id</w>
recur rence</w>
predic ted</w>
fat ty</w>
em ic</w>
re produc
oxid ative</w>
f etal</w>
applic ations</w>
correspon ding</w>
ar ity</w>
meth yl</w>
remain ed</w>
6 7</w>
all el
ou th</w>
k ground</w>
N or
ha em
investig ation</w>
col on
hem at
p yr
l ater</w>
trans mission</w>
tend ed</w>
oc l
dem ic</w>
C or
res olution</w>
L e
se ud
protec tive</w>
optim al</w>
syn ap
mor b
aor tic</w>
ati ves</w>
a ir</w>
re actions</w>
hydrox y
aut o
asi a</w>
mechan ical</w>
organ ic</w>
substr ate</w>
d le</w>
S i
r al</w>
con nec
ar th
em er
sp ont
cat eg
nu tri
ex trem
p h</w>
4 6</w>
st ages</w>
lac t
T r
pro xim
en ous</w>
g el</w>
ch ing</w>
wor l
dat ab
lay er</w>
st er</w>
mi R</w>
ER I
a b</w>
el etal</w>
clin ically</w>
an at
exp ected</w>
prog nosis</w>
uni que</w>
com e</w>
I I
abdom inal</w>
plas tic</w>
pro state</w>
al b
atten tion</w>
ch an
mus t</w>
T reat
vari ety</w>
b ound</w>
es ity</w>
ad der</w>
complex es</w>
4 9</w>
hy th
cer vical</w>
gnos tic</w>
ap pe
de ta
emer gen
chil d</w>
publ ic</w>
un known</w>
smo king</w>
larg er</w>
pl ants</w>
i on
ell ing</w>
pres sive</w>
5 6</w>
ful l</w>
respon sible</w>
S C</w>
G l
induc e</w>
parti al</w>
sch o
der ly</w>
prof ile</w>
y g
tom ography</w>
prof es
streng th</w>
retro spective</w>
ar yn
P V</w>
B ased</w>
spec imens</w>
5 2</w>
b ase</w>
ul in</w>
as ym
vit amin</w>
cor e</w>
biop sy</w>
w ar
fun g
degrad ation</w>
ap pea
M A</w>
ari ly</w>
f ying</w>
appea red</w>
re as
4 7</w>
chromat ography</w>
agg reg
serv ices</w>
perc ent</w>
er ro
dynam ics</w>
cyt otox
platel et</w>
ester n</w>
extrac ellular</w>
um in
li po
ir on</w>
H B
1. 5</w>
abo ve</w>
produc t</w>
strong ly</w>
cul tured</w>
s at
tro ph
or ts</w>
ne ural</w>
oxid ation</w>
l ap
success ful</w>
m entation</w>
st aining</w>
mo tion</w>
S N
re ad
common ly</w>
F or
as c
percent age</w>
propor tion</w>
re ference</w>
maj ority</w>
comp ut
enh anc
under going</w>
recei ving</w>
i ous</w>
tern al</w>
Treat ment</w>
continu ous</w>
SIG N</w>
C I
M AT
con sumption</w>
eth yl
6 4</w>
em o
di sp
Di ff
sign s</w>
countr ies</w>
z ing</w>
resi du
mater nal</w>
signific ance</w>
5 4</w>
in ce</w>
long er</w>
M o
o vari
ven ous</w>
publ ished</w>
or rh
up per</w>
e m</w>
cer tain</w>
produc e</w>
simul t
DE SIGN</w>
s in</w>
OBJECTIV ES</w>
ra ther</w>
on ch
d y
AT P</w>
di tional</w>
las er</w>
em erg
S h
chem istry</w>
mig ration</w>
T NF</w>
dynam ic</w>
f ish</w>
gly co
F urther</w>
20 0</w>
st ained</w>
ex am
pre domin
remo val</w>
t ren
6 2</w>
pl ays</w>
pro st
al tered</w>
ti t
Com par
lymph ocytes</w>
doc um
An alysis</w>
an xi
S im
ide mi
ec ting</w>
E N
k er
Mul ti
t or
divid ed</w>
p on
5 1</w>
mat erials</w>
The y</w>
pl asia</w>
os ine</w>
ob struc
residu es</w>
H g</w>
v ation</w>
st ar
post erior</w>
bas al</w>
met al</w>
ti co
pepti des</w>
Meth ods</w>
atten u
M I
pl ast
satis fac
cor tical</w>
pre pared</w>
hepati tis</w>
chan nel</w>
press ing</w>
O b
ane ously</w>
pow er</w>
bl adder</w>
D es
inf arc
re active</w>
, 000</w>
fibro bl
S pec
S y
M y
neur onal</w>
th or
con trac
0. 1</w>
chrom osome</w>
pl ed</w>
el ium</w>
tempor al</w>
pre vent</w>
occur s</w>
foc us</w>
a w
el derly</w>
man if
neuro log
mar ker</w>
S p
inf usion</w>
pro jec
ogni tion</w>
promot er</w>
morb idity</w>
tas k</w>
rec ip
ex tr
im age</w>
rec ru
om es</w>
collag en</w>
abnormal ities</w>
al lo
pur ified</w>
hum ans</w>
emb er</w>
os yn
ob ic</w>
pancre atic</w>
for ce</w>
C B
tub er
0 0
MAT ERI
mat ched</w>
b en
6 3</w>
s on</w>
0. 7
invol ving</w>
e .
micro M</w>
n ational</w>
C M
cler osis</w>
E R</w>
mil d</w>
op e</w>
gen ase</w>
y et</w>
ol ip
ar cin
ac char
gen ital</w>
fl ex
g er</w>
potenti ally</w>
re combin
ver s</w>
Im mun
phen otype</w>
ag re
ti al</w>
cont act</w>
6 8</w>
t on</w>
pro gnostic</w>
s ph
tem p
k es</w>
membran es</w>
th resh
or ith
gra ft</w>
ap h
fer red</w>
con sec
Wh ile</w>
si vely</w>
plasm ic</w>
path ogenesis</w>
B ac
an th
H D</w>
S O
mix ed</w>
do m</w>
spati al</w>
el ines</w>
AL S</w>
pr inc
5 8</w>
A A</w>
ob esity</w>
man ner</w>
c anc
acet yl
ju g
aspec ts</w>
d enti
ab normal</w>
heter ogene
complet ed</w>
bar ri
n ed</w>
molec ule</w>
n ature</w>
sub stitu
differenti al</w>
system atic</w>
plast y</w>
inter pre
res our
ro w
ve si
ar ing</w>
cor d</w>
it able</w>
ro les</w>
abs orption</w>
v ul
reduc ing</w>
in ser
w ard</w>
F rom</w>
gen der</w>
relationsh ips</w>
join t</w>
g est
til ity</w>
P I
alter ations</w>
fe eding</w>
ach ed</w>
bec ome</w>
5 7</w>
v ements</w>
as al</w>
n ine</w>
V I
ic le</w>
B e
implic ations</w>
mar row</w>
od ynam
frequ ent</w>
ar com
questionn aire</w>
us ually</w>
AM P</w>
te en</w>
arth ritis</w>
di etary</w>
kin etics</w>
nucle us</w>
dis co
S tr
h ere</w>
throm bo
bene fit</w>
suffici ent</w>
N C
ser ved</w>
sec tion</w>
pro long
P G
lo ro
traum a</w>
us al</w>
ass es</w>
appe ar</w>
M T
wh ite</w>
6 6</w>
metast asis</w>
plac e</w>
ey e</w>
5 9</w>
attr ib
M et
alg orith
challeng e</w>
M ost</w>
protoc ol</w>
sp ace</w>
hypo x
curren tly</w>
U C
D M</w>
determin ation</w>
predic tive</w>
tum our</w>
N a</w>
biom ar
chang ed</w>
difficul t</w>
pre h
orig in</w>
con clusion</w>
wid ely</w>
S P</w>
character ization</w>
classi fication</w>
ie ve</w>
o ve
conclud e</w>
om en
is ting</w>
ery thro
A R</w>
v ity</w>
dow n
li ving</w>
lym ph</w>
ep id
osom es</w>
app ing</w>
of f</w>
f ed</w>
L i
A L</w>
inte rest</w>
v ec
str um
con stitu
m M</w>
id ly</w>
detec t</w>
ar s</w>
ipp oc
H R
medic ine</w>
em ph
transi tion</w>
parti cles</w>
& amp
&amp ;</w>
in d
ar ization</w>
N O</w>
y cl
olog ous</w>
it ud
olog ies</w>
ne ut
8 5</w>
lo ad</w>
acc ess</w>
psych i
sec tional</w>
l ys
glob al</w>
sex ual</w>
d or
is ing</w>
IN T
promis ing</w>
P r
ar m</w>
acti n</w>
O ver
if or
end oscop
plac ed</w>
ultras ound</w>
ippoc amp
ev ol
tiv es</w>
th ym
pl us</w>
str i
su peri
polymer ase</w>
el ements</w>
protec tion</w>
pot ent</w>
g raph
macroph ages</w>
tr yp
i i</w>
n umer
D ec
t el
or th
E uro
at temp
tow ard</w>
id ent</w>
en ro
cont ext</w>
rec ognition</w>
ne ph
ev olution</w>
st abil
ster one</w>
impa ired</w>
s ha
l yc
ex ternal</w>
we igh
s ess
wor ks</w>
success fully</w>
impair ment</w>
adju sted</w>
ach ing</w>
spec i
thesi a</w>
sti t
t ob
le ads</w>
ovari an</w>
A fr
complet ely</w>
d ogs</w>
consec utive</w>
n m</w>
O H</w>
hy dr
spec tively</w>
E M
il ep
g .</w>
behavi oral</w>
di ameter</w>
medi a</w>
g er
vacc ine</w>
C C</w>
b ile</w>
pos ite</w>
occ us</w>
sol id</w>
ul a</w>
neu tr
recur rent</w>
ci ans</w>
aro und</w>
6 1</w>
predic t</w>
si on
anxi ety</w>
vir uses</w>
sus p
de x
ap s</w>
1. 0
org an</w>
requi res</w>
recombin ant</w>
ti l</w>
occur rence</w>
f al
co ag
k ine</w>
const ant</w>
in d</w>
ne ar</w>
e. g.</w>
ma king</w>
comp an
U ni
Diff eren
statis tical</w>
b ut
can di
memb ers</w>
Des pite</w>
Ne w</w>
ec onomic</w>
c utaneous</w>
S L
as h
yi el
dom ains</w>
7 3</w>
sequ encing</w>
kin es</w>
C D</w>
h ex
gener ally</w>
kin etic</w>
al ine</w>
iton eal</w>
e ous</w>
rap idly</w>
oxid ase</w>
sh e
vas cul
3 H</w>
h ippocamp
H osp
SC s</w>
c enter</w>
infarc tion</w>
o id
nan op
compar able</w>
sur fac
he at</w>
clu sions</w>
ver te
g in
through out</w>
radi o
qu al
asth ma</w>
set ting</w>
H igh</w>
6 9</w>
Fin ally</w>
p y
k ne
IF N</w>
stre am</w>
el im
bio chemical</w>
o ked</w>
m ia</w>
compo und</w>
in strum
ac ting</w>
lig and</w>
psych ological</w>
C P</w>
H A</w>
Eff ects</w>
F A</w>
ac r
ent ary</w>
mod eling</w>
spectr um</w>
ad j
dev ice</w>
oc k
re main</w>
ischem ia</w>
C l</w>
disc rim
ne eds</w>
metast atic</w>
profil es</w>
it u
anti gens</w>
canc ers</w>
solu ble</w>
saf e</w>
R A</w>
O r
1 0.
ran ial</w>
v ag
adequ ate</w>
C S</w>
P hy
P M
injur ies</w>
r s</w>
associ ations</w>
od ds</w>
expl ore</w>
targ ets</w>
pe diatric</w>
dra w
accur ate</w>
el ic
P I</w>
ocl onal</w>
oc ular</w>
i ons</w>
ex isting</w>
l er</w>
dec ision</w>
frac ture</w>
respec t</w>
r he
form ing</w>
ey es</w>
guid elines</w>
develop mental</w>
yl ated</w>
D I
br onch
st ates</w>
7 8</w>
ed ly</w>
diff er</w>
leuk emia</w>
tuber cul
re tinal</w>
m as
M icro
thal am
characteris tic</w>
f its</w>
ra z
p tom
S yn
n itr
anc ies</w>
mar ked</w>
cl on
ischem ic</w>
vari ability</w>
dist al</w>
Eff ect</w>
chr on
fac ial</w>
D a</w>
ep ilep
il i
def ects</w>
thor ac
P K
il l</w>
qu in
nec k</w>
experi enced</w>
C an
comp uted</w>
B ec
ble eding</w>
famil ies</w>
ep is
organis ms</w>
ro ot</w>
transfer ase</w>
tic ular</w>
al low</w>
re present</w>
targ eted</w>
pro p
lab eled</w>
wh at</w>
o rectal</w>
pneum on
s es
program s</w>
co sts</w>
min utes</w>
sign als</w>
not ed</w>
an other</w>
h ol
on c
S M
manif est
therap ies</w>
fib rosis</w>
ro ti
ch ic
aryn g
pres entation</w>
toler ance</w>
c ed</w>
b on
1 1.
pa ir
nec rosis</w>
allow s</w>
S R
V A</w>
il ed</w>
sub unit</w>
p ast</w>
thic kness</w>
path ological</w>
T L
specific ally</w>
oxid ant</w>
intrav enous</w>
superi or</w>
am s</w>
al most</w>
adhe sion</w>
A F
phen omen
com pe
7 1</w>
d ental</w>
st en
p ut
b asic</w>
extrac tion</w>
h ab
nerv ous</w>
morph ology</w>
S ince</w>
phot o
spont aneous</w>
gram s</w>
ich ia</w>
fin ding</w>
suscepti bility</w>
com preh
ic in</w>
inhib it</w>
di an</w>
pres er
E C</w>
bi t</w>
prob ably</w>
wa ve</w>
syn th
az ole</w>
observ ations</w>
employ ed</w>
B C</w>
soci ation</w>
con jug
int act</w>
ab und
rati os</w>
Tw enty</w>
N S
CS F</w>
pres s</w>
con tained</w>
lap aro
recommend ed</w>
s mal
l igh
ap parent</w>
numb ers</w>
l and
J ap
i ve</w>
CD 4</w>
tic ip
ar y
prepar ation</w>
rang ed</w>
7 4</w>
tain s</w>
accoun t</w>
ac k</w>
r ich
at er
cont amin
ver s
cir cul
bor n</w>
sit u</w>
g as</w>
com pr
oc arcin
at rial</w>
ogen etic</w>
mo vement</w>
ther mal</w>
ane ur
oly tic</w>
H C</w>
Chin ese</w>
ch ann
n ic
uc id
C P
ec tive</w>
tow ards</w>
Amer ican</w>
atic ally</w>
C R</w>
ep idemi
di versity</w>
n am
adolesc ents</w>
the ory</w>
mid dle</w>
end ogenous</w>
techn ology</w>
indic ates</w>
ove rex
gra f
t un
ear ing</w>
gre at
mo de</w>
ther n</w>
R A
le t</w>
aneur ys
em ented</w>
pol ic
mam m
enc ephal
mic r
as sist
bal ance</w>
cel er
on in</w>
op tical</w>
H um
en ic</w>
metr ic</w>
in stitu
M P</w>
don or</w>
o il</w>
discus s</w>
3 ,
medic ation</w>
c en
vol un
sour ces</w>
des pite</w>
y lo
succ ess</w>
tra ditional</w>
per me
se arch</w>
bo v
en ed</w>
7 6</w>
a ine</w>
ac u
E p
yi eld</w>
fin al</w>
reconstruc tion</w>
loc alization</w>
g on
T P</w>
to m</w>
a ther
glut am
s on
underst and</w>
esophag eal</w>
depend ently</w>
e str
leuk in</w>
sit u
m ing</w>
transp or
ty ros
prolong ed</w>
eth anol</w>
recogn ized</w>
bloc k</w>
ca th
vari ants</w>
ch ym
op i
gl and</w>
meth od
un til</w>
9 6</w>
cal e</w>
al le
C ancer</w>
pre operative</w>
8 8</w>
nur sing</w>
P F
E sch
emergen cy</w>
electro ph
An ti
cyt es</w>
mon oclonal</w>
Hosp ital</w>
c all
del ayed</w>
oph ysi
H T</w>
cr uc
ob l
Ad di
ma ke</w>
physi cians</w>
immun os
chann els</w>
7 9</w>
Esch er
extrac t</w>
requ ire</w>
l and</w>
7 7</w>
estim ate</w>
Escher ichia</w>
k Da</w>
D A</w>
olec ular</w>
defici ent</w>
random ly</w>
S I</w>
- 0.
oc om
analy sed</w>
syn thesized</w>
re ly</w>
issu es</w>
so il</w>
immuno histo
par as
maxim al</w>
ang li
em is
bene fits</w>
tr im
en si
neut roph
ib r
im en</w>
ten ance</w>
fr ame
proxim al</w>
e di
targ eting</w>
des crip
Ch il
fib ers</w>
an tim
1 3.
cl ose</w>
frac tures</w>
stimul i</w>
our s</w>
end ing</w>
enh ance</w>
tox ic</w>
regi onal</w>
3 0
p 53</w>
Un ited</w>
kne e</w>
h ome</w>
an ted</w>
3 D</w>
app earance</w>
on ate</w>
ac compan
experim ent</w>
inter fer
ar thro
sch iz
um in</w>
oc or
D M
no de</w>
Th ir
Over all</w>
R el
ep s</w>
hy p
inva sion</w>
met a</w>
re plication</w>
F ol
hem orrh
Ig G</w>
R ev
complic ation</w>
re placement</w>
gen omic</w>
y e
a p</w>
recur s
g al
us ual</w>
bil ateral</w>
pl ayed</w>
an u
spectro scopy</w>
fin d</w>
ei ved</w>
in ate</w>
oph ren
distin gu
T A
wh ose</w>
nucle otide</w>
inter mediate</w>
8 6</w>
se iz
ve in</w>
p el
antibio tic</w>
scho ol</w>
ac celer
requi re
ul ate</w>
ang u
cho ice</w>
no d
syn thetic</w>
oglob in</w>
ang le</w>
d one</w>
T 1</w>
m ic</w>
es tions</w>
ex pan
classi fied</w>
MATERI ALS</w>
antagon ist</w>
ap hy
f ast</w>
mut ants</w>
se ems</w>
foc al</w>
sk eletal</w>
T B
avail ability</w>
P E</w>
D s</w>
ev ent</w>
jec tion</w>
depend ence</w>
mil k</w>
oc rine</w>
F e
acti c</w>
os al</w>
uc h</w>
cur ve</w>
ph il
p recurs
N ational</w>
psychi atric</w>
agre ement</w>
injec ted</w>
av age</w>
ass emb
e ase</w>
at ase</w>
ev ery</w>
typ ical</w>
ex cre
5 0
an a
chol ine</w>
provid ing</w>
equ i
rel ap
P las
co ord
neon atal</w>
initi ation</w>
itud inal</w>
ear li
ar in</w>
reli able</w>
possi bility</w>
ben ign</w>
Bec ause</w>
t ase</w>
am b
id en
n or</w>
path ology</w>
st or
prog ressive</w>
f ore
aut om
grow ing</w>
ell ar</w>
av es</w>
transi ent</w>
E lec
dist ance</w>
anal og
H LA</w>
S ign
oper atively</w>
el ucid
B r
cell ent</w>
b ly</w>
BM I</w>
F ac
physi c
pregn ant</w>
ad ded</w>
lymph oma</w>
mo bil
ex change</w>
co ding</w>
micro grams</w>
ari a</w>
conclud ed</w>
rel ax
main tenance</w>
is ation</w>
rou tine</w>
su itable</w>
metabol ites</w>
recip i
it us</w>
Rec ent</w>
g radi
a vi
pres enting</w>
ex tensive</w>
sh ock</w>
9 3</w>
mul ti</w>
inf il
un clear</w>
transpl ant</w>
hydro gen</w>
h und
C F
mark edly</w>
v als</w>
electroph ore
ir radiation</w>
epis od
T E
repe ated</w>
ill ness</w>
ti ous</w>
an ine</w>
z es</w>
g ain</w>
thresh old</w>
sens ory</w>
cyt os
ex ist
1. 0</w>
ch loro
re f
arcom a</w>
R S</w>
w al
fail ed</w>
transcrip tional</w>
ot omy</w>
se ts</w>
1 2.
it ative</w>
observ ation</w>
enro lled</w>
hy d
R ep
r ich</w>
gre at</w>
O F</w>
wor king</w>
ver sion</w>
oly sis</w>
bov ine</w>
ra dical</w>
ess els</w>
path y</w>
abil ities</w>
8 4</w>
D ev
vari ed</w>
ha z
5 00</w>
anu ary</w>
st ly</w>
pro s
tin gs</w>
J anuary</w>
ac t
tyros ine</w>
M an
prim arily</w>
enco ding</w>
h ip</w>
hospit als</w>
k ary
gastro intestinal</w>
loc alized</w>
ri a</w>
phosph olip
al is</w>
port un
tur n</w>
dis charge</w>
ogen s</w>
val ve</w>
gran ul
og ra
cycl ic</w>
dop amine</w>
c ros
predic tion</w>
T A</w>
smo oth</w>
v essels</w>
a rom
ex cellent</w>
compe ti
col on</w>
8 3</w>
c ent
smal ler</w>
ar t
ran dom</w>
iden tical</w>
w ound</w>
synap tic</w>
Hum an</w>
occur ring</w>
cou pled</w>
metast ases</w>
D O
peri ods</w>
show ing</w>
aim s</w>
minim al</w>
fib er</w>
commun ication</w>
col orectal</w>
parti ally</w>
ster oid</w>
s ou
pol yp
schiz ophren
u tions</w>
k et
8 2</w>
C ur
induc es</w>
roti d</w>
challeng es</w>
it ory</w>
vi ous</w>
cyto kines</w>
child hood</w>
pro pose</w>
di ed</w>
main tained</w>
amoun ts</w>
to ols</w>
heal ing</w>
gen e
p seud
dev ices</w>
bel ow</w>
fol l
Pro te
o thers</w>
acqu ired</w>
l ing</w>
P 1</w>
oc ity</w>
L PS</w>
inter vals</w>
On ly</w>
g o</w>
mal ian</w>
ch es</w>
m urine</w>
subjec t</w>
serv ice</w>
trans l
odynam ic</w>
0.00 01</w>
pl ate</w>
1 4.
sup pression</w>
deriv atives</w>
F r
si an</w>
promot e</w>
behavi ors</w>
shif t</w>
In cre
est er</w>
ris e</w>
impl ementation</w>
yl ase</w>
Me dic
pro be</w>
h abil
de hydro
W estern</w>
or ly</w>
S ec
tubercul osis</w>
L DL</w>
Th er
g angli
de ep</w>
conver sion</w>
2 50</w>
exc ept</w>
health care</w>
nanop articles</w>
r ho
view s</w>
ly sis</w>
w ise</w>
dist urb
tre at</w>
C Y
9 8</w>
frame work</w>
G S</w>
contro ll
vi si
incub ation</w>
hist ological</w>
alle l</w>
extrac ted</w>
in oc
St ates</w>
b ular</w>
diff usion</w>
ad s
wor kers</w>
n ative</w>
gra m</w>
inter leukin</w>
ar ies</w>
er r
epid er
sur ro
9 2</w>
res ting</w>
o k</w>
T a
cor ne
mus cles</w>
er ic</w>
a ud
vel ocity</w>
es sive</w>
adju v
e f
datab ase</w>
de pl
domin ant</w>
asp ir
Sev eral</w>
dr in
op portun
b and</w>
recor ds</w>
emb ol
S V</w>
en rich
fil m</w>
ati tis</w>
inten sive</w>
9 9</w>
clos ely</w>
E valu
he re
GF R</w>
f ar</w>
ill us</w>
E E
i b</w>
an a</w>
in du
en ia</w>
res ol
fem oral</w>
foc used</w>
ten tion</w>
8 1</w>
Chin a</w>
direc ted</w>
oz yg
trans formation</w>
em p
issu e</w>
lim b</w>
pers on
equ al</w>
shap e</w>
produc ing</w>
m arg
ex ten
re verse</w>
pl ex</w>
ent ally</w>
P V
arter ies</w>
vari ations</w>
res sed</w>
ocy tic</w>
pers ons</w>
so ft</w>
lat ter</w>
pro mo
0. 2</w>
Con tro
ach ieve</w>
mat ter</w>
p in
paren ts</w>
e a</w>
ow n</w>
st ers</w>
impl antation</w>
as ting</w>
ex pressing</w>
ser ious</w>
p ed</w>
air way</w>
ill in</w>
s low</w>
hyper tensive</w>
o ro
vi ol
hybri di
hund red</w>
analy ze</w>
anti oxidant</w>
seg ment</w>
S cale</w>
P H</w>
ser a</w>
A S
F our</w>
prote in
extrac ts</w>
decre ases</w>
chlor ide</w>
c ent</w>
t al
il ls</w>
in dependently</w>
E 2</w>
mam malian</w>
organ ization</w>
melan oma</w>
1 1
radi otherapy</w>
fix ed</w>
I R</w>
8 9</w>
nur ses</w>
compar ing</w>
N H
C al
ow el</w>
ath s</w>
if y</w>
as tic</w>
D L
tic ul
the ore
con genital</w>
pul se</w>
fluo ro
8 7</w>
ac in</w>
Ex perim
n a
ad mission</w>
rab bit</w>
fibrobl asts</w>
P R</w>
C r
def ect</w>
igh tly</w>
Ne uro
influ enced</w>
it ations</w>
comm erc
practi ces</w>
G C</w>
C ell</w>
uter ine</w>
9 4</w>
ye ast</w>
20 14</w>
rec tomy</w>
ocarcin oma</w>
Sur g
perc eived</w>
o ts</w>
U D
chrom e</w>
remain ing</w>
H ist
B S</w>
ab or
algorith m</w>
expl ored</w>
net works</w>
iz es</w>
t ant</w>
neurolog ical</w>
larg ely</w>
aff ecting</w>
E T</w>
meth ylation</w>
morph ological</w>
z in
ati on
om al
B 1</w>
modi fication</w>
ex clud
H z</w>
op a
est rogen</w>
mag nit
N G</w>
habil itation</w>
In f
HC V</w>
20 15</w>
A 1</w>
ex tended</w>
3 00</w>
fr ontal</w>
gl omer
res er
solu tions</w>
G A</w>
par allel</w>
compreh ensive</w>
impro ving</w>
dem ographic</w>
sam pling</w>
om at
underst ood</w>
A t
pro ved</w>
cruc ial</w>
con tains</w>
differenti ated</w>
exhib it</w>
alb umin</w>
gen otype</w>
m er</w>
wor k
s ting</w>
e de
T 3</w>
behavi our</w>
n ia</w>
il lu
an ese</w>
di verse</w>
stit ute</w>
wh om</w>
earli er</w>
otyp ic</w>
ad op
sum mar
worl d</w>
f ill
repres ents</w>
1 20</w>
stimul us</w>
ris ks</w>
chem o
I M
Tran s
enhanc ement</w>
cy s
S ome</w>
epti de</w>
tox in</w>
electr onic</w>
antibio tics</w>
substanti al</w>
cir cum
surg e
d a</w>
ab r
conc ept</w>
9 7</w>
sl ightly</w>
ob ese</w>
col um
h ome
t ac
pre g
osyn thesis</w>
c DNA</w>
new ly</w>
fe ed
Com pared</w>
Uni versity</w>
Me an</w>
sci enti
4 ,
stor age</w>
con tain</w>
spectro metry</w>
predic tors</w>
establ ish</w>
Con clusion</w>
sec tions</w>
P ase</w>
agon ist</w>
mod ulation</w>
high ligh
enti a</w>
posi tively</w>
meas uring</w>
ad es</w>
i od
le th
satisfac tion</w>
ac ter</w>
m m
con served</w>
ar ray</w>
contrib ution</w>
glyc er
Me dical</w>
se l</w>
fl av
tr iti
immun ity</w>
sp re
cyto kine</w>
G AB
detec table</w>
and ed</w>
9 1</w>
S tu
us ers</w>
su stained</w>
e tr
reve al</w>
U T
sal ine</w>
bene ficial</w>
expl ained</w>
olog ists</w>
1 5.
u es</w>
c ad
ex er
L C</w>
yl ate</w>
E LI
impl ant</w>
N a
dec line</w>
t age</w>
accompan ied</w>
it ude</w>
RO D
G H</w>
p il
add ress</w>
ste re
k age</w>
Ch ar
1. 2</w>
icro bial</w>
ca re
log istic</w>
stand ardi
aff ects</w>
T GF</w>
im er</w>
ac ted</w>
de part
oc clusion</w>
eng ine
N P</w>
org ans</w>
A 2</w>
bu il
de hy
D R
sc anning</w>
H 2
describ es</w>
0. 3</w>
T yp
regul ate</w>
itu itary</w>
adjuv ant</w>
el op
sup pressed</w>
cl earance</w>
can not</w>
con sequences</w>
vari ant</w>
st om
C C
ROD UC
traum atic</w>
di ver
multi variate</w>
in ter</w>
phen yl
immun ore
sy st
em bl
HC C</w>
electr ical</w>
lim it</w>
re activity</w>
influ enz
INT RODUC
f a
o virus</w>
S u
long itudinal</w>
frag ment</w>
electr ic</w>
ch est</w>
no v
20 16</w>
integr ated</w>
consist ed</w>
20 13</w>
S M</w>
F unc
del ta</w>
b s</w>
INTRODUC TION</w>
allow ed</w>
i pl
h am
ne t</w>
roph y</w>
ast er</w>
effec tively</w>
acet ate</w>
S al
po orly</w>
PA R
otrop ic</w>
adhe rence</w>
Dev elop
O p
oph osph
U V</w>
P P</w>
I CA
assemb ly</w>
P ol
acchar ide</w>
Stu dies</w>
sten osis</w>
r ig
de vi
coun t</w>
magnit ude</w>
al ities</w>
a emia</w>
nor m
fr actions</w>
el ement</w>
persist ent</w>
press or</w>
ol ds</w>
estim ates</w>
d ual</w>
ath i
low ing</w>
E B
bur den</w>
respon si
fac t</w>
fix ation</w>
ampl itude</w>
gh ts</w>
Bac kground</w>
t ance</w>
co ver
nit rogen</w>
st ay</w>
par ts</w>
ici ans</w>
ens in</w>
pro phyl
biomar kers</w>
d ation</w>
ob tain</w>
an dro
N F
cl early</w>
out put</w>
ell itus</w>
ib ility</w>
cir c
In te
advant ages</w>
P l
separ ation</w>
pl e
erro r</w>
inhib its</w>
se as
A F</w>
h our</w>
substr ates</w>
rang ing</w>
de si
ap er
suppor ted</w>
nutri tion</w>
e f</w>
conc ep
dep th</w>
gener ative</w>
D el
Addi tionally</w>
qu estions</w>
al dehy
7. 5</w>
pres ents</w>
con serv
fluoresc ent</w>
volun te
ri um</w>
an k
polymorph ism</w>
com it
a wa
exam ple</w>
infec tious</w>
pair s</w>
expl ain</w>
vis u
sh ip</w>
n asal</w>
clin ic</w>
rhe um
epith elium</w>
go al</w>
ev oked</w>
valid ated</w>
N K</w>
ca rotid</w>
subst ance</w>
ede ma</w>
C O</w>
pers onal</w>
H I
c os
junc tion</w>
is es</w>
as signed</w>
sen se</w>
PE T</w>
l angu
cap able</w>
end ocrine</w>
ex pec
car bo
O c
ost asis</w>
func tioning</w>
1 6.
docum ented</w>
A G
determin ing</w>
reproduc tive</w>
symp tom</w>
le ts</w>
pel v
thorac ic</w>
si c</w>
micro bial</w>
medi ately</w>
b owel</w>
Sim il
As sess
ill ance</w>
ather os
princ i
pol y</w>
O ut
resid ual</w>
mo thers</w>
g ent</w>
facilit ate</w>
av y</w>
orig inal</w>
W or
embry onic</w>
per itoneal</w>
bet a
Euro pe
cor d
sper m</w>
o res</w>
intro duced</w>
ul c
ul monary</w>
comput er</w>
min or</w>
prolifer ative</w>
S ch
Chil d
sensi ti
C V
restric ted</w>
di a</w>
en al</w>
pol ar</w>
al ve
reg ular</w>
aden osine</w>
assist ed</w>
anal ge
k ill
continu ed</w>
Ser um</w>
sal t</w>
surfac es</w>
a id</w>
no ise</w>
Compar ison</w>
A V
f it
ir ing</w>
de aths</w>
Par ticip
syst olic</w>
correl ations</w>
b yp
medi al</w>
at tit
le a
h r</w>
resour ces</w>
u preg
illu str
N O
car r
R R</w>
anes thesia</w>
p ituitary</w>
flu x</w>
ph ag
confir m</w>
C E
am ous</w>
compar t
h is</w>
circul ating</w>
aer obic</w>
hypox ia</w>
t am
re habilitation</w>
aryng eal</w>
cryst al</w>
pharmac o
m ol
emis sion</w>
is ms</w>
phosph atase</w>
M a
AC T</w>
ma x</w>
R adi
dis played</w>
thou ght</w>
Ch ang
call ed</w>
he aring</w>
chym al</w>
vec tor</w>
m ellitus</w>
frag ments</w>
lymph ocyte</w>
del etion</w>
C F</w>
youn ger</w>
Phy si
es sel</w>
reli ability</w>
insi c</w>
Au str
Evalu ation</w>
A M</w>
cl im
ELI SA</w>
ach ment</w>
ad mitted</w>
fibr ill
p ing</w>
fung al</w>
sulf ate</w>
4 0
s p</w>
au g
m im
ur ia</w>
yt o
os in</w>
allel e</w>
on e
I s</w>
T C</w>
ser ve</w>
si es</w>
val idity</w>
S R</w>
ocyt osis</w>
susp ected</w>
regul ating</w>
di alysis</w>
f und
r ac
symptom atic</w>
pl anning</w>
excre tion</w>
H E
emo tional</w>
set tings</w>
d yl
endoscop ic</w>
loc us</w>
he imer</w>
cataly tic</w>
investig ations</w>
g ir
Europe an</w>
z one</w>
pig s</w>
gener ate</w>
eti ology</w>
f et
Al z
cath eter</w>
ot or</w>
co efficient</w>
util ization</w>
he ight</w>
car til
schizophren ia</w>
mo ti
hybridi zation</w>
possi bly</w>
clu ster</w>
ech ocardi
ul f
recommend ations</w>
cytotox ic</w>
dem entia</w>
tren d</w>
bi ology</w>
end ed</w>
trac he
L D</w>
20 12</w>
ta king</w>
og ram</w>
repres ent
bacter ium</w>
remo ved</w>
muc osal</w>
0.0 2</w>
av oid
B et
P rim
posi tions</w>
1. 1</w>
i si
l ar
plas m</w>
iz ations</w>
pl er</w>
st anding</w>
mac ro
A g</w>
f re
Alz heimer</w>
cor tico
sol ute</w>
cre atin
zin c</w>
B D</w>
per f
am ent</w>
c AMP</w>
muc osa</w>
isol ation</w>
tu be</w>
ec al</w>
tre ating</w>
carb ox
aqu eous</w>
character ize</w>
P ost
al ign
re tention</w>
20 00</w>
sw it
qual itative</w>
umb ar</w>
rever sible</w>
deta iled</w>
angi ography</w>
ul tra
vacc ination</w>
dehydro genase</w>
nit ro
PL C</w>
0. 4</w>
venti lation</w>
hist opath
in clusion</w>
controll ing</w>
il ateral</w>
electrophore sis</w>
fic ations</w>
r hyth
el ds</w>
recei ve</w>
at ter
T B</w>
subjec ted</w>
neph ro
pharmac ological</w>
frequ encies</w>
gradi ent</w>
1. 3</w>
bloc ked</w>
intr a</w>
parti cle</w>
op ic</w>
no des</w>
I GF</w>
M E</w>
d ents</w>
D N
hybri d</w>
demonstr ates</w>
per form</w>
synth ase</w>
del ay</w>
D ep
e asi
bro ad</w>
d end
cyto chrome</w>
vari ance</w>
M on
simult aneously</w>
con form
correc t</w>
o ic</w>
v ate</w>
consider able</w>
im mediately</w>
pre feren
separ ate</w>
var ying</w>
potenti als</w>
fe ature</w>
su ic
ot ensin</w>
Dis ease</w>
ste ine</w>
langu age</w>
P e
integr ation</w>
Thir ty</w>
1. 4</w>
L P</w>
Sign ific
im e</w>
p ic
fav or
Res earch</w>
D op
af f</w>
wom an</w>
in sec
em entary</w>
elec tive</w>
barri er</w>
sc an</w>
re ached</w>
ev er
spe ed</w>
obstruc tion</w>
gen it
um p</w>
N MR</w>
am ph
feed back</w>
urb an</w>
lu tion</w>
u tion
el ess</w>
blo t</w>
experi ences</w>
bl ind</w>
T H</w>
ec h</w>
b its</w>
b ond</w>
C E</w>
D C</w>
assess ing</w>
cryst all
bac kground</w>
opath ic</w>
u ting</w>
ro om</w>
duc t</w>
U C</w>
r ural</w>
inf ant</w>
pres crib
speci al
interfer on</w>
1 50</w>
ac ent</w>
3. 5</w>
z ym
aggreg ation</w>
sp i
ec tin</w>
pr in
ptom atic</w>
spec ial</w>
oc aine</w>
compar ative</w>
B lo
dri ven</w>
reduc es</w>
Ex pression</w>
alph a
embry os</w>
perc eption</w>
bi as</w>
C ardi
coun ter
er b
om ical</w>
numer ous</w>
f ru
n e</w>
G u
antim icrobial</w>
V ari
nucle i</w>
byp ass</w>
P a
ud es</w>
A K
ish ing</w>
MD A</w>
di ast
spectr a</w>
er a</w>
4 00</w>
D R</w>
et h</w>
bu ff
M ore</w>
path ophysi
m ented</w>
r in
physic ian</w>
cy cles</w>
In hib
he avy</w>
C G</w>
seg ments</w>
de oxy
prob ability</w>
ex ist</w>
apopto tic</w>
equi valent</w>
tum ours</w>
tiv ation</w>
tion ed</w>
I V
arr hyth
mix ture</w>
M any</w>
includ es</w>
assi um</w>
exist ence</w>
hypo thalam
retro spectively</w>
nitr ic</w>
lipo protein</w>
athi one</w>
invol ves</w>
C L</w>
wh e
phenomen on</w>
de generation</w>
il ib
men ing
ast oma</w>
st ment</w>
F e</w>
heterogene ity</w>
prepar ations</w>
n ar
ch ec
L H</w>
rele ased</w>
sk ills</w>
I denti
dor sal</w>
B L</w>
cycl o
glutam ate</w>
os in
C M</w>
it ol</w>
2. 0</w>
R s</w>
complic ated</w>
aldehy de</w>
el ls</w>
preven ted</w>
vi ability</w>
d ase</w>
comp et
program m
L V</w>
subsequ ently</w>
L E
ca using</w>
t on
v essel</w>
cou pling</w>
ul l
Me as
b earing</w>
um ab</w>
prog ress</w>
at um</w>
F ive</w>
v o
s .
low est</w>
AI M</w>
N I
repor ting</w>
restric tion</w>
C u</w>
phen yl</w>
U l
cys tic</w>
pi g</w>
attenu ated</w>
so f
adj acent</w>
ul l</w>
theore tical</w>
lo ading</w>
az ol
Austr al
sal iv
sim ulation</w>
dis per
cyto plasmic</w>
fi elds</w>
triti onal</w>
an omal
Particip ants</w>
g et
u bi
dis ability</w>
circ ulation</w>
ster oids</w>
eth n
implic ated</w>
Afr ican</w>
perc ep
m 2</w>
mon o
on as</w>
im mediate</w>
f ic</w>
si des</w>
in a</w>
or i</w>
T 2</w>
influenz a</w>
alve olar</w>
E arly</w>
polic y</w>
identi fying</w>
polym er</w>
0. 6</w>
Dec ember</w>
vers ely</w>
.0 01</w>
r s
reg ard</w>
hyper troph
lin e
acc o</w>
distrib uted</w>
od on
eff orts</w>
CY P
aden ocarcinoma</w>
th re
su b</w>
m os
cor tis
respec tive</w>
H PV</w>
cere b
Di ag
0. 8</w>
un treated</w>
man ip
a x</w>
st atic</w>
recru ited</w>
st rom
am ylo
micro g</w>
volunte ers</w>
squ amous</w>
minim um</w>
Typ e</w>
di min
1 8.
initi ally</w>
hemorrh age</w>
lim itations</w>
rou gh</w>
tra its</w>
p ine</w>
es tive</w>
re perfusion</w>
de pressive</w>
st aff</w>
f ever</w>
me t</w>
et ro
aphy loc
tic ity</w>
lu e</w>
o plasty</w>
re ferred</w>
Con clusions</w>
vesi cles</w>
direc tion</w>
op tic</w>
immun oglob
F I
construc ted</w>
B M</w>
esc ence</w>
cartil age</w>
1. 6</w>
adap tation</w>
c ess
st eps</w>
laparo scopic</w>
G R
au re
ro t
In v
ex per
al ter</w>
com posed</w>
ine a</w>
enti re</w>
om ics</w>
rab bits</w>
K 1</w>
profes sional</w>
auto immune</w>
sin us</w>
on ce</w>
cir rho
bin d</w>
b ic
monit ored</w>
com posite</w>
mitochond ria</w>
2 -</w>
phosph ati
arg in
dis cre
o g</w>
cen ters</w>
concer ning</w>
M in
disc ipl
struc tured</w>
ar rang
elev ation</w>
p ene
b ran
S outh</w>
ta x
ad ed</w>
clos ed</w>
eth yl</w>
ai l</w>
sequ ently</w>
evalu ating</w>
le p
o sterone</w>
asi bility</w>
Ac ute</w>
pot assium</w>
spl een</w>
D P</w>
w er</w>
sat ur
Char acter
expan sion</w>
coll ection</w>
shor ter</w>
con comit
pol arization</w>
put ative</w>
smo kers</w>
simult aneous</w>
predomin antly</w>
tin g
s chem
bec ame</w>
read y</w>
p us</w>
f ing
in ner</w>
mo bility</w>
adv ances</w>
standardi zed</w>
adi ol</w>
it ment</w>
inser tion</w>
sil ic
1. 8</w>
there by</w>
injec tions</w>
consi sting</w>
respon sive</w>
SE T
epilep sy</w>
reg imen</w>
G er
overex pression</w>
suscepti ble</w>
k in</w>
3. 3</w>
ad renal</w>
H M
recipi ents</w>
cle avage</w>
A b</w>
ph ases</w>
i ance</w>
te tr
carcin omas</w>
ad y</w>
k ly</w>
R is
surro un
oscop y</w>
TI NG</w>
S S
relax ation</w>
don ors</w>
depend ing</w>
br id
T s</w>
pl atin</w>
be d
E ach</w>
lig ands</w>
opi oid</w>
Ch r
AI DS</w>
ex tension</w>
ST R
F ir
ca vity</w>
1. 7</w>
ati g
end ometr
neg atively</w>
p ly</w>
Blo od</w>
contrac tion</w>
pa ired</w>
chol in
l um
idi c</w>
episod es</w>
g ut</w>
pl an
fr acti
extrem ely</w>
depend s</w>
glut athione</w>
rec o
diast olic</w>
nan o
compl ement</w>
ro b
G I
D 1</w>
pre treatment</w>
res ear
practi cal</w>
cl asses</w>
as ingly</w>
ren ess</w>
glyc os
mat uration</w>
am mon
angi otensin</w>
p ass
util ized</w>
v in
m apping</w>
tas ks</w>
i ent</w>
ep it
ic illin</w>
oc ellular</w>
Fol lowing</w>
polymorph isms</w>
le g
cytotox icity</w>
grow n</w>
allow ing</w>
EE G</w>
P 2</w>
path ogens</w>
ser ot
otox in</w>
Child ren</w>
ro se</w>
sp ine</w>
f lo
reco vered</w>
re t
4. 5</w>
plasm id</w>
def ine</w>
clos ure</w>
VE GF</w>
util ity</w>
I f</w>
surve illance</w>
re generation</w>
lo op</w>
d wide</w>
cur ves</w>
A g
path ogenic</w>
de position</w>
F if
M D</w>
S uch</w>
consi der</w>
guid ed</w>
valid ation</w>
20 10</w>
pr o</w>
al ways</w>
man di
os por
incorpor ation</w>
dr y</w>
emph asi
sp ring</w>
en se</w>
coun ts</w>
asym ptomatic</w>
s ome
P S
insi ghts</w>
flu or
sub units</w>
CO 2</w>
arter i
O x
res s
AT Pase</w>
atig ue</w>
trans genic</w>
y le</w>
l amin
20 17</w>
th in</w>
separ ated</w>
refl ect</w>
oper ating</w>
M T</w>
v ic
nic o
col or</w>
p yl
As sociation</w>
ab use</w>
precurs or</w>
drin king</w>
0. 9</w>
cardi omy
A G</w>
enzym atic</w>
si c
me d
A m
favor able</w>
i onic</w>
sc ales</w>
tw are</w>
tw ice</w>
ch ains</w>
Assess ment</w>
lay ers</w>
M ar
E m
onucle ar</w>
candi date</w>
thrombo sis</w>
vol tage</w>
H F</w>
os c
pre lim
macroph age</w>
p p
METHO D</w>
correc tion</w>
Prim ary</w>
ester one</w>
R I
mo stly</w>
temper atures</w>
t an
2 D</w>
ast om
ol e
incre asingly</w>
Ther ap
ST UD
hyd rate</w>
STUD Y</w>
immunos up
L 1</w>
resid ents</w>
om eg
ru ption</w>
pa thetic</w>
in st
inter face</w>
m u
r in</w>
in direct</w>
requ iring</w>
aure us</w>
i etic</w>
ubi qu
ot ting</w>
du od
inf ra
ren e</w>
le x</w>
dr am
suppl ementation</w>
l umbar</w>
fil ms</w>
valu able</w>
adap tive</w>
ana es
P ur
CN S</w>
dec i
agg ressive</w>
defic its</w>
vir ul
predic ting</w>
str ati
f s</w>
H S</w>
or adi
inf erior</w>
par ameter</w>
main tain</w>
sen sus</w>
perme ability</w>
2. 2</w>
commun ities</w>
qu estion</w>
te eth</w>
gi ve</w>
si ties</w>
g over
Pati ent</w>
m ach
1 7.
S V
en coun
categ ories</w>
worl dwide</w>
indic es</w>
attrib uted</w>
pos es</w>
scienti fic</w>
te tra
om s</w>
loc ations</w>
col d</w>
Str uc
ne arly</w>
test osterone</w>
ene sis</w>
ori entation</w>
on dro
b p</w>
hem oglobin</w>
profes sion
ar rest</w>
pr on
Sy stem
coag ulation</w>
P O</w>
influ ences</w>
N OS</w>
ri tic</w>
relap se</w>
ig ible</w>
con sum
Pre vious</w>
bi osynthesis</w>
e w
oc al</w>
20 11</w>
h i
m mol</w>
dec om
cell ul
T ra
impl ants</w>
ac e
erro rs</w>
oti des</w>
predic tor</w>
se e
prote ase</w>
aud itory</w>
require ments</w>
mo vements</w>
CD 8</w>
cl ones</w>
manifest ations</w>
ilib rium</w>
emerg ing</w>
op tions</w>
Ob jec
regul ates</w>
su g
cl ar
g old</w>
unc er
oper ated</w>
L ong</w>
nu tritional</w>
tob acco</w>
n M</w>
repe at</w>
spre ad</w>
E D
PA TI
The ir</w>
exc ess</w>
resi due</w>
R h
mm Hg</w>
abl ation</w>
ve h
impro vements</w>
s clerosis</w>
t ations</w>
li ve</w>
exc it
prelim inary</w>
re mission</w>
comp ens
SET TING</w>
2 5
10 00</w>
pelv ic</w>
om ers</w>
C ar
P T</w>
T R</w>
sep sis</w>
N L
ari ties</w>
o side</w>
pneumon ia</w>
colum n</w>
PATI EN
corne al</w>
fi st
fo ot</w>
sof tware</w>
M I</w>
Jap anese</w>
ga p</w>
ell ed</w>
2. 1</w>
ag land
ag ne
estr adiol</w>
h and
hippocamp al</w>
10 0
advant age</w>
pl ex
0. 7</w>
pl an</w>
struc tion</w>
spectr al</w>
in ating</w>
is ons</w>
fe asibility</w>
lin ed</w>
great ly</w>
C ase</w>
Sur ve
G 1</w>
p s
p ren
ex press</w>
ful ness</w>
d ine</w>
pati onal</w>
estim ation</w>
easi ly</w>
Ris k</w>
occ u
O P</w>
acqu isi
li on</w>
cyt e</w>
hydro ph
ud g
es es</w>
ifor m</w>
W e
4 50</w>
M olecular</w>
re plic
lim its</w>
ti le</w>
de sign
f abr
S ep
om onas</w>
intr insic</w>
aneurys m</w>
simul ations</w>
ol ys
H O</w>
all ergic</w>
vi de
stimul ating</w>
decre asing</w>
E vid
kn ock
su med</w>
scop e</w>
ant um</w>
U se</w>
activ ator</w>
lac king</w>
lyc er
al in</w>
pl ay
opo ietic</w>
promo ting</w>
reas ons</w>
ox y</w>
i ther</w>
gre en</w>
id osis</w>
cop per</w>
tren ds</w>
a que</w>
rheum at
n ers</w>
fund am
clu sters</w>
re ticul
off er</w>
Dop pler</w>
In tr
lip ids</w>
rever sed</w>
evol ution
0.0 3</w>
intro duction</w>
2. 3</w>
induc ing</w>
v ents</w>
depart ment</w>
h er</w>
educ ational</w>
opa usal</w>
lact ate</w>
hom ogene
ab solute</w>
we ak</w>
he ad
D F
per spective</w>
with draw
activ ating</w>
ed ed</w>
vag inal</w>
sch ed
asp ase</w>
antagon ists</w>
ethyl ene</w>
f ro
inter views</w>
un usual</w>
19 .
examin ations</w>
O A</w>
trans lation</w>
loc i</w>
prog esterone</w>
Chang es</w>
ul ative</w>
se di
dis rup
entr y</w>
argin ine</w>
medic ations</w>
hormon es</w>
home ostasis</w>
y r</w>
method ology</w>
ax ial</w>
gu ide</w>
r un
D H</w>
Plas ma</w>
IC U</w>
oun d
adren ergic</w>
D et
malign ancy</w>
osc ill
RO S</w>
s plic
gu inea</w>
A ut
gest ation</w>
c ut
indic ators</w>
ie f</w>
Develop ment</w>
p ent
ep i
tro p
deli vered</w>
re frac
Chr onic</w>
M od
fl ic
correl ate</w>
r icul
ve get
N T</w>
seiz ures</w>
resol ved</w>
barri ers</w>
phen otypes</w>
challeng ing</w>
l ess
en chymal</w>
tran s</w>
Evid ence</w>
micro bi
dra in
in form
C K
MM P</w>
lin k</w>
hypo thesized</w>
datab ases</w>
ow s</w>
rob ust</w>
ip al</w>
thromb in</w>
cap illary</w>
SC C</w>
can n
b is
S e
ste ady</w>
Hy per
anat omical</w>
ob acter
under taken</w>
ol i
c ephal
T ri
ain ts</w>
all ing</w>
fe a
F 1</w>
Al so</w>
dis section</w>
tr ue</w>
top ic</w>
W il
L O
end o
intr am
commerc ial</w>
cap sul
di stress</w>
2. 4</w>
re mark
glyco protein</w>
yiel ded</w>
n one</w>
are t
ra ised</w>
path ogen</w>
ch ers</w>
haz ard</w>
N on
biop sies</w>
Rev ie
cere bro
classi cal</w>
analy tical</w>
6 0
Or g
CL C</w>
subst ances</w>
prec ip
le uc
ox in</w>
P G</w>
n ext</w>
chrom atin</w>
og r
C H</w>
i tive</w>
al ready</w>
particip ation</w>
f atigue</w>
fe wer</w>
in activation</w>
in come</w>
Bi o
ga ve</w>
graf ts</w>
disco very</w>
Si x</w>
P seud
ig aret
lab eling</w>
acquisi tion</w>
diff ered</w>
Rec ently</w>
micro scopic</w>
p toc
charg ed</w>
en sis</w>
arti ficial</w>
compl iance</w>
P M</w>
fl ap</w>
profession als</w>
heterogene ous</w>
m ary</w>
2 3
P ath
eph rine</w>
gest ational</w>
ozyg ous</w>
al anine</w>
di arr
initi ated</w>
Multi ple</w>
c is
typ ically</w>
ev ident</w>
pol ar
amin o
n ose</w>
re in
e in</w>
environ ments</w>
in put</w>
it ems</w>
be y
contrib utes</w>
G E</w>
fil tration</w>
L ow</w>
insi ght</w>
al izing</w>
N o
Fir st</w>
dis play</w>
Par kin
men opausal</w>
og ly
us cular</w>
reve als</w>
n atal</w>
it ec
om ycin</w>
un t</w>
neutr al</w>
provid ers</w>
B R
awa reness</w>
bey ond</w>
electro de</w>
func tion
cont ents</w>
re fer
practi tion
concomit ant</w>
ophil a</w>
de generative</w>
conf ig
T um
H em
ca regi
adju stment</w>
le y</w>
os y
protoc ols</w>
se em</w>
hep arin</w>
dis m</w>
sc aff
mut ag
N TS</w>
G 2</w>
hippocamp us</w>
respon d</w>
su pr
mul tic
review s</w>
con sensus</w>
aut ophag
responsi veness</w>
C are</w>
m atic</w>
soci o
paren tal</w>
I r
con sul
depl etion</w>
mal aria</w>
weigh ted</w>
ampl ification</w>
pers on</w>
I ts</w>
HB V</w>
em por
ads orption</w>
oc cal</w>
G y</w>
b ot
ou ter</w>
H PLC</w>
high light</w>
interpre tation</w>
roph ic</w>
O L</w>
ne ither</w>
determin ants</w>
d yst
tr ained</w>
O ther</w>
detec ting</w>
GAB A</w>
H DL</w>
in os
exc e
an astom
cir cu
S tre
ogra ft</w>
l ibr
inhib iting</w>
AB STR
ub er
l ens</w>
platel ets</w>
acc es
clin icians</w>
immuno deficiency</w>
d less</w>
epider mal</w>
en abl
P H
relev ance</w>
re tri
at yp
it self</w>
Qu anti
t es
por tion</w>
modi fications</w>
incub ated</w>
S te
pre valent</w>
1. 9</w>
ABSTR ACT</w>
impro ves</w>
contro ver
AI MS</w>
m ess
she ep</w>
hospit alization</w>
di l
W OR
atic s</w>
d ates</w>
under go</w>
com pression</w>
U S
ot a</w>
N E
intro duc
syn erg
sou ght</w>
preven ting</w>
N S</w>
prost agland
b al</w>
ti ary</w>
immunoglob ulin</w>
cr y
M AP
5. 5</w>
hydro lysis</w>
S up
av oid</w>
pro ven</w>
ch ondro
scre ened</w>
ig en
D I</w>
diff use</w>
PATIEN TS</w>
For ty</w>
D ru
prec ise</w>
fibr in
N an
F s</w>
clon ed</w>
ha ir</w>
W ith
simil arity</w>
N AD
re ading</w>
attit udes</w>
bre ak
pyl ori</w>
ex clu
B A</w>
G a
lu tin
ma x
enrich ed</w>
2. 6</w>
z o
co ated</w>
un ilateral</w>
creatin ine</w>
st ent</w>
we a
om er</w>
l ost</w>
colon y</w>
por t</w>
en able</w>
inf er
Si x
arch itec
C entr
L ev
port al</w>
A I</w>
ure a</w>
dig ital</w>
yl ic</w>
op tion</w>
bac k
adi ly</w>
rec i
refrac tory</w>
ic ans</w>
pol l
B raz
need le</w>
S oci
embry o</w>
gon ad
N Ps</w>
AT ED</w>
ocor tico
sp ir
perc utaneous</w>
ul t</w>
exclud ed</w>
U NC
ra ys</w>
s a
N on</w>
memb er</w>
agon ists</w>
coag ul
ex ogenous</w>
tend ing</w>
pre d
sub types</w>
identi ty</w>
com pati
P eri
correl ates</w>
.0 0
combin ations</w>
li pos
per for
observ ational</w>
plic ations</w>
pil ot</w>
im mobil
x en
μ g</w>
dat as
transcrip ts</w>
T otal</w>
en sion</w>
ar ach
3. 0</w>
c am
ne a</w>
ic les</w>
A B</w>
G T
impl emented</w>
In tern
cortis ol</w>
medi ates</w>
trans location</w>
an ing</w>
norm ally</w>
I C</w>
P oly
A SU
techn ical</w>
co he
p ure</w>
M ech
bil i
is ot
abund ance</w>
c ut</w>
C ells</w>
hom ologous</w>
vis its</w>
c it
S F</w>
amin es</w>
off ers</w>
f all</w>
le aves</w>
ch amb
Parkin son</w>
k ade</w>
os es</w>
pl aque</w>
AC E</w>
inter sti
secre tory</w>
morph ine</w>
P sych
2. 8</w>
gen otypes</w>
lim iting</w>
2. 7</w>
S H
promot es</w>
lo be</w>
WOR DS</w>
ME ASU
on to</w>
spe ech</w>
com es</w>
be am</w>
abs orb
ste ad</w>
reduc tase</w>
pro min
lu te
M at
auth or</w>
tr ic
im id
fundam ental</w>
con stric
obstruc tive</w>
ta il</w>
pro genit
subjec tive</w>
ex ac
re presented</w>
sp ac
ser ine</w>
e j
surviv ors</w>
c igaret
e osin
dimen sions</w>
dos age</w>
enter ic</w>
Signific ant</w>
cover age</w>
ai res</w>
chang ing</w>
Prote in</w>
lea f</w>
un changed</w>
consist s</w>
V ir
pre ad</w>
bre a
as sive</w>
substanti ally</w>
exc ision</w>
surroun ding</w>
suppor ting</w>
di ets</w>
Contro l</w>
pres sions</w>
5 7
suppor ts</w>
itr al</w>
ex ists</w>
h is
ac a
Z n</w>
si zes</w>
pres um
trig lycer
L L
gli al</w>
prob es</w>
ath yro
adolesc ent</w>
hab it
ou gh</w>
ur ity</w>
w estern</w>
chem ically</w>
f ine</w>
n oc
sub set</w>
consist ently</w>
od e</w>
c aspase</w>
cre ated</w>
accep table</w>
bel ong
c l</w>
TR UNC
TRUNC ATED</w>
Com bin
r it
iti n</w>
fo ur
micr o</w>
simul ated</w>
concer n</w>
c ine</w>
trans duction</w>
qu ad
re tur
b lue</w>
M ut
elic ited</w>
fibrill ation</w>
agne tic</w>
9 9
sp in
trans fusion</w>
indic ations</w>
concer ns</w>
evolution ary</w>
emp ir
satur ated</w>
M 1</w>
app ed</w>
resour ce</w>
particip ated</w>
cirrho sis</w>
pres crip
F lu
Ar ab
Res pon
un e</w>
op es</w>
ati le</w>
chrom osomal</w>
T E</w>
A E</w>
E V
6. 5</w>
S el
ra rely</w>
phosphati dyl
agg lutin
pre term</w>
as h</w>
contr acti
pron oun
epidemi ological</w>
D 2</w>
ran e</w>
metabol ite</w>
es pread</w>
r a</w>
oper ations</w>
pol ys
occu pational</w>
sper mat
cy steine</w>
G L
z e
activ ate</w>
trans formed</w>
fal se</w>
5. 0</w>
reg imens</w>
rheumat oid</w>
intrac ranial</w>
equ ilibrium</w>
eli hood</w>
fea sible</w>
be gin
devi ation</w>
te am</w>
in ess</w>
o ing</w>
d ar
intes tine</w>
on ing</w>
sc ans</w>
ca the
a uc
s or
sp in</w>
syn chron
inc id
qu antum</w>
complex ity</w>
AR T</w>
b ed</w>
inter national</w>
re jection</w>
Ph armac
elim ination</w>
som at
gen us</w>
as one</w>
enco ded</w>
mes enchymal</w>
mo tility</w>
retri ev
sci ence</w>
3. 2</w>
sym pathetic</w>
Cur rent</w>
eff lu
ti zed</w>
ec ological</w>
att achment</w>
correc ted</w>
ting ly</w>
sol vent</w>
projec t</w>
infil tration</w>
gir ls</w>
P 3</w>
adi pose</w>
th eses</w>
con str
occ up
dec ades</w>
an emia</w>
oph thal
sup ply</w>
ogen icity</w>
AI N</w>
i dism</w>
abs ent</w>
in stability</w>
su res</w>
M O
al ize</w>
allel es</w>
down stream</w>
0.0 4</w>
hydrox y</w>
pronoun ced</w>
indic ator</w>
paras ite</w>
app a</w>
per man
odi c</w>
t es</w>
ay er</w>
enti ally</w>
carri ers</w>
m id</w>
s ar
ester ase</w>
Bet ween</w>
2 7
con n
Sy stem</w>
Revie w</w>
us h
ep tive</w>
ol ol</w>
techn ologies</w>
G s</w>
te aching</w>
CO PD</w>
sub cutaneous</w>
I R
hepat ocellular</w>
aor ta</w>
alk aline</w>
deci sions</w>
f asting</w>
is ch
situ ation</w>
min eral</w>
tim ing</w>
per in
out patient</w>
bin ds</w>
der mal</w>
ab err
tox ic
H L</w>
bl ack</w>
bili ary</w>
ag e
pl ane</w>
prophyl axis</w>
os ocial</w>
.0 5</w>
et e</w>
serot onin</w>
categ or
3. 1</w>
I L
res sing</w>
K ore
lo aded</w>
res h</w>
St aphyloc
lik elihood</w>
vacc ines</w>
vul ner
as cular</w>
atheros clerosis</w>
res tingly</w>
atin gs</w>
Ig E</w>
og lyc
ph y
begin ning</w>
difficul ties</w>
v ary</w>
carri er</w>
oun ds</w>
M al
Intern ational</w>
2 4
W om
3 -</w>
ann ual</w>
star ting</w>
li th
1 25</w>
chrom osomes</w>
veh icle</w>
H T
nam ely</w>
Identi fication</w>
m T
st art</w>
Un der</w>
r ated</w>
pow er
cyt ometry</w>
mo ther</w>
re ach</w>
f ar
attemp t</w>
discrim ination</w>
ast er
Func tional</w>
5 ,
H F
cy an
wid espread</w>
inter act</w>
to ph
p ump</w>
vis ed</w>
tu ally</w>
G M</w>
G re
1 A</w>
discipl inary</w>
amylo id</w>
S W
ap ical</w>
diagnos es</w>
man aged</w>
monit or</w>
Surg ical</w>
Pre dic
li es</w>
ar is</w>
bloc kade</w>
2. 9</w>
i ae</w>
ter tiary</w>
Immun o
om orph
resear chers</w>
B ar
Incre ased</w>
j udg
ess es</w>
k eletal</w>
neutroph ils</w>
p es
glycer ol</w>
scre en</w>
an tic
dep ri
m ent
adi g
som atic</w>
angi ogenesis</w>
ro tation</w>
form ations</w>
D ros
engine ering</w>
respon dents</w>
P B
hepat ocytes</w>
intersti tial</w>
hydroph obic</w>
trans mit
verte bral</w>
neutroph il</w>
regar dless</w>
carbo hydrate</w>
tac hy
200 9</w>
selec tively</w>
ultras on
H a
modul ate</w>
be g
volum es</w>
E GFR</w>
Jap an</w>
My co
differenti ally</w>
pancre as</w>
intra operative</w>
T e
ir radi
mil lion</w>
recru itment</w>
cis platin</w>
R 1</w>
emerg ed</w>
hist amine</w>
inter n
Ac cording</w>
pro spectively</w>
c ro
invol ve</w>
uc tu
Dros ophila</w>
Wom en</w>
ot es</w>
S 1</w>
leth al</w>
am ycin</w>
P o
con flic
satisfac tory</w>
O ver</w>
In dex</w>
sens or</w>
main taining</w>
as y</w>
quanti fied</w>
plat form</w>
Afr ica</w>
odi alysis</w>
ref lex</w>
phen otypic</w>
P L</w>
t uring</w>
immunohisto chemistry</w>
idi opathic</w>
organis m</w>
competi tive</w>
ath ing</w>
gl auc
res ses</w>
ens ure</w>
b ol
str ial</w>
bre ak</w>
phil ic</w>
atyp ical</w>
post natal</w>
for ces</w>
M HC</w>
iv es</w>
ma kes</w>
gl ands</w>
transpor ter</w>
h old</w>
v .</w>
J une</w>
m itral</w>
part um</w>
A E
Sub jec
Ig M</w>
CR P</w>
princi ples</w>
ur g
f low
ul y</w>
pro per</w>
e ating</w>
quanti fication</w>
I P</w>
fer til
Elec tr
great est</w>
suff ering</w>
ses sions</w>
g all
sup pressor</w>
transf ected</w>
end s</w>
mamm ary</w>
secre ted</w>
U p
represent ative</w>
3. 6</w>
H ep
hist ologic</w>
at rophy</w>
l ist</w>
sus pen
ong oing</w>
out side</w>
cardi a</w>
cl onal</w>
follow s</w>
r ice</w>
T 4</w>
construc t</w>
con sequence</w>
perform ing</w>
sol ub
. S
y ed</w>
C 1</w>
lin king</w>
effici ents</w>
ann ed</w>
aca demic</w>
V I</w>
3. 8</w>
par adig
ol ed</w>
sc en
le g</w>
ma p</w>
6. 7</w>
R H</w>
mis sions</w>
sub group</w>
2 6
H igh
sha red</w>
lun gs</w>
echocardi ography</w>
assess ments</w>
S O</w>
sequ ential</w>
abol ic</w>
M AIN</w>
H ere
inter ference</w>
bacter i
endometr ial</w>
immunohisto chemical</w>
elucid ate</w>
infil tr
lab el</w>
In dia</w>
pre ferred</w>
accur ately</w>
CR C</w>
ha pl
p g</w>
ta kes</w>
Staphyloc occus</w>
contamin ation</w>
stimul ate</w>
new born</w>
z er
de press
B re
4. 7</w>
mon ol
c ation</w>
questionn aires</w>
integr ity</w>
effici ently</w>
ventr al</w>
u g
re modeling</w>
regul ator</w>
eth asone</w>
malign ancies</w>
withdraw al</w>
on line</w>
se ed</w>
mon ella</w>
ograph s</w>
S F
C o</w>
pro ton</w>
con g
ul der</w>
P ot
lin kage</w>
t ext</w>
em bed
incorpor ated</w>
ulc er</w>
cat ech
unc ture</w>
G r
ac ous
surge ons</w>
ac tual</w>
S ci
Inte restingly</w>
St atis
enhanc ing</w>
biomar ker</w>
ox idi
produc es</w>
termin ation</w>
super oxide</w>
v a</w>
drain age</w>
vi sible</w>
st o
adi p
der m
abund ant</w>
phosphor ylated</w>
deter i
s we
fl uctu
f aster</w>
cum ulative</w>
et on</w>
ho use
Gen etic</w>
U K</w>
ro ute</w>
prec ision</w>
co efficients</w>
larg est</w>
expl an
ogr ams</w>
b rom
h e</w>
lo x
S equ
y ces</w>
MEASU RE
con formation</w>
an ch
M L
compar isons</w>
sum mary</w>
path ologic</w>
f atal</w>
b ands</w>
oc in</w>
C V</w>
hem is
sub type</w>
gener alized</w>
substitu tion</w>
op enia</w>
ure th
c ement</w>
pan el</w>
hypertroph y</w>
im etr
iev ed</w>
Ch em
stom ach</w>
o x</w>
t us</w>
strom al</w>
B acter
az ine</w>
f resh</w>
toler ated</w>
ic k</w>
del e
om otor</w>
vi able</w>
bro ad
repres enting</w>
inos itol</w>
ul tim
2 A</w>
d ly</w>
induc ible</w>
hy pot
ner ves</w>
distin c
v ital</w>
ra dic
D G</w>
las tic</w>
deriv ative</w>
promin ent</w>
abol ished</w>
id ae</w>
suic ide</w>
compl ementary</w>
demonstr ating</w>
T M
random ised</w>
N A
respon ded</w>
pr an
omer ic</w>
over view</w>
or a</w>
f f</w>
countr y</w>
re adily</w>
glomer ular</w>
der ing</w>
en cour
n ever</w>
ob acter</w>
ra in</w>
consider ation</w>
R ole</w>
promot ed</w>
C X
pre mature</w>
oc ca
Di ab
wid th</w>
Dru g</w>
eg g</w>
hist one</w>
4. 2</w>
r ace</w>
ne igh
enh ances</w>
dis sem
bri ef</w>
mi RNAs</w>
g ing
str and</w>
distrib utions</w>
i x</w>
paren tly</w>
7 0
autom ated</w>
ch im
par athyro
n ight</w>
v an
hem odynamic</w>
th reat
I tal
de pressed</w>
selec tivity</w>
oste opo
sur vi
osi tion</w>
ach e</w>
grad u
t ability</w>
k appa</w>
for ward</w>
to oth</w>
impl anted</w>
predomin ant</w>
dimin ished</w>
descrip tion</w>
eff ort</w>
A V</w>
ol amine</w>
wor se</w>
myel oid</w>
lo g</w>
polyp eptide</w>
endoth elium</w>
vascul arization</w>
mod alities</w>
calcul ations</w>
stud ying</w>
neo plastic</w>
pe di
t ative</w>
D 3</w>
a udi
shap ed</w>
rup ture</w>
dis ruption</w>
2 8
ul atory</w>
fil am
pro t
dis c</w>
dend ritic</w>
defic it</w>
ec tions</w>
Sal monella</w>
quanti fy</w>
th eless</w>
no ver</w>
Ig A</w>
ever theless</w>
mandi bular</w>
S ym
si al</w>
gener ating</w>
tr ic</w>
sti ff
tre e</w>
T G</w>
pe d
cy st</w>
micro som
I A</w>
p assive</w>
j ust</w>
n mol</w>
stand ards</w>
3. 4</w>
tis m</w>
otox icity</w>
in her
ol ym
F our
1 -</w>
pre ference</w>
ker at
di al</w>
b er
al c
p e</w>
f ts</w>
mon ocytes</w>
I s
ic ardi
ish ment</w>
exac erb
ev ent
s arcoma</w>
As soci
oxy gen
Qu ality</w>
L ab
t ab
8. 5</w>
add ressed</w>
s ent</w>
cat tle</w>
op sis</w>
V al
autophag y</w>
yiel ds</w>
contr al
Un der
os ing</w>
substitu ted</w>
protec ted</w>
pregn ancies</w>
c ats</w>
infra red</w>
squ are</w>
tryp sin</w>
l d</w>
particip ate</w>
ur on
comput ational</w>
ter al</w>
I mp
vas o
co vered</w>
Nor th</w>
sc ap
con sci
NS CLC</w>
E 1</w>
disco vered</w>
fol ding</w>
ca ud
cyto plasm</w>
immun ization</w>
wal king</w>
percep tions</w>
Org an
TI ONS</w>
en erg
instrum ent</w>
mod ality</w>
expl o
fac tory</w>
tend on</w>
iso forms</w>
H O
gen ce</w>
S ingle</w>
mo bile</w>
N ot
ke ys</w>
min er
trac tion</w>
virul ence</w>
physi ology</w>
w in
process ed</w>
oste o
pot ency</w>
ech n
bo ys</w>
nutri ent</w>
CA D</w>
man u
j o
compr ised</w>
m om
perman ent</w>
ne gl
In flu
plac ental</w>
A k
consider ably</w>
ar ticular</w>
mar k</w>
dis sociation</w>
ab sc
Hy dro
wa vel
an ical</w>
repe ti
nur se</w>
no vi
4. 4</w>
accoun ted</w>
i m</w>
per oxidase</w>
f ur
gene tically</w>
il e
4. 3</w>
4. 0</w>
gu an
200 8</w>
Co x</w>
gluc ocortico
u ous</w>
bloc king</w>
post operatively</w>
form ulation</w>
por cine</w>
ver tical</w>
princ ipal</w>
pos sess
gl ass</w>
cri tically</w>
pathophysi ology</w>
propor tional</w>
reduc tions</w>
if er
radi ographic</w>
f el
kin ases</w>
experim entally</w>
- -</w>
t um</w>
us c
carr ying</w>
hemat opoietic</w>
3. 7</w>
Fif ty</w>
condi tioning</w>
si um</w>
ul ating</w>
off spring</w>
AD P</w>
micro tub
foc using</w>
M arch</w>
M C</w>
neuro pathy</w>
P N</w>
tur nover</w>
v acu
intr aper
immun ological</w>
immuno assay</w>
re combination</w>
over come</w>
hemis ph
W T</w>
pyr id
seiz ure</w>
c ocaine</w>
inf u
to p</w>
Pseud omonas</w>
bi di
se e</w>
consider ing</w>
ic king</w>
H D
acu ity</w>
e res</w>
E F</w>
M ed</w>
star ted</w>
f if
transl ational</w>
peri od
re turn</w>
a virus</w>
scen ari
der mat
lat ency</w>
PK C</w>
el ong
sub groups</w>
A ge</w>
my co
pres sures</w>
κ B</w>
Elec tro
12 5
ec tom
min ute</w>
el igible</w>
fin ed</w>
dep end</w>
20 18</w>
pan ic</w>
promis e</w>
2 9
o ocytes</w>
adap ted</w>
pren atal</w>
ther mo
P res
acous tic</w>
at o</w>
A UC</w>
H b
for ced</w>
ret ar
E GF</w>
bloc ks</w>
sul ph
ex on</w>
fibrobl ast</w>
orb ent</w>
immunore activity</w>
e asy</w>
4. 1</w>
prostagland in</w>
P u
Inhib ition</w>
visi t</w>
defin ition</w>
R F
Di rec
ventr icle</w>
osi tive</w>
Objec tive</w>
os us</w>
ste in</w>
mod es</w>
protec t</w>
ap parently</w>
c ran
oz o
S B
tr aff
sha m</w>
moder n</w>
v ae</w>
un affected</w>
prop ag
on ed</w>
pap ill
I D</w>
E lev
radi ological</w>
met allo
R etro
re tained</w>
to ok</w>
Com pl
be an</w>
ad a</w>
T T</w>
0. 0</w>
situ ations</w>
ec on
in suffici
pro mp
mod ulated</w>
chamb er</w>
equ ation</w>
I sol
SE M</w>
ac idic</w>
ju red</w>
sem i</w>
in ally</w>
contral ateral</w>
dy e</w>
embol ism</w>
alter ation</w>
contin ue</w>
4. 6</w>
encoun tered</w>
p .
de form
k b</w>
fe ed</w>
AT A</w>
T en</w>
In iti
preven tive</w>
manu fac
hyper plasia</w>
B o
view ed</w>
recor ding</w>
if e</w>
av ing</w>
fill ed</w>
w ast
eu tical</w>
os ens
az ep
H e</w>
Surve y</w>
N C</w>
M B
bon ds</w>
can al</w>
imp acts</w>
ch olec
syndrom es</w>
or ally</w>
g el
C y
c is</w>
dec ade</w>
id ation</w>
S ol
regi stered</w>
I D
famil ial</w>
- 2</w>
mon onuclear</w>
Sel f</w>
irradi ated</w>
ag ic</w>
he ar
ar ched</w>
ass embl
shor ten
om eter</w>
co d
8 0
H ear
optim ized</w>
power ful</w>
psych osocial</w>
5. 6</w>
ic als</w>
H 2</w>
de pos
row th</w>
ep tor</w>
top ical</w>
acchar ides</w>
institu tion</w>
S A
sign alling</w>
re d
his ti
do x</w>
le ge</w>
est yle</w>
ro ots</w>
practition ers</w>
eu kary
anes the
retin a</w>
ere ly</w>
G ene</w>
d al
P K</w>
cy sts</w>
hom ology</w>
C d
R 2</w>
M or
plas ticity</w>
c as
contrib uting</w>
E P</w>
isol ate</w>
aut ologous</w>
fr on
P erc
gen cy</w>
C d</w>
rou gh
1 80</w>
i asis</w>
in jured</w>
Dep art
ri l</w>
ff e
conform ational</w>
in n
pre disp
wee kly</w>
conn ected</w>
zym e</w>
programm e</w>
fracti on
whe at</w>
N s</w>
et a</w>
0.00 5</w>
sen sing</w>
z en</w>
ch ro
cop y</w>
sug ar</w>
aff eren
i er</w>
Fac tors</w>
R P</w>
Ta ken</w>
se arched</w>
ul cer
L ym
compart ment</w>
C enter</w>
prescrib ed</w>
B 2</w>
int ell
can ine</w>
Soci ety</w>
P F</w>
B D
glauc oma</w>
hormon al</w>
phosph o
brea ks</w>
stre t
highligh ts</w>
EC G</w>
M ed
anat omy</w>
an thro
With in</w>
s n
facil ities</w>
epti des</w>
el astic</w>
exhib its</w>
ran k</w>
el ve</w>
w ash
op ulmonary</w>
b ound
D ue</w>
ac ks</w>
ath l
ac etic</w>
bronch ial</w>
discus sion</w>
neur on</w>
atter ing</w>
buff er</w>
Qu estionn
recor d</w>
st one</w>
hor iz
bidi ties</w>
pro l
sho ulder</w>
w k</w>
saliv ary</w>
form er</w>
ex act</w>
candi dates</w>
em ul
bal lo
arrang ement</w>
reticul um</w>
lab elled</w>
4. 8</w>
tur ally</w>
phospholip id</w>
reas on</w>
Im pro
st ain
5. 7</w>
arom atic</w>
cat ar
phen ol</w>
en larg
dig estion</w>
c ows</w>
rel ations</w>
do g</w>
radi al</w>
m olar</w>
accep ted</w>
po ol</w>
s low
V er
ocom pati
in side</w>
3 5
ex pressions</w>
tra it</w>
clin ic
en in</w>
contrib uted</w>
indu stry</w>
per m
d ur
diarr he
C r</w>
m ers</w>
ex ec
acr yl
differenti ate</w>
ucle ar</w>
fr ame</w>
cap ture</w>
fist ula</w>
clim ate</w>
Character ization</w>
architec ture</w>
os arcoma</w>
u gin
electro des</w>
sev erely</w>
bre athing</w>
T est</w>
g one</w>
em a</w>
or dered</w>
am ethasone</w>
g ate</w>
rou ght</w>
ap o
J uly</w>
deta il</w>
dem and</w>
su d
con duction</w>
9. 5</w>
H P</w>
bio tic</w>
difficul ty</w>
M ay</w>
us ting</w>
phyl ogenetic</w>
el in</w>
un related</w>
aer ugin
EC T</w>
cre ate</w>
guid ance</w>
oxy genase</w>
d in
rele asing</w>
omat ous</w>
erythro cytes</w>
hist or
D IN
stiff ness</w>
pur ification</w>
nat ur
tub ular</w>
S w
strong er</w>
lar vae</w>
com for
sc attering</w>
disturb ances</w>
as ked</w>
L V
di vision</w>
CM V</w>
m RNAs</w>
Can di
P ub
aerugin osa</w>
P RO
7. 4</w>
h n</w>
duc ts</w>
per tur
pancre atitis</w>
aster n</w>
amin ation</w>
combin ing</w>
vide o</w>
fre e
exc essive</w>
Here in</w>
ple ural</w>
g els</w>
cul tural</w>
M s</w>
cord ance</w>
M ac
H is
am bul
F l
N E</w>
c asc
hospit alized</w>
retur ned</w>
otyp ing</w>
opportun ities</w>
require ment</w>
T F
Man agement</w>
pal li
en ables</w>
person ality</w>
med ull
re dox</w>
moti f</w>
C 3</w>
connec tivity</w>
SL E</w>
f ies</w>
vi br
trache al</w>
l ands</w>
acetyl choline</w>
neon ates</w>
andro gen</w>
graph y</w>
Be havi
M g
2 2
war ran
con current</w>
G P</w>
amin ergic</w>
VI D</w>
Meas ure
5. 2</w>
nico tine</w>
ej un
L in
s ess</w>
w s</w>
S ou
curren ts</w>
o idal</w>
dis placement</w>
N one</w>
ca dian</w>
exc itation</w>
coord ination</w>
ker atin
in ic</w>
gly col
un common</w>
met als</w>
lymph oid</w>
on ia</w>
i. v.</w>
ge red</w>
chic ken</w>
o es</w>
wor ds</w>
ses sion</w>
e gg
3. 9</w>
lig ament</w>
5. 3</w>
bor ne</w>
st aging</w>
ren in</w>
U .S
sph er
fac es</w>
In c
pneumon iae</w>
kin in</w>
com b
O UT
am bi
e y</w>
indic ation</w>
P SA</w>
bre eding</w>
optim ization</w>
cellul ose</w>
ub icin</w>
200 7</w>
ca us
sur ance</w>
obl astoma</w>
cholin ergic</w>
log ical</w>
n em
pl ates</w>
spont aneously</w>
Differen t</w>
super ficial</w>
k ap
t ex
200 5</w>
fo ods</w>
suppl emented</w>
P an
sp p</w>
leuk ocyte</w>
Ph ot
cereb ellar</w>
ger m</w>
nod ules</w>
it em</w>
ther mia</w>
mus cular</w>
OUT CO
Depart ment</w>
ace ae</w>
S even</w>
dys plasia</w>
idi um</w>
system atically</w>
er ia</w>
0.00 2</w>
inc ident</w>
sat uration</w>
mat ch</w>
tes ticular</w>
1 10</w>
Im port
retro viral</w>
categ ory</w>
de m</w>
per oxide</w>
exclu sively</w>
Mo del</w>
yt e</w>
ophil ic</w>
weigh ts</w>
surge on</w>
effec tor</w>
rest ored</w>
analog ues</w>
insuffici ency</w>
R T
A pri
concep ts</w>
to o</w>
line age</w>
E igh
as part
A 1
E l
est ed</w>
hist ology</w>
T ime</w>
Z n
dec lined</w>
empir ical</w>
in hal
ili ary</w>
ol es</w>
clar ify</w>
arb ox
Apri l</w>
N 1</w>
ob lastic</w>
eng er</w>
flex ible</w>
in stead</w>
S 2</w>
vec tors</w>
foll icular</w>
over weight</w>
aspir ation</w>
plas ms</w>
G SH</w>
tain ty</w>
anti tumor</w>
Ad mini
anti depress
equ ally</w>
at omic</w>
vas odi
fru it</w>
G iven</w>
rhyth m</w>
n t</w>
INT ER
hel p
En gl
r ag
cr yp
fil ter</w>
T i
ev id
refer ral</w>
bel ieved</w>
chem icals</w>
re flux</w>
Simil ar</w>
embed ded</w>
analog ue</w>
E ight</w>
t esti
op posite</w>
p es</w>
olog ist</w>
suc rose</w>
algorith ms</w>
r RNA</w>
14 C</w>
libr ary</w>
conf oun
ti g
N ur
s light</w>
K n
j ejun
20 01</w>
d l</w>
S we
n c
head ache</w>
fit ness</w>
pro v
kap pa
grad ually</w>
orb ital</w>
acceler ated</w>
com orb
L T</w>
aneurys ms</w>
enc ap
li pop
stabil ization</w>
Subjec ts</w>
cy st
mar ine</w>
t one</w>
am p</w>
an k</w>
ps ori
Ad v
bi polar</w>
acet yl</w>
appro ved</w>
G I</w>
R F</w>
199 9</w>
condi tioned</w>
den se</w>
util izing</w>
fer tility</w>
ju ven
col itis</w>
sh ear</w>
sy novi
tend ency</w>
Euro pe</w>
objec t</w>
anomal ies</w>
Engl ish</w>
g ated</w>
19 90</w>
cataly zed</w>
surve ys</w>
us ti
con ven
use fulness</w>
under gone</w>
Hear t</w>
quin ol
kidne ys</w>
L S</w>
c at</w>
ex tra
Com mun
pol i
lep tin</w>
c ef
M SCs</w>
ax el</w>
b ab
ery them
Tum or</w>
200 6</w>
am ni
alk al
emph asis</w>
Ul tr
expos ures</w>
un g</w>
ethn ic</w>
de man
tub ation</w>
G n
2 8.
sw elling</w>
hear ts</w>
ab in
omer ase</w>
arthro plasty</w>
9 0
conserv ative</w>
ob i
help ful</w>
R a
contin ence</w>
lu pus</w>
an al</w>
cul tiv
controver sial</w>
at oms</w>
Centr al</w>
osyn thetic</w>
O C</w>
mus cul
wavel eng
N MDA</w>
Experim ental</w>
En h
perf used</w>
distingu ish</w>
C K</w>
di hydro
loc ally</w>
V is
dri ving</w>
period ontal</w>
C oun
Syn thesis</w>
6. 2</w>
199 8</w>
immuno fluorescence</w>
6 00</w>
ga it</w>
CA M</w>
ir ation</w>
D em
statis tics</w>
om ing</w>
sh are</w>
bir ds</w>
C ro
trans membrane</w>
Diag nos
olys accharide</w>
col onic</w>
Out comes</w>
esc ent</w>
V T</w>
compati ble</w>
5. 8</w>
repor ter</w>
at onin</w>
pat ch</w>
DI SC
sel ves</w>
refl ected</w>
mi RNA</w>
6. 3</w>
spec tives</w>
ch le
0.00 0
lif estyle</w>
in active</w>
upreg ulated</w>
ide al</w>
BM D</w>
align ment</w>
Surg ery</w>
peri operative</w>
dar k</w>
Q o
5. 4</w>
N evertheless</w>
e an</w>
F am
adren aline</w>
conjug ated</w>
vi r</w>
fin anc
pharmaco kinetic</w>
anti viral</w>
cess ation</w>
Tran sc
er arch
l uc
L A
Co A</w>
B G</w>
antic ancer</w>
Quanti tative</w>
SI ON</w>
ster ing</w>
mo od</w>
hypothalam ic</w>
four th</w>
cl one</w>
U r
gover n
sc al
pos sess</w>
6. 4</w>
ure tic</w>
trig gered</w>
opath ological</w>
dom es
S D
tum orig
d ent
ac ch
H 1</w>
s a</w>
opportun ity</w>
inten se</w>
M AP</w>
Simil arly</w>
recor dings</w>
ocy an
vis c
ep igen
Austral ia</w>
el eton</w>
ST AT
dex amethasone</w>
o ural</w>
fl ur
MAP K</w>
S c
Au g
glob ulin</w>
w aves</w>
G ol
preser vation</w>
ion ine</w>
res embl
op ia</w>
press es</w>
centr e</w>
us age</w>
analge sia</w>
In divid
SN Ps</w>
T o
off ered</w>
Questionn aire</w>
plac ent
C yt
ex ual</w>
att ached</w>
ballo on</w>
transfer red</w>
TB I</w>
es are
b und
cran i
ag ue</w>
prescrip tion</w>
ist ar</w>
ank le</w>
k le</w>
ell ite</w>
lif e
6. 8</w>
6. 6</w>
or ial</w>
us er</w>
examin ing</w>
par tly</w>
F uture</w>
os ensi
gen omes</w>
por e</w>
mit tent</w>
str ic</w>
b ic</w>
pr is
an ion</w>
th in
Det ection</w>
dos ing</w>
l en
C er
bil ities</w>
S DS</w>
7. 8</w>
aro se</w>
ost omy</w>
omeg al
influ encing</w>
attemp ts</w>
s cler
rib onucle
me al</w>
Mech anis
P P
E r
Six ty</w>
hem odialysis</w>
preser ved</w>
CA 1</w>
paradig m</w>
M V
exam ples</w>
An aly
investig ating</w>
duod enal</w>
olig onucle
os en</w>
neo plasms</w>
b a
in sufficient</w>
I S</w>
en vel
C och
gli oma</w>
v ast
cytos olic</w>
Ak t</w>
coh orts</w>
7. 1</w>
esare an</w>
exten sively</w>
v ill
F O
G ram</w>
po oled</w>
di methyl
qu it
19 95</w>
medi ators</w>
op ening</w>
V i
A sian</w>
precurs ors</w>
y outh</w>
Sep t
ag o</w>
us h</w>
ag ain</w>
199 7</w>
le ad
acryl amide</w>
socio economic</w>
remark able</w>
alcoh olic</w>
neu rom
lab or
St ate</w>
en ium</w>
T 2
res tim
func tionally</w>
diff r
de b
Bac illus</w>
id ase</w>
epidemi ology</w>
W istar</w>
immun otherapy</w>
l a</w>
at om</w>
ob ut
F IN
tra jec
ic ations</w>
L .</w>
re mia</w>
ogen es</w>
ol factory</w>
up stream</w>
AD HD</w>
CO VID</w>
R an
C ap
pros thesis</w>
dist ant</w>
I T
Qo L</w>
G O</w>
uni versity</w>
homogene ous</w>
them selves</w>
mig r
an aerobic</w>
Differen ces</w>
CO X</w>
em ed</w>
R am
F SH</w>
bo x</w>
ampl ified</w>
Sept ember</w>
go als</w>
aspec t</w>
ultrason ography</w>
gangli on</w>
st a
s ound</w>
od g
m osph
st ress
Pub Med</w>
DISC US
threat ening</w>
6. 0</w>
dram atically</w>
assi st</w>
N ov
Wor ld</w>
mon keys</w>
ax ons</w>
pharmaco kinetics</w>
0. 25</w>
mix tures</w>
200 2</w>
low ering</w>
125 I</w>
osteopo rosis</w>
tan dem</w>
a emic</w>
val id</w>
instrum ents</w>
M i
C 57
le ak
electro l
bec omes</w>
physi ologic</w>
def ense</w>
ch osen</w>
transcrip t</w>
pred n
extr a</w>
M A
ser ial</w>
inn ate</w>
4 5
DISCUS SION</w>
hel ix</w>
Admini stration</w>
x ia</w>
CV D</w>
qu ite</w>
flex ion</w>
os mo
P U
U.S .</w>
hydr ation</w>
Imp act</w>
En ter
obl asts</w>
biom ass</w>
emergen ce</w>
protein ase</w>
exp anded</w>
ish es</w>
M 2</w>
tob er</w>
cir cadian</w>
res in</w>
ograph ical</w>
glomer ul
appl ying</w>
Con tr
ati cal</w>
adj usting</w>
simil arly</w>
contamin ated</w>
ogene ic</w>
C 2</w>
T arg
ammon ium</w>
en ess</w>
B one</w>
L a</w>
immunore active</w>
anal og</w>
st ored</w>
anc h</w>
T re
exp on
Oc tober</w>
graph ene</w>
an tic</w>
caregi vers</w>
shif ts</w>
id opsis</w>
spec imen</w>
in verse</w>
ent ations</w>
ic ated</w>
proper ty</w>
ver sal</w>
te trac
rel ief</w>
egg s</w>
an g</w>
avi an</w>
pp m</w>
f ash
B rain</w>
man ual</w>
sol ved</w>
M g</w>
def ective</w>
PE G</w>
se c</w>
cigaret te</w>
m ium</w>
ra ine</w>
g yn
lys ine</w>
r ic
no re
5. 1</w>
H odg
config uration</w>
through put</w>
199 6</w>
progenit or</w>
si bility</w>
ov ary</w>
termin us</w>
histopath ological</w>
ar sen
Arab idopsis</w>
some times</w>
ptoc occus</w>
my o
nov o</w>
ta il
bur n</w>
ther m
compl etion</w>
diarrhe a</w>
In stitute</w>
ec osy
nucle otides</w>
7. 2</w>
chec k
at ch</w>
clu sive</w>
in tim
fung i</w>
No vel</w>
gli a</w>
clin ics</w>
t ap
natur ally</w>
anat omic</w>
bl ing</w>
B cl</w>
x y
occ i</w>
M O</w>
microbi ota</w>
Therap y</w>
descrip tive</w>
zer o</w>
Me dian</w>
mod elling</w>
w t</w>
the size</w>
on yl</w>
in complete</w>
ain t</w>
cardiomy opathy</w>
conduc tance</w>
compr ising</w>
am eli
SO D</w>
ti tis</w>
Medic ine</w>
G MP</w>
inter view</w>
B B</w>
graf ting</w>
2 9.
ation ally</w>
schem e</w>
un iform</w>
seas on</w>
aqu es</w>
cont ex
psych otic</w>
n as
acc ess
predic tions</w>
G T</w>
ch i
contrib utions</w>
over l
1 a</w>
m um
ob last</w>
see king</w>
visi ae</w>
ing u
op sy</w>
sud den</w>
mat ching</w>
R I</w>
Hodg kin</w>
F GF</w>
er o
fro zen</w>
cere visiae</w>
sc oring</w>
viol ence</w>
4. 9</w>
micro scope</w>
T SH</w>
CI PA
a red</w>
on ectin</w>
St and
anthro p
s me
scho ols</w>
v esti
mi as</w>
neurolog ic</w>
Th en</w>
ro bo
200 4</w>
depri vation</w>
bl ast
a w</w>
ere bral</w>
otox ic</w>
7. 3</w>
un able</w>
Nor thern</w>
const ants</w>
Na Cl</w>
aspart ate</w>
gran ules</w>
leuk ocytes</w>
PT SD</w>
cal ib
erythro cyte</w>
T ur
C at
bl in
R B
7. 0</w>
otrop in</w>
pl oid</w>
Spec ific</w>
H b</w>
ph yto
o ther
construc tion</w>
A SD</w>
ma them
e jection</w>
part ners</w>
1 40</w>
C ross</w>
ph age</w>
magne sium</w>
T F</w>
fib res</w>
ti p</w>
f ri
W HO</w>
CK D</w>
B AL
cros s
ost atin</w>
P N
F F
cycl ase</w>
d ox
strati fied</w>
6. 1</w>
M M</w>
H ence</w>
rap h</w>
co chle
las ting</w>
cycl in</w>
athl etes</w>
myocardi um</w>
as sumed</w>
wast e</w>
An ti</w>
s ing
pre -</w>
H SV</w>
Braz il</w>
respon ders</w>
aw are</w>
pu ts</w>
I U</w>
fash ion</w>
de t
a u</w>
S K
discus ses</w>
pin ephrine</w>
fing er</w>
aspir in</w>
cu es</w>
C ul
minim ally</w>
equ ip
ynam ic</w>
tr unc
anis h</w>
di c</w>
EC s</w>
lab or</w>
bul k</w>
MATERI AL</w>
numer ical</w>
th o
2. 0
dem ia</w>
j usti
mamm als</w>
competi tion</w>
iz umab</w>
lig ation</w>
dex tr
v ent
FIN DIN
sh ar
Candi da</w>
M V</w>
G R</w>
glyc ine</w>
trans mitted</w>
M B</w>
- 3</w>
ur ic</w>
pri vate</w>
P a</w>
n al
ifor m
N in
rest oration</w>
B ur
kappa B</w>
p to
T er
coun sel
O ral</w>
ver ified</w>
st ac
si fication</w>
trig g
g yr
E M</w>
electro chemical</w>
ar ising</w>
addi tive</w>
B A
Q OL</w>
mach ine</w>
ol er
sil ver</w>
thresh olds</w>
FINDIN GS</w>
in formed</w>
trac king</w>
contracti le</w>
enco des</w>
Ac tivity</w>
cler otic</w>
m ast</w>
op s</w>
me an
ac yl
in adequate</w>
T ox
lev i
im mature</w>
EB V</w>
OUTCO ME</w>
efflu x</w>
ph asic</w>
gal act
g p
R ap
f ear</w>
polic ies</w>
et amine</w>
c ranial</w>
su m</w>
medi ating</w>
AC S</w>
immun op
p .</w>
Compar ative</w>
est ers</w>
or ubicin</w>
AC TH</w>
Sur viv
troph ic</w>
consist ency</w>
7. 6</w>
AM L</w>
enrich ment</w>
ol in</w>
Myco bacterium</w>
5. 9</w>
indu strial</w>
op in
ist er</w>
h eld</w>
pol lution</w>
interpre ted</w>
continu ously</w>
adren oc
d L</w>
a dic
ti um</w>
prost atic</w>
cir cular</w>
optim um</w>
cop ing</w>
- 5</w>
1 30</w>
quantit atively</w>
b if
In formation</w>
bl otting</w>
fal ls</w>
ti bial</w>
flu ids</w>
umb il
G rowth</w>
s ac
design ated</w>
paras ites</w>
u tri
P RE
en anti
m enti
Ph osph
ch el
aut onomic</w>
C u
anti bacterial</w>
w ards</w>
epigen etic</w>
m aps</w>
arom yces</w>
pl anned</w>
at mosph
lam p
g es</w>
separ ately</w>
ell es</w>
hypox ic</w>
conserv ation</w>
lox acin</w>
per oxidation</w>
fill ing</w>
gene sis</w>
sh ell</w>
O VA</w>
Ex pos
H I</w>
polym ers</w>
de ed</w>
bi a</w>
N T
an ium</w>
j our
max illary</w>
applic able</w>
an o
aut osomal</w>
L s</w>
cerebro spinal</w>
br anch</w>
te e</w>
Fin dings</w>
promis ed</w>
persist ence</w>
e es</w>
ger min
tri ple</w>
Can ada</w>
moder ately</w>
p uber
t RNA</w>
inte resting</w>
gi ant</w>
py ru
. 01</w>
stit utes</w>
g ri
x yl
en ough</w>
ho sts</w>
en demic</w>
ex clusion</w>
la p</w>
achiev ing</w>
g ives</w>
AC h
sh e</w>
inter mittent</w>
al ised</w>
Ph ase</w>
ver bal</w>
sc in
transpl anted</w>
ut able</w>
G D</w>
a ur
pur poses</w>
epi demic</w>
acch aromyces</w>
200 3</w>
my osin</w>
199 4</w>
elucid ated</w>
per spectives</w>
leak age</w>
S am
m ill
ec lamp
R o
super nat
re vision</w>
testi s</w>
f os
in patient</w>
pro motion</w>
fet uses</w>
7. 7</w>
ost atic</w>
recomm end</w>
manip ulation</w>
ta u</w>
ac yl</w>
post partum</w>
abnormal ity</w>
M ic
rou tin
bon ding</w>
haem at
umin escence</w>
on ally</w>
Retro spective</w>
edi c</w>
ad y
iv al</w>
T N
if ug
bio film</w>
mas sive</w>
par i
t ary</w>
accum ulated</w>
non invasive</w>
sc ar
micro organisms</w>
behavi oural</w>
SI S</w>
cryst als</w>
correc tly</w>
Statis tical</w>
4 -</w>
exp ensive</w>
ambul atory</w>
C ir
S ocial</w>
1 01</w>
anaes thesia</w>
ca usal</w>
s s</w>
H ER
repres entation</w>
ti ally</w>
6. 9</w>
C N</w>
ad dic
cour ses</w>
ho use</w>
des c
con vul
li p</w>
ip si
K A</w>
diffr action</w>
os yl
Coch rane</w>
os an</w>
c ally</w>
suspen sion</w>
integr in</w>
tachy cardia</w>
8. 3</w>
iod ine</w>
N R
He pati
Pro spective</w>
pharmac eutical</w>
Con si
GF P</w>
adop ted</w>
sil ica</w>
horiz ontal</w>
est ro
ori ented</w>
7 ,
inoc ulated</w>
ass ayed</w>
splic ing</w>
m on</w>
ol ing</w>
In tra
dis h</w>
admini str
S pr
or bidities</w>
episod e</w>
Spec ific
Pre valence</w>
rang es</w>
al levi
F i
foc uses</w>
ar rays</w>
de struction</w>
less er</w>
constric tion</w>
respon ding</w>
I GF
w at
i k
M ex
lat ent</w>
contr actions</w>
M ater
c ure</w>
life time</w>
filam ents</w>
g ing</w>
PT H</w>
ant en
spl en
inser ted</w>
De pression</w>
w ing</w>
viol et</w>
lat or</w>
extrem ity</w>
transf ection</w>
lipop olysaccharide</w>
c row
CT s</w>
buil ding</w>
defin itive</w>
ed ge</w>
phot on</w>
r ings</w>
nore pinephrine</w>
D D
wh y</w>
ren tly</w>
nit rate</w>
at ories</w>
ocyt o
join ts</w>
men str
disturb ance</w>
L arg
3 2
empor al</w>
ro tic</w>
ag on</w>
astro cytes</w>
ici an</w>
po rous</w>
tin ib</w>
U SA</w>
M n</w>
pea ks</w>
ocompati bility</w>
eng agement</w>
profil ing</w>
surg ically</w>
se d
capsul e</w>
μ m</w>
analy zing</w>
conver ted</w>
perin atal</w>
se a</w>
recipi ent</w>
part ner</w>
multic enter</w>
P ain</w>
sequ enced</w>
me et</w>
sup press</w>
sep tic</w>
form ulations</w>
connec tion</w>
in nov
inter acting</w>
y el
p ep
h ind</w>
i e</w>
activ ates</w>
examin es</w>
ish man
in nerv
non linear</w>
cr ude</w>
m asses</w>
h in
recogn ize</w>
omy el
prol actin</w>
cap ability</w>
lat ation</w>
A N</w>
- induced</w>
Diab etes</w>
on ine</w>
tryp toph
Inv estig
objec tives</w>
suff ered</w>
hem e</w>
ome dical</w>
deta ils</w>
oxygen ation</w>
re aching</w>
fore ign</w>
hi erarch
Physi cal</w>
deteri oration</w>
Im aging</w>
Pro g
ve ter
end it
str anded</w>
aden oma</w>
PI 3
pre vents</w>
aph rag
if ying</w>
fr uc
S cre
sat ellite</w>
Cardi ac</w>
financ ial</w>
phenomen a</w>
ag ricul
discre te</w>
G lu
M it
co ver</w>
palli ative</w>
Aug ust</w>
un k</w>
Stre ptococcus</w>
pene tr
M orph
s --
di lution</w>
reas on
N i</w>
an us</w>
g i</w>
ell um</w>
evalu ations</w>
pap illary</w>
stri atum</w>
PAR TI
Influ ence</w>
synerg istic</w>
cod on</w>
S e</w>
consider ations</w>
pic ture</w>
p yro
G al
A no
app reci
air y</w>
regul ators</w>
O ste
mit otic</w>
valid ate</w>
establ ishment</w>
H ow</w>
oph yl
post menopausal</w>
enti ty</w>
id ed</w>
endoscop y</w>
pul ses</w>
anastom osis</w>
un stable</w>
oscop ic</w>
umbil ical</w>
embol ization</w>
extrem e</w>
cholec yst
seg reg
ch ir
ru n</w>
P b</w>
L im
u red</w>
illustr ate</w>
re placed</w>
mel atonin</w>
cat al
selec t</w>
PARTI CIPA
comfor t</w>
per ox
R enal</w>
an ticip
n ig
h u
modul ating</w>
enabl ed</w>
ob vious</w>
in surance</w>
do or</w>
anti genic</w>
mac ular</w>
i ar</w>
expl oration</w>
ast ed</w>
sim pl
iton e
- 6</w>
PARTICIPA NTS</w>
con stitute</w>
stud ent</w>
per g
thyro idism</w>
st e</w>
discre p
te m</w>
Under standing</w>
sp or
NC E</w>
aggreg ates</w>
determin ant</w>
discrim in
F em
ge ometry</w>
histo chemical</w>
esophag us</w>
cat enin</w>
at ri
t onic</w>
mer cur
bl astoma</w>
ing estion</w>
Rep ort</w>
C 3
pene tration</w>
ogra fts</w>
sist ance</w>
odynam ics</w>
arrhyth mias</w>
trans forming</w>
ow ing</w>
trans duc
Ad ditional</w>
pari etal</w>
neuro degenerative</w>
vi ously</w>
lum en</w>
Ser v
oxidi zed</w>
ER K</w>
direc tions</w>
meth ionine</w>
intra ocular</w>
all erg
stem s</w>
stri atal</w>
radi ographs</w>
rib osomal</w>
benz ene</w>
E th
t ants</w>
attrib utable</w>
eosin oph
l id
ent ory</w>
F S</w>
th ood</w>
com orbidities</w>
r ule</w>
V it
pros thetic</w>
Diag nosis</w>
radic als</w>
n a</w>
Gn RH</w>
princi ple</w>
R i
dis ulf
ob ste
cont acts</w>
m V</w>
h aled</w>
menti oned</w>
di mer</w>
myel oma</w>
carcin ogenesis</w>
fu r</w>
pe er</w>
al umin
SN P</w>
st at
fol ate</w>
attenu ation</w>
sl ices</w>
ho t</w>
ulc ers</w>
at trac
we ak
ar ise</w>
ent an
P ost</w>
sep tal</w>
3 8
Li ver</w>
E G
dro p</w>
cor tic
AR S</w>
gangli a</w>
modi fy</w>
equ ations</w>
P op
trig ger</w>
fibrin ogen</w>
asym metric</w>
om al</w>
M S
equip ment</w>
ap tic</w>
K a
eth ical</w>
k el</w>
epilep tic</w>
oc ul
N P
ac tor</w>
ac compl
199 2</w>
En do
hypothalam us</w>
ang les</w>
ol ab
199 3</w>
car ies</w>
6 ,
chromat ographic</w>
sh unt</w>
pes tic
analge sic</w>
am ic</w>
m o</w>
e -</w>
other wise</w>
op res
en op
bec oming</w>
1 60</w>
form ula</w>
hom ogen
C57 BL</w>
upreg ulation</w>
pyru vate</w>
ser op
iso form</w>
lith ium</w>
pol e</w>
r atings</w>
juven ile</w>
app ly</w>
d itary</w>
PC s</w>
o rous</w>
pertur b
ie fs</w>
cent ur
sc av
S uc
anesthe tized</w>
dop aminergic</w>
exer t</w>
immunos orbent</w>
calc ulation</w>
T PA</w>
d ent</w>
B ri
catar act</w>
stimul ates</w>
summar ize</w>
10 5</w>
ameli or
Syn drom
t od
aff ective</w>
con den
Hy po
lam b
Expos ure</w>
G e
N 2</w>
b is</w>
run ning</w>
gi ving</w>
ti zation</w>
bo w</w>
T D</w>
pre clinical</w>
attr active</w>
ca ro
v om
avoid ance</w>
P os
knock down</w>
PA P</w>
f ig
A l</w>
N ine</w>
kin e
ap par
ultim ately</w>
st ain</w>
Op tim
t ose</w>
Sh ort</w>
Direc t</w>
surfac tant</w>
ro und</w>
i pati
exp endit
ot rophic</w>
end ocardi
me at</w>
F T</w>
ot actic</w>
out break</w>
epit opes</w>
direc tional</w>
i ii</w>
dri ve</w>
ore r</w>
draw n</w>
si x
wor d</w>
Ran dom
con junc
N et
T NF
1 β</w>
electro cardi
h ence</w>
cardi opulmonary</w>
ograph ically</w>
dec ay</w>
E ven</w>
Ep idemi
bl ic</w>
pr one</w>
yt es</w>
pl ant
Ap plication</w>
ang ina</w>
p ip
in form</w>
Pr acti
N either</w>
Th rough</w>
visu alization</w>
usc itation</w>
at ro
8. 6</w>
attemp ted</w>
ox if
continu ation</w>
int ended</w>
sub sets</w>
dy sp
g ained</w>
immunosup pressive</w>
speci alized</w>
k al
Sh e</w>
Z e
institu tions</w>
Gen er
resid ent</w>
epid ural</w>
bel ieve</w>
R E</w>
P or
at tending</w>
flur ane</w>
mig raine</w>
distr ic
ve ins</w>
evol ved</w>
pro ve</w>
trim ester</w>
opres sin</w>
visc eral</w>
on eph
A ff
st ones</w>
- 4</w>
ca ffe
att ack</w>
p it
min ogen</w>
epit ope</w>
ch e
qu ar
thromb ocyt
M us
H is</w>
ham ster</w>
clon ing</w>
w ounds</w>
bloc kers</w>
all ogeneic</w>
B as
al do
hist ologically</w>
warran ted</w>
b rate</w>
u n</w>
ch ori
osteo arthritis</w>
obser ver</w>
thym idine</w>
trac e</w>
ipsi lateral</w>
K i</w>
mis sing</w>
R D</w>
0.00 3</w>
tor ial</w>
heter o
cho ol</w>
m outh</w>
br ady
casc ade</w>
fluor ide</w>
m u</w>
f ecal</w>
Diagnos tic</w>
xim ab</w>
or ic</w>
exten d</w>
ome tri
adv anc
c a</w>
L ife</w>
in versely</w>
all ergy</w>
c ity</w>
sam pled</w>
8. 2</w>
hydrox ylase</w>
er t</w>
sar co
nephro pathy</w>
los ses</w>
histor ical</w>
s ular</w>
resp iration</w>
An im
var ies</w>
mo tiv
7. 9</w>
ac il</w>
In dian</w>
F U</w>
t ot
vast atin</w>
L ac
D F</w>
facilit ated</w>
ab ine</w>
l ity</w>
ur ance</w>
Ab s</w>
re mot
verte br
ipati ng</w>
Wh at</w>
ol l
all ograft</w>
propor tions</w>
rh iz
atheros clerotic</w>
ar ct</w>
smo ke</w>
ay ers</w>
Ultr as
swit ch</w>
F L
in continence</w>
end ometri
Pro gram</w>
M agnetic</w>
ep ing</w>
Inte gr
polymer ization</w>
S il
quanti ty</w>
calcul ate</w>
e pa
U V
venti l
L ip
e us</w>
S accharomyces</w>
excit atory</w>
Austral ian</w>
oc occal</w>
preferen ces</w>
endo plasmic</w>
adhe sive</w>
G lob
ec es</w>
con junction</w>
glyc ogen</w>
prophyl actic</w>
F DG</w>
n ull</w>
r y</w>
criter ion</w>
normal ized</w>
l et
Vari ous</w>
uncer tainty</w>
cogni tion</w>
inc ision</w>
Ap pro
develop ments</w>
con clusions</w>
transmit ter</w>
lam y
charg es</w>
B s</w>
ma st
igh ts</w>
trans verse</w>
di oxide</w>
h ard</w>
amph etamine</w>
Sec ondary</w>
Gen eral</w>
ion ization</w>
f resh
odon tic</w>
struc turally</w>
acces sible</w>
im ide</w>
res sively</w>
objec ts</w>
ph thal
inoc ulation</w>
p ation</w>
doc tors</w>
psych o
anti coagul
tryptoph an</w>
counsel ing</w>
M il
fl am
lim bs</w>
engine ered</w>
PI3 K</w>
tw enty</w>
em atic</w>
obser ve</w>
H A
T M</w>
P 450</w>
rib ed</w>
S ensi
colon ization</w>
frag mentation</w>
del ine
ar ms</w>
slow ly</w>
B W</w>
wa ve
P at
pro line</w>
bro w
appar atus</w>
Rec om
199 1</w>
simil arities</w>
cardi o
M el
con e</w>
fib rom
al isation</w>
CH D</w>
ophthal m
par asi
elim inated</w>
susp ici
m iti
D at
reproduc ibility</w>
tic a</w>
I N</w>
organ ized</w>
routin ely</w>
8. 8</w>
acc id
it ated</w>
P W
System atic</w>
th y</w>
Multi variate</w>
ycl ine</w>
ol ateral</w>
p et
envel ope</w>
labor atories</w>
od ec
er adic
In trac
her nia</w>
f en
mal formations</w>
refl ects</w>
exc eption</w>
belong ing</w>
absc ess</w>
ch i</w>
phosphor us</w>
F ib
in organic</w>
lipos omes</w>
Struc tural</w>
ag ar</w>
Ger many</w>
EM G</w>
em enting</w>
m entally</w>
knock out</w>
S tro
ris t</w>
g ed</w>
disper sion</w>
bal anced</w>
am id
placent a</w>
An gi
mon ocyte</w>
medi as
ad junc
ess entially</w>
epa m</w>
clu stering</w>
D aw
hor ses</w>
construc ts</w>
pos ites</w>
Ram an</w>
relati ves</w>
T rial</w>
F eb
Ac tivation</w>
multi disciplinary</w>
om od
bio availability</w>
describ ing</w>
over lap</w>
cohe rence</w>
reproduc ible</w>
in ase</w>
F ood</w>
f used</w>
emplo ying</w>
ide a</w>
har d
in sp
A1 c</w>
z er</w>
Bre ast</w>
S mall</w>
po is
m t
ob arb
od es</w>
el ast
mit ogen</w>
Syndrom e</w>
R ats</w>
seas onal</w>
hy dra
d airy</w>
preferen tially</w>
exper t</w>
f ate</w>
Sec ond</w>
survi ved</w>
l ic
igh t
F C</w>
predic ts</w>
dist or
1, 2</w>
sl ope</w>
I Q
as cor
mathem atical</w>
ter med</w>
pro po
ul ed</w>
In tro
insec t</w>
aug mented</w>
ru ary</w>
eclamp sia</w>
l nc
var ic
Fac tor</w>
Gl uc
Associ ated</w>
P ulmonary</w>
G TP</w>
fi er</w>
eukary otic</w>
br ac
dam aged</w>
am yg
vom iting</w>
ti ters</w>
regar ded</w>
Feb ruary</w>
her in</w>
bor ns</w>
fertil ization</w>
c e
mos quit
glyc emic</w>
0. 6
ax onal</w>
M G</w>
Nov ember</w>
den sities</w>
influ x</w>
st arch</w>
so y
mut ase</w>
o k
lim itation</w>
desi r
har b
fibr onectin</w>
di aphrag
re al
De sign</w>
8. 0</w>
immobil ized</w>
waveleng th</w>
fl ight</w>
adul thood</w>
hom ozygous</w>
aden omas</w>
Respon se</w>
P ac
dro pl
sp ar
t ome</w>
hel ical</w>
fet us</w>
F V
lat er
ec topic</w>
rever sal</w>
L ung</w>
s lower</w>
o yl</w>
8. 9</w>
C ycl
anal ogs</w>
c .
fac ility</w>
mes enteric</w>
Ad ult</w>
O T</w>
micro vascular</w>
jo b</w>
aver aged</w>
ab str
tem plate</w>
dimen sion</w>
stabil ized</w>
f asc
plas minogen</w>
v ap
icardi al</w>
carr y</w>
Rel ati
Amer ica</w>
P 4</w>
distingu ished</w>
wa ste
T 1
ad missions</w>
cathe ter
immun ized</w>
in he
employ ment</w>
id in</w>
meth anol</w>
in tubation</w>
conver ting</w>
compl aints</w>
parathyro id</w>
h all
ox al
gradu ate</w>
scin ti
oph en
ogni tive</w>
sens ors</w>
introduc e</w>
transi tions</w>
nan ot
cho ro
o ides</w>
compet ence</w>
se arch
glucocortico id</w>
proc e
explan ation</w>
PR L</w>
leg al</w>
arach id
micro environment</w>
3 4
CYP 2
po orer</w>
all ic</w>
T CR</w>
H s</w>
IC 50</w>
bel iefs</w>
co ating</w>
gal ac
foll icles</w>
G ra
col lo
psori asis</w>
transl ated</w>
S af
aut on
IN E</w>
inher ited</w>
immunop recip
amyg dal
highligh ted</w>
den at
T issue</w>
phospholip ase</w>
fer mentation</w>
ad ding</w>
mercur y</w>
Daw ley</w>
ari um</w>
leuc ine</w>
m ir
ap ine</w>
her pes</w>
Tw elve</w>
regi stration</w>
nan oc
re production</w>
cl amp</w>
2 a</w>
domes tic</w>
ep sil
Relati onsh
intraper itoneal</w>
si RNA</w>
Spr ague</w>
ul ty</w>
un g
High er</w>
sensiti zation</w>
atin um</w>
ph ant
tr is
re a</w>
um inal</w>
k y</w>
MEASURE S</w>
method ological</w>
plan ar</w>
derm atitis</w>
res uscitation</w>
uni versal</w>
hydro ly
inf arct</w>
datas et</w>
manifest ation</w>
mut ated</w>
se eds</w>
Pot ential</w>
saliv a</w>
desi red</w>
peri odic</w>
osmo tic</w>
f oun
co de</w>
them es</w>
spl enic</w>
8 00</w>
res ected</w>
end otoxin</w>
s s
circu it</w>
mark et</w>
P B</w>
5 p</w>
m us</w>
ac tin
8. 4</w>
z ones</w>
azep ine</w>
fer ri
trans form</w>
mo ving</w>
e diatric</w>
po protein</w>
hom olog
AL L</w>
nucle ic</w>
con fined</w>
vesti bular</w>
si zed</w>
i. p.</w>
wor sen
com ing</w>
mutag enesis</w>
I BD</w>
ph on
di az
0. 5
P BM
E N</w>
junc tions</w>
B in
conduc t</w>
quin one</w>
Gol gi</w>
ame ters</w>
repeti tive</w>
an sw
ong ue</w>
S r
micro gram</w>
et c</w>
ech anical</w>
app en
calib ration</w>
bil ir
sub mitted</w>
establ ishing</w>
C s
triglycer ide</w>
H u
precip itation</w>
al izations</w>
P lat
lin ks</w>
pl ans</w>
in struc
b atter
Post operative</w>
cortico steroids</w>
sequ ent</w>
ab ec
synth et
care ful</w>
hol ds</w>
la w</w>
al i
B a
pre treated</w>
poly acrylamide</w>
pig ment</w>
mening itis</w>
Experim ent</w>
micro array</w>
acti vely</w>
flav on
comp uter
st ep
enti onal</w>
fo rest</w>
li e</w>
C B</w>
elong ation</w>
inhal ation</w>
minim ize</w>
R V</w>
bi omedical</w>
in ium</w>
gen etics</w>
Cro hn</w>
1 H</w>
4, 5</w>
I F</w>
su stain
F 2</w>
nam ed</w>
pro found</w>
assembl ed</w>
20 19</w>
depl eted</w>
gluc agon</w>
verte brate</w>
detec tor</w>
ectom ized</w>
ambi ent</w>
it ting</w>
commerc ially</w>
cycl ing</w>
H2 O2</w>
T ogether</w>
tr unk</w>
cur ative</w>
spermat ozo
Reg i
ograph ics</w>
ter a</w>
flex ibility</w>
vulner able</w>
dram atic</w>
ang ular</w>
S tim
l aryngeal</w>
sco red</w>
thrombo tic</w>
par a
ili ac</w>
ophil ia</w>
Con tin
aberr ant</w>
B I</w>
9. 2</w>
hyper sensitivity</w>
O l
K 2</w>
glyco l</w>
hemorrh agic</w>
8. 1</w>
angi oplasty</w>
NAD PH</w>
Sev enty</w>
kin ds</w>
re fr
li um</w>
marg in</w>
Ph en
b red</w>
cord ingly</w>
tr abec
nar row</w>
re constitu
su ture</w>
rati on
pac ing</w>
en ously</w>
Ca uc
ar ri
er ies</w>
w w
fib rous</w>
b uc
hypo theses</w>
entr icular</w>
ogen e</w>
aer os
ophosph ate</w>
scaff old</w>
Con sequently</w>
Per form
as m</w>
fluctu ations</w>
duod en
ren ces</w>
M ale</w>
Transc rip
prob able</w>
marg inal</w>
i ents</w>
em ental</w>
coll abor
promo ters</w>
2, 3</w>
repe at
repe ats</w>
Differen tial</w>
mechanis tic</w>
partic ipating</w>
SC T</w>
Sou thern</w>
cycl ospor
optim ize</w>
u si
use a</w>
menstr ual</w>
ex plic
beta 1</w>
0. 2
bol us</w>
dox orubicin</w>
integr al</w>
glut amine</w>
Eff icacy</w>
8. 7</w>
overl apping</w>
ge ographic</w>
MI C</w>
0.0 6</w>
datas ets</w>
Specific ally</w>
un saturated</w>
16 S</w>
commun ic
estim ating</w>
ud ge</w>
low ered</w>
C arb
sph eres</w>
B ay
pre frontal</w>
y o
qu i
crystall ine</w>
olig os
E S
3 3
as sum
D en
kill ing</w>
scaff olds</w>
di s</w>
h aps</w>
i ety</w>
Gen ome</w>
arrang ements</w>
continu es</w>
consci ous</w>
autom atic</w>
sil encing</w>
caro ten
mo id</w>
prop yl
P 2
house hold</w>
In jur
l t</w>
us p
x anth
infer tility</w>
dele tions</w>
dom eth
glyc emia</w>
cereb ellum</w>
connec tions</w>
vis cos
VE N
ophosph amide</w>
rec all</w>
el as
M odi
arti le</w>
evid enced</w>
I S
Ar g</w>
pat h</w>
soci o</w>
C op
intrav enously</w>
new borns</w>
ic o</w>
RO C</w>
centur y</w>
posi tioning</w>
h t
dis mutase</w>
ren ch</w>
erythem at
os ity</w>
L M
9. 4</w>
9. 6</w>
pal sy</w>
Ch rom
bi ologically</w>
fron t</w>
colon ies</w>
pro to
ab oration</w>
non specific</w>
re l</w>
bloc ker</w>
play ing</w>
connec tive</w>
ow er</w>
O CT</w>
d i</w>
mo iety</w>
persist ed</w>
S m
cad herin</w>
M ice</w>
AR Y</w>
thym us</w>
gro ss</w>
person nel</w>
dometh acin</w>
9. 3</w>
CA T</w>
retin opathy</w>
ul us</w>
synovi al</w>
dis charged</w>
pl aques</w>
qu artile</w>
L a
prog ressively</w>
heter ozygous</w>
I T</w>
man age</w>
on ds</w>
se emed</w>
Res p
os keletal</w>
ph al
ig u
H V</w>
hy gi
s or</w>
In flam
1 11</w>
p 38</w>
pro vision</w>
fac ts</w>
l ib
E A</w>
Cl assi
circum st
haz ards</w>
refl ecting</w>
str a
remot e</w>
em a
In sul
con sumed</w>
do w</w>
pran olol</w>
si ded</w>
D ay</w>
bre ast
B ut</w>
rel im
ur acil</w>
pro pi
accep tance</w>
hypot ension</w>
bra fish</w>
deli ver
er ous</w>
vic tim
angi ogenic</w>
deman ds</w>
opath ology</w>
Can adi
i res</w>
PG E2</w>
moti fs</w>
bio active</w>
kill ed</w>
cent res</w>
ch it
M Y
propag ation</w>
disulf ide</w>
Perform ance</w>
P ri
conjug ates</w>
neurom uscular</w>
Surviv al</w>
mon ic</w>
x in</w>
b ones</w>
desc ending</w>
A U
anti retroviral</w>
bri ef
pro pen
constr aints</w>
sist ent</w>
u sive</w>
brid ge</w>
categor ized</w>
dist ances</w>
swit ching</w>
ob taining</w>
B T</w>
desir able</w>
retar dation</w>
Ma j
D Cs</w>
L eu
oxid ants</w>
foc i</w>
poll ut
TL R
re acted</w>
cyt ology</w>
G V
ha ir
INTER VEN
T L</w>
sc at
prin ting</w>
10 2</w>
retro grade</w>
lip i
Kore an</w>
en or
S HR</w>
pris ingly</w>
st op
n om
ar ial</w>
chic k
here ditary</w>
Al l
PA R</w>
in ous</w>
S K</w>
abor tion</w>
fabr icated</w>
anes thetic</w>
presum ably</w>
pl eg
aryn x</w>
E s</w>
BAL B</w>
9. 1</w>
cad mium</w>
Lym ph
ech o</w>
pap ers</w>
sp ray</w>
cop e</w>
d odec
I OP</w>
r ating</w>
fil ament</w>
reser vo
prote olytic</w>
at osis</w>
ph orb
Cauc asi
fu sions</w>
Larg e</w>
r ing
waste water</w>
c ing</w>
cur ricul
sem i
fin ally</w>
rein for
lin ing</w>
Scre ening</w>
mor tem</w>
F c</w>
p up
CA SE</w>
pyr idine</w>
d ust</w>
S a
vir tual</w>
0. 3
scre w</w>
L oc
we t</w>
mar ks</w>
de ep
C p
ol ine</w>
perfor ation</w>
multi variable</w>
V e
seg mental</w>
tin s</w>
F o
Th ose</w>
fr am
demonstr ation</w>
vas opressin</w>
facilit ates</w>
s acr
Ex amination</w>
challeng ed</w>
ped ance</w>
wal ls</w>
V ol
plasm ids</w>
res orption</w>
posi tivity</w>
p iv
T U
up uncture</w>
hyp oglyc
st atin</w>
am el</w>
Ger man</w>
so ils</w>
he dr
feren ces</w>
CD 3</w>
L ong
mo un
cop ies</w>
Con versely</w>
M et</w>
Y oun
cle ft</w>
au gh
l actic</w>
sched ule</w>
nat ri
compart ments</w>
adequ ately</w>
Ex c
b ases</w>
ultra structural</w>
pl atinum</w>
C ognitive</w>
N at
ex in</w>
F rench</w>
198 8</w>
S B</w>
f ell</w>
N H</w>
conjug ate</w>
is let</w>
M id
phorb ol</w>
N CT
thic k
198 9</w>
St ress</w>
win dow</w>
f MRI</w>
y a</w>
ogly can</w>
neuro endocrine</w>
id a</w>
Pre vention</w>
he ating</w>
poll en</w>
re vascularization</w>
te ach
ul ates</w>
M ental</w>
b order</w>
oth i
k now</w>
inter acts</w>
bur st</w>
ubiqu itin</w>
g aps</w>
ot roph
lit axel</w>
Wh ite</w>
1, 3</w>
b ud
Intro duction</w>
K O</w>
or ities</w>
diff ers</w>
prim ers</w>
ous ness</w>
ic idal</w>
transpor ters</w>
mim ic</w>
di latation</w>
centr ifug
mess enger</w>
T2 DM</w>
We b</w>
in ates</w>
B ody</w>
na usea</w>
viscos ity</w>
ap nea</w>
eg ative</w>
classi c</w>
V AS</w>
constitu ents</w>
D er
Mat erials</w>
p mol</w>
qu ic
m Ab</w>
L M</w>
ati onic</w>
ru b
onc ology</w>
kin d</w>
spermatozo a</w>
sph inc
i otic</w>
projec tion</w>
shorten ing</w>
P CI</w>
alb icans</w>
publ ications</w>
Glob al</w>
cor ro
caffe ine</w>
produc tivity</w>
inf used</w>
Cur rently</w>
H2 O</w>
au tism</w>
an ter
T c</w>
1, 000</w>
aut opsy</w>
haem orrh
ultra violet</w>
suc cin
trop ical</w>
w rit
u ed</w>
mic rom
lymph atic</w>
St age</w>
or imetr
d ated</w>
phospholip ids</w>
con sent</w>
nor adrenaline</w>
leng ths</w>
st resses</w>
hy al
Incre asing</w>
cal ves</w>
Organ ization</w>
fibr in</w>
ten d</w>
un de
nico tin
form in</w>
exper ts</w>
ag it
H er
phen olic</w>
in dex
m apped</w>
N -</w>
W est</w>
ul in
er ship</w>
ur ium</w>
rex ate</w>
pharmac y</w>
event ually</w>
mobil ization</w>
T n
I a</w>
rec essive</w>
tempor ary</w>
Cal c
lymph omas</w>
amin ase</w>
ra w</w>
grad ed</w>
hab its</w>
H 3</w>
electrol yte</w>
lo t</w>
R CC</w>
T ai
solub ility</w>
Be sides</w>
st al
L o
mum ol</w>
vacc inated</w>
Combin ed</w>
oc at
ke ts</w>
ot opic</w>
me eting</w>
therapeu tics</w>
fin ite</w>
calc ification</w>
encap sul
uni variate</w>
or p
modul ates</w>
ty ph
en tered</w>
C 4</w>
gro w</w>
organ izations</w>
3 7
ati onary</w>
Dat ab
electro physiological</w>
de signs</w>
ot e</w>
W nt</w>
H or
isot ope</w>
dis appeared</w>
He ter
SP ECT</w>
H ol
D u
cle a
mat urity</w>
dis soci
aug mentation</w>
modul in</w>
o king</w>
mean ing
myel in</w>
F P</w>
AL T</w>
cover ing</w>
uncer tain</w>
amp ut
R AS</w>
re str
aldo sterone</w>
e sian</w>
B or
fav our
AB E
f ly</w>
10 3</w>
vesi cle</w>
accoun ting</w>
Out come</w>
agglutin in</w>
1 st</w>
hand ling</w>
av ig
man aging</w>
S i</w>
kill er</w>
ten si
diag nose</w>
sp ot</w>
E stim
μ M</w>
typ ing</w>
polar ized</w>
impair ments</w>
ro d</w>
Ha em
sp ent</w>
ads orb
retriev al</w>
R CTs</w>
lamb da</w>
we ar</w>
lys osomal</w>
b all</w>
ul t
er n
1 2.5</w>
In duced</w>
ic ac
bound ary</w>
Reg ulation</w>
10 4</w>
synthet ase</w>
Sci ence</w>
Insul in</w>
play ers</w>
continu ing</w>
1 α</w>
pow der</w>
il lo
it ance</w>
T I</w>
CD 34</w>
sul fur</w>
fi able</w>
gluc uron
f ol</w>
et te</w>
sugg estive</w>
triglycer ides</w>
sp ite</w>
ub es</w>
provid er</w>
volun tary</w>
n es
D ATA</w>
caus ative</w>
c ot
β 1</w>
bran ches</w>
B u
termin als</w>
ir reversible</w>
cycl ophosphamide</w>
comm it
sec onds</w>
D SM</w>
P al
land scap
accoun ts</w>
gradi ents</w>
foll icle</w>
beg an</w>
scenari os</w>
f ra
y ment</w>
0.00 4</w>
H elic
encephal opathy</w>
CE A</w>
9. 7</w>
HER 2</w>
en es</w>
defin ing</w>
an tr
P ositive</w>
path ic</w>
sub cellular</w>
k ept</w>
t ongue</w>
Pe diatric</w>
li ves</w>
H SP
a un
pass age</w>
3 p</w>
H al
ar d
tit anium</w>
adv ance</w>
ot rexate</w>
blin ded</w>
si al
Ital y</w>
fibr e</w>
immun ocom
E mer
D E</w>
m is</w>
N i
care fully</w>
S core</w>
am orph
in activated</w>
Canadi an</w>
sti g
y tic</w>
yr in</w>
il ian</w>
EC M</w>
nor thern</w>
H S
char acter</w>
sou thern</w>
so ver</w>
Therap eu
inter mediates</w>
ucle otide</w>
d B</w>
dis sec
in stem</w>
conflic t</w>
n aph
mod est</w>
expec tations</w>
9. 8</w>
3 6
S eph
Rap id</w>
os s</w>
ap oli
medi ator</w>
ammon ia</w>
ub in</w>
rel ating</w>
st ock</w>
ic on
Compl ete</w>
CB F</w>
am idal</w>
prescrib ing</w>
spl it</w>
IC D</w>
shor t
no tic
E duc
har v
ethn icity</w>
glycos ylation</w>
analy se</w>
se dation</w>
her ni
individu ally</w>
cit rate</w>
uter us</w>
dem ographics</w>
Commun ity</w>
spin dle</w>
tend s</w>
p in</w>
V s</w>
100 ,000</w>
I g</w>
c itr
ser ves</w>
concentr ated</w>
a ren
M ei
spectro scopic</w>
ag ers</w>
alg ia</w>
coord inated</w>
t us
ann ot
at ology</w>
docum ent</w>
M emb
ging ival</w>
12 3</w>
att acks</w>
G P
abol ism</w>
nutri ents</w>
His panic</w>
ocy cl
Eigh ty</w>
regi stry</w>
D D</w>
J o
im pedance</w>
fo ot
l ign
T echn
remo ve</w>
cochle ar</w>
Pur pose</w>
E ast</w>
end ovascular</w>
ch lo
br ach
prote as
exhib iting</w>
N ig
pul sed</w>
A u</w>
reg urg
ax illary</w>
seg mentation</w>
diff ering</w>
P en
Com pu
chir al</w>
LL ED</w>
m ang
0. 75</w>
W here
r as</w>
TA TION</w>
buil t</w>
catal ase</w>
os se
omyel itis</w>
En viron
afferen t</w>
in ephrine</w>
bir ths</w>
c ations</w>
gyr us</w>
ter ing</w>
consul tation</w>
sex es</w>
r am
thre at</w>
per haps</w>
mod al</w>
Import antly</w>
U NL
ro x
lec tin</w>
Fam ily</w>
sym metry</w>
inter viewed</w>
E X
form al</w>
programm es</w>
dyst rophy</w>
ABE LLED</w>
mic rom</w>
M n
sp oradi
sporadi c</w>
UNL ABELLED</w>
incorpor ating</w>
w inter</w>
Re si
Hb A1c</w>
lum inal</w>
all er
innov ative</w>
cathe ters</w>
mac rom
ock et</w>
stimul atory</w>
tw in</w>
Fol low</w>
fir ing</w>
pen icillin</w>
Co h
id ing</w>
emo tion</w>
at ectomy</w>
2, 4</w>
deform ity</w>
re sted</w>
s ati
o ocyte</w>
spi ke</w>
it ability</w>
we b</w>
ze brafish</w>
microtub ule</w>
conduc ting</w>
tic k</w>
om et
am o
S CI</w>
ifer ase</w>
mT OR</w>
Where as</w>
ti ce</w>
pop ular</w>
s ation</w>
enti n</w>
M c
z ol
0. 15</w>
Amer icans</w>
t ories</w>
conduc tivity</w>
computer ized</w>
Sev ere</w>
th elial</w>
in puts</w>
nan os
thic k</w>
Kn ow
ti de</w>
soy bean</w>
Meth od</w>
reason able</w>
circum ference</w>
program ming</w>
hum oral</w>
BD NF</w>
Tai w
F R</w>
En d
S le
lymph ocytic</w>
as sign
bra ins</w>
en amel</w>
circumst ances</w>
lip ase</w>
b asi
pro inflammatory</w>
i or</w>
lymph o
pa ediatric</w>
st ationary</w>
bi ologic</w>
od op
transc ribed</w>
end point</w>
at opic</w>
particip ant</w>
Pro tec
medi ation</w>
tr ich
polymorph ic</w>
add ressing</w>
vascul ature</w>
v ig
IQ R</w>
a i</w>
Random ized</w>
L F</w>
Lev el</w>
modi fying</w>
o protein</w>
ur gent</w>
tic us</w>
com mod
benz odi
l avage</w>
sex ually</w>
K m</w>
modi um</w>
shif ted</w>
ang er</w>
eff icac
tre es</w>
omeg a</w>
pro pranolol</w>
hydro l
sedi ment</w>
antidepress ant</w>
0. 4
k eleton</w>
it ro
pac k
e tin</w>
auto antibodies</w>
mon key</w>
enabl ing</w>
depos its</w>
cen tered</w>
Inf ection</w>
ir respective</w>
met er</w>
C lo
agit tal</w>
projec tions</w>
on a</w>
defin ite</w>
di mer
CF U</w>
pi per
He La</w>
parame tric</w>
ti gh
ush ing</w>
rel ate</w>
pois oning</w>
ul as</w>
re m
198 7</w>
occ ip
am il</w>
tin c
institu tional</w>
solub il
bin ary</w>
fl an
gra in</w>
Inv entory</w>
govern ment</w>
min ority</w>
pre operatively</w>
th ly</w>
ht t
oscill ations</w>
arach no
retriev ed</w>
suppor tive</w>
quanti ties</w>
recei ver</w>
be hind</w>
AM I</w>
in domethacin</w>
aff or
Pr o</w>
3, 4</w>
ubiqu it
polyp eptides</w>
k it</w>
yl in
me tic</w>
nod al</w>
eff usion</w>
prop yl</w>
ac idosis</w>
cataly st</w>
Ir an</w>
0 2</w>
L it
gall bladder</w>
asym metry</w>
line ages</w>
5 -</w>
gran ule</w>
spe a
e ties</w>
pseud o
eng ue</w>
cros sover</w>
B al
af ter
trac er</w>
s arcom
A 4</w>
per si
isol one</w>
Know ledge</w>
f entan
ra ise</w>
obacter ia</w>
adv oc
ar yl</w>
aly tic</w>
raz ole</w>
gra y</w>
soci ety</w>
co valent</w>
En dos
est s</w>
absorb ed</w>
fem ur</w>
bre ath</w>
al ga
sal v
ec ology</w>
lo ok</w>
circul atory</w>
car inic</w>
si dase</w>
Medic are</w>
propen sity</w>
Struc ture</w>
L y
chic k</w>
aden ine</w>
plex us</w>
eph one</w>
fracti onal</w>
F A
ill ing</w>
sensiti zed</w>
tumorig enesis</w>
writ ten</w>
Lev els</w>
cholin esterase</w>
0.0 8</w>
M es
C CR
microsom al</w>
ro c
sk ull</w>
sequ el
h CG</w>
fil l</w>
radio activity</w>
har ve
brief ly</w>
Bin ding</w>
Cal ifor
el e</w>
inhe rent</w>
Tran si
vertebr ates</w>
bra instem</w>
Ka plan</w>
CC K</w>
counter parts</w>
sion ally</w>
f ail</w>
reci proc
cytos ol</w>
amygdal a</w>
ME DL
sub til
iv ac
encephal itis</w>
hel per</w>
itr on</w>
par um</w>
com ycin</w>
tox ins</w>
multi drug</w>
fal ci
Bi om
allerg en</w>
anti hypertensive</w>
S Y
constitu tive</w>
L E</w>
ac illus</w>
fac torial</w>
1 B</w>
enh ancer</w>
- ATPase</w>
ac ycl
19 80</w>
Four ier</w>
chick ens</w>
p ass</w>
wea kness</w>
gluc os
N GF</w>
TR I
- dependent</w>
AN OVA</w>
aden ovirus</w>
P PAR
stric t</w>
lar val</w>
spher ical</w>
sp ots</w>
H E</w>
neo plasia</w>
h ole</w>
r o</w>
MR SA</w>
MEDL INE</w>
Mg 2</w>
sim plex</w>
Le u</w>
R BC</w>
le an</w>
R SV</w>
am ylase</w>
Plas modium</w>
thrombocyt openia</w>
sh ed</w>
in effective</w>
sen escence</w>
publ ication</w>
intell ig
alk yl</w>
infu l</w>
C yto
meth ane</w>
anti fungal</w>
c ra
p al</w>
Kore a</w>
se al</w>
al and</w>
surve yed</w>
o resc
S o
g ar
iz er</w>
erythemat osus</w>
re ward</w>
PA H</w>
pa inful</w>
prim ing</w>
fl ag
prec eding</w>
G o
clin ician</w>
0.0 7</w>
fic i
down regulated</w>
lipo proteins</w>
vol atile</w>
l ings</w>
ox yt
immun ocyto
mo tivation</w>
ureth ral</w>
falci parum</w>
Datab ase</w>
mon otherapy</w>
chit osan</w>
an os
olec ules</w>
mat r
prote ases</w>
onc ogene</w>
brow n</w>
consum ing</w>
cholester ol
somat ostatin</w>
un likely</w>
se ed
Al tern
te dly</w>
p um
Vis ual</w>
ph one</w>
es cap
guid eline</w>
on cho
D A
al og
ie sis</w>
DN As</w>
ad ec
struc tive</w>
iton in</w>
Califor nia</w>
AK I</w>
Tra um
H 3
GI ST
ac upuncture</w>
ma ize</w>
F GF
pac litaxel</w>
e o
ferri tin</w>
co sis</w>
oph aryngeal</w>
synap ses</w>
adip ocytes</w>
i as</w>
od end
path ologies</w>
S er</w>
identi fies</w>
sh aring</w>
l o</w>
Therapeu tic</w>
10 6</w>
lo ads</w>
ab ro
Ex peri
ell ul
o ate</w>
ph yt
A sia</w>
Ap proxim
P art</w>
pro pan
un expected</w>
war f
HI F</w>
chron ically</w>
N AD</w>
198 5</w>
emb le</w>
Ac c
sacr ific
par ac
cor n</w>
all ed</w>
ti ter</w>
radi us</w>
dic ated</w>
monol ayer</w>
sol ar</w>
9. 0</w>
oc t
tub ules</w>
plac ing</w>
peri odon
behavi ours</w>
Le w
sp ong
summar izes</w>
remark ably</w>
M CF</w>
Cor relation</w>
co il</w>
cou gh</w>
Th rom
AC h</w>
Contro lled</w>
Ar ter
phen y
exp iratory</w>
coun ting</w>
proced ural</w>
Pop ulation</w>
m ating</w>
li ved</w>
is lets</w>
lear ned</w>
thromb us</w>
V R</w>
co des</w>
nor mot
glyco proteins</w>
al located</w>
ep inephrine</w>
ICA M</w>
12 6</w>
n ar</w>
10 8</w>
immun ost
X enop
ther mod
ICA L</w>
Mei er</w>
oste oc
hy ste
S G</w>
hemisph ere</w>
lymph aden
S elec
oc occus</w>
illustr ated</w>
intr on</w>
e tine</w>
4 8
L R</w>
a way</w>
oc yst
li vers</w>
re pression</w>
c esarean</w>
car ni
c GMP</w>
asc ites</w>
G G</w>
it ating</w>
if t</w>
Saf ety</w>
N umer
agricul tural</w>
in ver
ro dent</w>
Ne ur
S s</w>
here in</w>
Cl ass</w>
in haled</w>
o venous</w>
Experim ents</w>
epsil on</w>
ax on</w>
w el
lac tation</w>
i tions</w>
coll aboration</w>
Lab oratory</w>
down regulation</w>
ed ull
sum mer</w>
predn isolone</w>
o der
degrad ed</w>
ol a</w>
rig id</w>
rest or
ar ate</w>
Mor tality</w>
sp orts</w>
Ze aland</w>
L DH</w>
natri uretic</w>
sp ond
Chil d</w>
the ories</w>
microsom es</w>
percep tual</w>
Ad olesc
de polarization</w>
Xenop us</w>
Sequ ence</w>
epti dase</w>
on ym
et ting</w>
mar ri
Pa ren
fif th</w>
cal modulin</w>
a stric</w>
Net work</w>
inter f
im ag
vir tually</w>
vol u
mix ing</w>
G ly</w>
initi ate</w>
B R</w>
ne y</w>
cal f</w>
bilir ubin</w>
W he
oler ance</w>
grad ing</w>
po real</w>
Col lege</w>
P MA</w>
str ies</w>
suffici ently</w>
indic ative</w>
f um
meaning ful</w>
sc ar</w>
N K
L ocal</w>
tub ulin</w>
pl ast</w>
catheter ization</w>
caud al</w>
nor mo
A den
Im plications</w>
diagnos ing</w>
meth otrexate</w>
Ex trac
0 5</w>
regul arly</w>
T V</w>
PF S</w>
in appropriate</w>
adolesc ence</w>
tub es</w>
extr ap
cortico sterone</w>
attit ude</w>
histi dine</w>
dil ated</w>
14 5</w>
polys accharide</w>
od al</w>
program med</w>
trans l</w>
emis sions</w>
Helic obacter</w>
9. 9</w>
ut ely</w>
fl ora</w>
agre ed</w>
neutr alizing</w>
fol ded</w>
sw ine</w>
ster ic</w>
al ters</w>
F as</w>
EM T</w>
ir rig
TH E</w>
fl aps</w>
adrenoc eptor</w>
he avi
cor pus</w>
SP R</w>
expendit ure</w>
sp ort</w>
o in</w>
L I</w>
oxif en</w>
mach in
depart ments</w>
my ocytes</w>
interf ere</w>
co oling</w>
O 3</w>
Ab out</w>
elic it</w>
pos ing</w>
I M</w>
hydro chloride</w>
re agents</w>
pac ema
pal mit
o is
M ont
Met a</w>
lipi demia</w>
A 3</w>
c ationic</w>
1 beta</w>
quic kly</w>
expon ential</w>
immunosup pression</w>
y rate</w>
deli ver</w>
Reg ar
As perg
opath ies</w>
strong est</w>
O M</w>
har m
anti sense</w>
yel low</w>
ot om
arachno id</w>
c ru
muscul oskeletal</w>
Electr on</w>
arachid onic</w>
fruc tose</w>
s un
198 6</w>
nem at
S em
r ational</w>
log ic</w>
coll ap
inten sities</w>
ati te</w>
Ma xim
o -</w>
PA F</w>
ven om</w>
ex ha
concer ned</w>
discrim inate</w>
possi bilities</w>
sp an</w>
exce eded</w>
l in</w>
cerebro vascular</w>
grad es</w>
dig estive</w>
3 A</w>
characteris ed</w>
dissem inated</w>
st ents</w>
1 b</w>
ing ual</w>
endoth elin</w>
wor m</w>
Y or
k il
un iform
s orption</w>
p all
dis plays</w>
PC A</w>
neo plasm</w>
scav eng
omegal ovirus</w>
strati fication</w>
expl oratory</w>
favour able</w>
Gl u</w>
il st</w>
access ory</w>
tr ain
Initi al</w>
ver ify</w>
decom pression</w>
sp ut
L ap
B el
sup presses</w>
CR F</w>
ophysi cal</w>
silic on</w>
aden ylate</w>
Cor onary</w>
summar ized</w>
impl ement</w>
ti ght</w>
insul in
cur v
applic ability</w>
Injur y</w>
Be fore</w>
IC C</w>
thym ic</w>
ren ew
accompl ished</w>
endometri osis</w>
CT L</w>
PF C</w>
alk yl
elim inate</w>
traff ic</w>
P t</w>
ta ste</w>
there after</w>
Mater nal</w>
bi ased</w>
dis location</w>
pres entations</w>
e k</w>
initi s</w>
duc tal</w>
is tics</w>
S ER
ac commod
w rist</w>
osens ory</w>
intra uterine</w>
propo fol</w>
- 7</w>
phenyl alanine</w>
allel ic</w>
one ur
Fr ance</w>
protec ts</w>
pat ency</w>
r ules</w>
NS AI
w ire</w>
ti a</w>
keratin ocytes</w>
break down</w>
comorb idity</w>
poly clonal</w>
1 15</w>
o tri
paren teral</w>
cyclo hex
Sur face</w>
K in
dri vers</w>
phant om</w>
ser ological</w>
di lu
en comp
con focal</w>
nan o</w>
P re</w>
thalam ic</w>
medic inal</w>
De termination</w>
electrophore tic</w>
co chemical</w>
hemat oma</w>
ail s</w>
luc iferase</w>
es thetic</w>
T em
neut rop
eri atric</w>
exer ted</w>
e au</w>
reconstruc ted</w>
hom ocy
sl udge</w>
unde restim
n esses</w>
perox is
resc ue</w>
AP C</w>
spec ified</w>
b ar</w>
rh in
D ys
radio active</w>
tel ephone</w>
ad d</w>
dro p
int ox
Addi tion</w>
de plo
neigh b
Elev en</w>
S BP</w>
1 R</w>
tr ip
gonad otropin</w>
immun omod
BM P</w>
partic ulate</w>
Reg istry</w>
grou ped</w>
ti d
cre ating</w>
F re
stre ptoc
loc omotor</w>
habit at</w>
I K
dis continuation</w>
Sim ult
amni otic</w>
sec tor</w>
id ol</w>
erythro po
brom ide</w>
micro glia</w>
ole ic</w>
B O
regurg itation</w>
O ut</w>
Pre gn
fabr ication</w>
pathophysi ological</w>
y ph
C he
L og
h ands</w>
anti serum</w>
ocardi al</w>
saf ely</w>
fore arm</w>
SU MM
D N</w>
Vit amin</w>
a ic</w>
transfer rin</w>
mon thly</w>
confir ming</w>
cro p</w>
nar row
neuro blastoma</w>
u als</w>
experi encing</w>
fung us</w>
p 21</w>
vulner ability</w>
O s
e able</w>
n if
percent ages</w>
oc clud
to sis</w>
sel enium</w>
Flu oresc
rest ore</w>
breast feeding</w>
cont empor
om avirus</w>
emb olic</w>
N AF
ge ographical</w>
alter ing</w>
abdom en</w>
ulcer ative</w>
sequel ae</w>
sph ing
Pre operative</w>
un ion</w>
R em
overex pressed</w>
ivac aine</w>
mil l</w>
psych osis</w>
leuk emic</w>
marg ins</w>
R V
or poreal</w>
di methyl</w>
Approxim ately</w>
in equ
as sumption</w>
char t</w>
di i</w>
sem en</w>
bund le</w>
prim er</w>
de formation</w>
i us</w>
E c
ic eptive</w>
Com put
ultras onic</w>
SUMM ARY</w>
tus sis</w>
stri king</w>
traff icking</w>
Rec ur
Ig G
pl ur
Nin ety</w>
piv otal</w>
Asperg illus</w>
granul ocyte</w>
p an</w>
inter ventional</w>
Youn g</w>
B SA</w>
L i</w>
transcrip tase</w>
G i
cl aims</w>
out breaks</w>
der line</w>
Al coh
L 2</w>
dis solved</w>
e rec
exec utive</w>
inf eren
Sub sequently</w>
O SA</w>
cortico steroid</w>
n avig
disrup ted</w>
Ne w
TE M</w>
hydrox yl</w>
exer ts</w>
sol e</w>
13 3</w>
flo or</w>
om ically</w>
matr ices</w>
bo y</w>
ur idine</w>
con sequently</w>
confir ms</w>
F requ
fac ulty</w>
PD GF</w>
v is</w>
s agittal</w>
as ci
differenti ating</w>
lu oro
gran ular</w>
aqu atic</w>
E V</w>
id y</w>
post synaptic</w>
Un like</w>
hierarch ical</w>
ie tin</w>
inter cellular</w>
methyl ated</w>
differen tly</w>
10 7</w>
odi um</w>
l ide</w>
n ude</w>
isch aemic</w>
gu anine</w>
weak ly</w>
vit re
suppl ement</w>
Emer gency</w>
neuro psychological</w>
pri ority</w>
mus carinic</w>
inv ari
chim eric</w>
scinti graphy</w>
PM N</w>
cytos keleton</w>
suff er</w>
osi des</w>
R ob
hom es</w>
Bay esian</w>
S pain</w>
she et</w>
Con centr
R C</w>
gener a</w>
Mut ations</w>
throm ycin</w>
Ital ian</w>
transp os
ox one</w>
special ist</w>
apoli poprotein</w>
D P
th ening</w>
arsen ic</w>
is s
sens or
ai ve</w>
ai ting</w>
s ely</w>
salv age</w>
co bal
ran ts</w>
ac cordance</w>
gen ous</w>
c ylin
am ate</w>
tr if
f er</w>
dec arbox
alcoh ol
S L</w>
AP P</w>
ED TA</w>
in sensitive</w>
Sp anish</w>
o dic
ge ometric</w>
bo ard</w>
T O
is s</w>
15 7</w>
re arrangement</w>
hygi ene</w>
th ous
om o
sw im
br oncho
emphasi ze</w>
At l
mor ning</w>
PA I</w>
i v</w>
oth or
arrhyth mia</w>
te ar</w>
ocor tical</w>
w an
t rou
us sion</w>
ex tending</w>
noc tur
Vir us</w>
investig ators</w>
we aning</w>
i NOS</w>
B NP</w>
du plication</w>
suic idal</w>
obarb ital</w>
b up
aff in</w>
acr ylate</w>
dri ed</w>
CR T</w>
ch ance</w>
the red</w>
Chem ical</w>
protein uria</w>
fraction ated</w>
W ater</w>
nit ros
sal ts</w>
S elective</w>
P relim
Ph e</w>
aberr ations</w>
F low</w>
M F</w>
appen dic
contr ary</w>
chemo kine</w>
ro dents</w>
Maj or</w>
reli ably</w>
O V
N D
lap se</w>
amino transferase</w>
Ac id</w>
Di etary</w>
sc aling</w>
ro utes</w>
ser otype</w>
tra di
conjunc tiv
fibr ils</w>
heter ozyg
fing er
cop ic</w>
recur rences</w>
inten tion</w>
Analy ses</w>
ip ot
cum in</w>
judg ed</w>
NA c</w>
fluoresc ein</w>
hydro gel</w>
it oring</w>
cer ti
iz ational</w>
at ax
satis fied</w>
poly ethylene</w>
initi ating</w>
Al a</w>
hepat ocyte</w>
qu ine</w>
cap abilities</w>
Inter net</w>
hydr o</w>
Prelim inary</w>
adhe rent</w>
st op</w>
Intr av
Fif teen</w>
avoid ed</w>
energ ies</w>
attrib utes</w>
cu ff</w>
infu sions</w>
in directly</w>
col lege</w>
lamin a</w>
Tr yp
dis abilities</w>
opin ion</w>
creatin e</w>
ker atin</w>
prin ted</w>
cop olym
V ascular</w>
confoun ding</w>
plo idy</w>
sti ll
ap on
C arcin
asc ending</w>
hapl otype</w>
dis solution</w>
end oc
H B</w>
Relationsh ip</w>
be ads</w>
medic ines</w>
A ca
oligonucle otide</w>
D esc
inter rup
some what</w>
re di
accep tor</w>
ap atite</w>
qu en
encapsul ated</w>
substitu tions</w>
as k</w>
Measure ment</w>
denti n</w>
m e</w>
facilit ating</w>
phag ia</w>
NAF LD</w>
concep tual</w>
carb oxy
Enh anced</w>
medull ary</w>
SM C</w>
nanop article</w>
phosphatidyl inositol</w>
ap amil</w>
L T
neur ones</w>
Str ateg
ap o</w>
H sp
4 4
hydro philic</w>
Met abolic</w>
b ub
R as</w>
enlarg ement</w>
in o</w>
RN A
Measure ments</w>
ter at
hyste rectomy</w>
oxid es</w>
an es</w>
P ap
sym metric</w>
jec t</w>
thi ol</w>
w elling</w>
il ing</w>
expec t
tax a</w>
chemo therapeutic</w>
os um</w>
mes h</w>
laparo tomy</w>
orig ins</w>
anth rac
i ana</w>
on ical</w>
Nor mal</w>
L D
as i</w>
air ways</w>
Ano ther</w>
oneph ritis</w>
det achment</w>
carb ons</w>
HB s
os elective</w>
te a</w>
br ids</w>
Ob serv
deb ate</w>
mt DNA</w>
A β</w>
MT X</w>
fraction ation</w>
morph ologic</w>
echocardi ographic</w>
T i</w>
dissem ination</w>
contrac eptive</w>
idi d
ster ol</w>
AK T</w>
con sol
TL V</w>
2 B</w>
fl at</w>
Pro f
as par
clea ved</w>
confir mation</w>
out flow</w>
strom a</w>
ep tors</w>
curricul um</w>
in consistent</w>
mom ent</w>
Cardi ovascular</w>
c us</w>
en ol
res ec
13 1</w>
go v</w>
cri sis</w>
de trim
AN CE</w>
Dec re
X 2</w>
radi olab
pul p</w>
lat tice</w>
art an</w>
spre ading</w>
Sensi tivity</w>
wo od</w>
9 ,
ad ducts</w>
harve sted</w>
G B</w>
u ve
G ly
st ressed</w>
in us</w>
exc ited</w>
visu alized</w>
orig inating</w>
Consi dering</w>
function ality</w>
h ind
pre p
diver gence</w>
acceler ation</w>
di ameters</w>
S mo
MD R</w>
oph ore</w>
Up on</w>
10 9</w>
radio immunoassay</w>
biom echanical</w>
Col lec
Gl c
yn aptic</w>
SU B
hypertroph ic</w>
ch aper
cou ples</w>
ophyl line</w>
on itr
tim ely</w>
at tend
domin ated</w>
com promised</w>
ser ving</w>
y ran
Lit tle</w>
Com po
enco de</w>
V O
assist ance</w>
ex ons</w>
tail ored</w>
Ac cur
odend ro
Sle ep</w>
periodon titis</w>
normot ensive</w>
B F</w>
f 2</w>
pharmac ologic</w>
den er
b it
tis h</w>
r id
trunc ated</w>
it ors</w>
pos tin
c all</w>
C ri
U N
M SC</w>
D ist
Or th
re agent</w>
id ectomy</w>
ene di
vi x</w>
grad ual</w>
CH O</w>
w est</w>
decom position</w>
ib ution</w>
am en</w>
1 12</w>
ac tually</w>
re act</w>
gir l</w>
ster oidal</w>
immobil ization</w>
ta m</w>
D ou
tot ally</w>
F ail
1, 4</w>
mal formation</w>
my ri
har m</w>
circu its</w>
Stro ke</w>
in ing</w>
occip ital</w>
Lap aro
vi ri
di hydroxy
os per
ti tle</w>
sol vents</w>
wat ers</w>
D ig
um ination</w>
polyp s</w>
refl ection</w>
d rought</w>
hyper glycemia</w>
potenti ation</w>
phag ocytosis</w>
ir regular</w>
r on
up date</w>
orig inally</w>
trajec tories</w>
distric t</w>
sal ic
el eg
L N</w>
AC L</w>
addic tion</w>
anti oxidants</w>
ME NTS</w>
n aive</w>
pros theses</w>
transpl ants</w>
osi tis</w>
fel t</w>
cr im
met formin</w>
v ocal</w>
ak es</w>
am il
b rought</w>
us sian</w>
end points</w>
N r
man n</w>
tod ay</w>
otyp ed</w>
fit ted</w>
Braz ilian</w>
H om
System ic</w>
A min
accum ulate</w>
ot emporal</w>
CA P</w>
B CG</w>
teri ous</w>
at rop
promp t</w>
homogene ity</w>
- 10</w>
Re sistance</w>
X A</w>
ren sic</w>
mon omer</w>
En gland</w>
sig ma</w>
hedr al</w>
oin t</w>
0 3</w>
di lation</w>
sign ature</w>
AT 1</w>
pa id</w>
succ essive</w>
ber g</w>
pur su
deri ve</w>
sched uled</w>
VI P</w>
L ys</w>
retin oic</w>
SIG N
F L</w>
spac es</w>
cholecyst ectomy</w>
inst ances</w>
ac tors</w>
an te
anticoagul ant</w>
contrib ut
AV P</w>
Ac cordingly</w>
bil ayer</w>
onc ogenic</w>
U s</w>
cut off</w>
an ia</w>
og raph</w>
S n
0.9 9</w>
manifest ed</w>
ur able</w>
M CP</w>
agglutin ation</w>
W a
al s.
ger m
oxyt ocin</w>
ch a
conven ient</w>
go es</w>
W I</w>
interfer ing</w>
im mer
z ine</w>
x y</w>
l ex
is ely</w>
J NK</w>
az one</w>
On c
men is
post ulated</w>
12 8</w>
enti rely</w>
impl ementing</w>
C ys</w>
neuro protective</w>
STAT 3</w>
d ural</w>
anti coagulation</w>
Taiw an</w>
in version</w>
predic table</w>
syn thesize</w>
ation wide</w>
omat osis</w>
IV F</w>
atr y</w>
2 40</w>
fail ures</w>
vol ution</w>
transcrip tome</w>
H N
sol ely</w>
scenari o</w>
Pos sible</w>
landscap e</w>
Whe ther</w>
exc ised</w>
epider mis</w>
or in</w>
ing redi
ogen y</w>
rec ycl
lab elling</w>
Pro c
o esophageal</w>
perc enti
SUB JEC
at tended</w>
insec tic
reve aling</w>
off ic
13 5</w>
L oss</w>
del ays</w>
Y et</w>
suppl ements</w>
HBs Ag</w>
ly so
harm ful</w>
1 70</w>
pyr amidal</w>
M K</w>
1 16</w>
tetrac ycline</w>
buil d</w>
lact am
len ses</w>
bor derline</w>
ur a</w>
for tun
fit ting</w>
no v</w>
oph er
br ile</w>
prof en</w>
rel ig
bi o</w>
bas ement</w>
ill a</w>
resi li
st aphyloc
agg ed</w>
le b
in tran
dis ordered</w>
ap art</w>
idid ym
c .</w>
so on</w>
angi ographic</w>
ing e</w>
compens ation</w>
posi tional</w>
GR P</w>
ration ale</w>
el bow</w>
Le ft</w>
tab lets</w>
phosphatidyl choline</w>
0.0 9</w>
lin ear
N AC</w>
sulph ate</w>
van comycin</w>
un like</w>
p i</w>
acet ylation</w>
efficac ious</w>
hel ps</w>
mol ars</w>
contex ts</w>
sol itary</w>
cor on
streng ths</w>
RE GIST
Peri ph
Cl 2</w>
rough ly</w>
eradic ation</w>
T P
dele terious</w>
cl ients</w>
Th 1</w>
c m2</w>
extrem ities</w>
in ability</w>
v or
W S</w>
medull a</w>
tinc tion</w>
t et
i ence</w>
I .</w>
cre ation</w>
micro RNA</w>
g et</w>
al location</w>
suspici on</w>
H TLV</w>
C re
re generative</w>
PA GE</w>
micro mol</w>
F M</w>
produc tive</w>
design ing</w>
ecosy stem</w>
ha m</w>
T K
off ice</w>
ov ine</w>
scop ically</w>
depos ited</w>
ec tual</w>
g ast
distinc tive</w>
tetr am
S N</w>
asth matic</w>
C am
per tussis</w>
e ste
p ocket</w>
RE M</w>
lear n</w>
subtil is</w>
de ad</w>
Bas eline</w>
O per
An g</w>
dop ed</w>
Me di
Suc cess
metr ics</w>
virul ent</w>
t s
d engue</w>
al ive</w>
lid ocaine</w>
contempor ary</w>
nitr ite</w>
me aning</w>
An xi
pan demic</w>
am ong
stret ch</w>
par affin</w>
er ation</w>
ven a</w>
18 7</w>
os yl</w>
A SA</w>
pollut ants</w>
reser ve</w>
inter active</w>
physi cochemical</w>
negl igible</w>
B l
post ural</w>
ultr a</w>
H o
val ves</w>
my c</w>
I U
IC P</w>
spi ro
IC s</w>
batter y</w>
electro static</w>
B lack</w>
4 6
edull ary</w>
20 1</w>
F er
E T
man d
roph yl
vari ates</w>
E ch
R ab
Yor k</w>
y rene</w>
RA TION</w>
Clo str
pos itron</w>
mis sed</w>
ov ulation</w>
cad aver
min d</w>
acc ident</w>
Ur inary</w>
it ch</w>
ab is</w>
mal nutrition</w>
q PCR</w>
N utri
function alized</w>
bi phasic</w>
F EV
N eu
Func tion</w>
Pol ym
defici encies</w>
atmosph eric</w>
1 22</w>
rac ial</w>
hy brids</w>
D own</w>
sump tions</w>
develop s</w>
warf arin</w>
proxim ity</w>
among st</w>
heter ologous</w>
S ES</w>
wid er</w>
i odi
proteas ome</w>
stre pto
sub populations</w>
bl ings</w>
oste otomy</w>
escap e</w>
gener ic</w>
MT T</w>
adv ice</w>
supernat ant</w>
2 R</w>
alb umin
L ight</w>
B C
des ensi
h app
tit ude</w>
pal ate</w>
hypo thermia</w>
sep tum</w>
inf requ
sem antic</w>
M r</w>
diagnos tics</w>
par all
w ri
SUBJEC TS</w>
immunoprecip itation</w>
V P</w>
15 5</w>
L ear
hem odynamics</w>
Tri als</w>
ot ed</w>
dend r
la g</w>
fru its</w>
organ izational</w>
dis abl
dis comfort</w>
IC A</w>
Rel ated</w>
leuk aemia</w>
benz o</w>
nic kel</w>
G BM</w>
us tion</w>
pat ches</w>
es in</w>
opath ologic</w>
prolifer ating</w>
log y</w>
an z
can onical</w>
ul ins</w>
atin ib</w>
r if
lin early</w>
NCT 0
r yst
Isol ation</w>
0. 10</w>
mil itary</w>
arg ue</w>
ic us</w>
ater ally</w>
but yrate</w>
Th 2</w>
sphinc ter</w>
2 b</w>
cu red</w>
po res</w>
g ating</w>
Ch lamy
trigg ers</w>
endocardi tis</w>
en oic</w>
gen tam
ill nesses</w>
qu estion
im urium</w>
possess es</w>
cap ill
sta ke
Rep e
g em
intrav ascular</w>
gam ma
ph i</w>
itud es</w>
necess arily</w>
ic os
N B</w>
cer vix</w>
no tion</w>
util ize</w>
ar ranged</w>
thick ening</w>
microtub ules</w>
F ree</w>
check point</w>
aggreg ate</w>
C as
hydrol ase</w>
special ty</w>
M K
CL IN
pol arity</w>
az ide</w>
p uncture</w>
V III</w>
T op
prec ed
micr ons</w>
In duction</w>
detrim ental</w>
galac to
surg eries</w>
carbox yl</w>
adop tion</w>
ep ididym
MEASURE MENTS</w>
over load</w>
Gl yc
olig odendro
Periph eral</w>
parasi tic</w>
appropri ately</w>
metr ical</w>
yr ic</w>
vi ro
polymer ic</w>
Ar g
fav or</w>
Sam ples</w>
val ently</w>
acces sibility</w>
por ph
0 4</w>
perm its</w>
ec e</w>
A v
correspon ded</w>
onucle ase</w>
syn thesi
ati vity</w>
Caucasi an</w>
trac k</w>
expl oring</w>
st yle</w>
an di
- 8</w>
ene m</w>
e igh
tun nel</w>
sp o
free zing</w>
hyper cholesterol
agg ression</w>
On t
free ze</w>
onitr ile</w>
an tin
AC C</w>
disp arities</w>
Co V</w>
chondro cytes</w>
Bacter ial</w>
Ex pl
ren ol</w>
Im pl
arteri ovenous</w>
lute al</w>
D T</w>
H ar
hypo thyroidism</w>
mening i
sup ra
AN P</w>
gr ass</w>
REGIST RATION</w>
tain ment</w>
is sion</w>
devi ations</w>
flu idic</w>
segreg ation</w>
b atch</w>
progenit ors</w>
vi sions</w>
n ich
k cal</w>
ish able</w>
sed entary</w>
mod ule</w>
0.00 6</w>
L ower</w>
medias tinal</w>
tetra hydro
L L</w>
P ear
M en
hor n</w>
famil iar</w>
com posites</w>
ra is
bab ies</w>
C EN
contracti lity</w>
als. gov</w>
tr ib
k o
T T
altern atives</w>
incre mental</w>
her bal</w>
C ys
epidemi ologic</w>
an il
mes oth
ati zation</w>
oste osarcoma</w>
1 14</w>
de duced</w>
sup pressing</w>
dis appearance</w>
gu n</w>
P s
MD D</w>
gli oblastoma</w>
exist ed</w>
reservo ir</w>
re arrangements</w>
ran ean</w>
paren chym
Del ta
docum entation</w>
cyt omegalovirus</w>
innerv ation</w>
pati al</w>
perm it</w>
O H
noctur nal</w>
pran dial</w>
met allic</w>
Ne ther
neuro transmitter</w>
osse ous</w>
lit er</w>
re ad</w>
eri an</w>
analy tic</w>
In deed</w>
met a
Ex erc
bl ast</w>
S ARS</w>
fil ters</w>
I P
diab etics</w>
Com mit
Clin ic
cigaret tes</w>
ris ing</w>
W M</w>
fu el</w>
carb onyl</w>
out patients</w>
m y</w>
ut ch</w>
As p</w>
hyper activity</w>
p y</w>
im balance</w>
ca emia</w>
mon ophosphate</w>
I sl
or n
expan ding</w>
hypoglyc emia</w>
lo ops</w>
I X</w>
ul ae</w>
T yr</w>
mod eled</w>
yiel ding</w>
dodec yl</w>
sput um</w>
8 ,
l umin
on ium</w>
Gu id
sub clinical</w>
di aly
v oc
step wise</w>
ep sin</w>
rel in</w>
nal oxone</w>
Swe den</w>
em inal</w>
sp aring</w>
galact ose</w>
g ains</w>
employ ees</w>
cat alysis</w>
rheum atic</w>
Tran spl
1 24</w>
Grou ps</w>
toler ability</w>
E g
spectro phot
refr active</w>
surviv ing</w>
spati ally</w>
special ists</w>
ampl itudes</w>
vo ice</w>
du plex</w>
F il
pro of</w>
T OF</w>
3 a</w>
FI SH</w>
Hist ological</w>
1 alpha</w>
Di str
amput ation</w>
err y</w>
enti ties</w>
tigh tly</w>
bi osynthetic</w>
A H</w>
N ic
ly tic</w>
L Y
is op
es us</w>
presum ed</w>
h r
pro pri
Classi fication</w>
PC a</w>
si mp
os mol
tam oxifen</w>
gener ates</w>
gra vity</w>
oper oxidase</w>
avoid ing</w>
arb onate</w>
imp ly</w>
amin op
prep are</w>
te ams</w>
plur ipot
toler ant</w>
Sp ont
di genous</w>
catech ol
ro ad</w>
3 T3</w>
O ve
es cal
en ters</w>
as sumptions</w>
chol angi
N ot</w>
A ver
physic ally</w>
M u
lim us</w>
Immuno histochemical</w>
mo ve</w>
s and
defin itions</w>
Mit ochond
Rep or
CX CR
ang e</w>
3 9
M L</w>
Nether lands</w>
Four teen</w>
ath eter</w>
end er</w>
Mex ico</w>
Ul tra
NAD H</w>
0 6</w>
refl ex
Inc idence</w>
h an
acet ab
si blings</w>
Pan cre
L iter
radi ography</w>
Plat el
0. 12</w>
age ing</w>
Pre viously</w>
hy pe
estro gens</w>
con stitutes</w>
Success ful</w>
ul um</w>
inv asi
Anxi ety</w>
Fem ale</w>
P arti
M AL
or um</w>
ad ox
mot oneur
distingu ishable</w>
ile um</w>
do si
ol og</w>
som nia</w>
puber tal</w>
tri phosphate</w>
ingu inal</w>
Long itudinal</w>
M G
Rev er
exp and</w>
198 4</w>
T or
phot osynthetic</w>
T el
micro spheres</w>
insec ts</w>
al ge
el lo
cho ices</w>
Stand ard</w>
inc i
plo ts</w>
enlarg ed</w>
thal ass
cry op
de al</w>
Serv ice</w>
broad er</w>
atin s</w>
ar ized</w>
lac ks</w>
cong ru
vesi cular</w>
Wh ole</w>
selec tin</w>
pestic ides</w>
µ g</w>
on uc
simp ly</w>
ro bu
robo tic</w>
Gr ade</w>
6 7
F F</w>
un necessary</w>
CLIN ICAL</w>
ac ro
isch aemia</w>
nucle oside</w>
edi pine</w>
PC OS</w>
inter play</w>
tu re
M CI</w>
ex tinction</w>
condi tional</w>
compet ent</w>
si d</w>
Com plex</w>
tw ins</w>
necess ity</w>
anti sera</w>
ph o
n itro</w>
S chool</w>
real istic</w>
Cp G</w>
ri t</w>
dextr an</w>
T GF
GV HD</w>
evol ving</w>
H yp
depend ency</w>
reg ime</w>
R PE</w>
hemat ological</w>
-- a</w>
accid ents</w>
G ST</w>
par alysis</w>
emul sion</w>
prec isely</w>
eosinoph ils</w>
ther mic</w>
emphasi zed</w>
G astro
plat eau</w>
fin ement</w>
ent rop
machin ery</w>
thir ty</w>
ver apamil</w>
alga e</w>
Stim ulation</w>
co variates</w>
clinic opathological</w>
Isol ated</w>
obacter ium</w>
im idine</w>
rel ies</w>
f a</w>
Ox y
1. 25</w>
Ol der</w>
tid al</w>
w ater
Cs A</w>
Cor rec
orth op
co ded</w>
v ular</w>
col our</w>
prin t</w>
plac es</w>
0.9 8</w>
D oes</w>
top ics</w>
d s
meth oxy
Compu ted</w>
it or</w>
ac idi
wa ist</w>
1. 00</w>
P i</w>
4 7
R ou
i tin
icon duc
Ultras ound</w>
phosph odi
cap tured</w>
am ol</w>
C ity</w>
dis k</w>
Ove rex
y e</w>
Fe w</w>
histopath ology</w>
integr ating</w>
aller gens</w>
P i
u sions</w>
0 9</w>
il ty</w>
in takes</w>
e i</w>
reser ved</w>
immun ologic</w>
5 49</w>
sy ring
Educ ation</w>
victim s</w>
mir ro
silic one</w>
cataly sts</w>
coll ateral</w>
impl ies</w>
potenti ated</w>
requ is
normal ization</w>
ket amine</w>
electro my
miner alization</w>
pro pos
NP Y</w>
mechan ics</w>
orth odontic</w>
comorb id</w>
sto ol</w>
microbi ome</w>
CH F</w>
eng aged</w>
Le ishman
intell ectual</w>
ost er</w>
Mo der
selec ting</w>
Con sistent</w>
integr ate</w>
b im
obste tric</w>
per iton
Zn O</w>
cardiomy ocytes</w>
s mar
pat ent</w>
le i
Fail ure</w>
S kin</w>
ific ations</w>
gentam icin</w>
bec tomy</w>
hem angi
cas ein</w>
pacema ker</w>
rot ational</w>
inc is
hem olytic</w>
toc opher
gener ations</w>
1 17</w>
exerc ises</w>
anticip ated</w>
Com plications</w>
doc king</w>
Ac et
nec rotic</w>
projec ts</w>
cong estive</w>
sustain able</w>
Dis e
ch ip</w>
v ast</w>
13 2</w>
adsorb ed</w>
As s
flow s</w>
HC l</w>
Mus cle</w>
til es</w>
determin es</w>
represent ations</w>
ev ery
eleg ans</w>
prec eded</w>
neph rectomy</w>
Hepati tis</w>
In c</w>
FEV 1</w>
sedi ments</w>
F DA</w>
anomal y</w>
con cordance</w>
ac in
vul g
prote renol</w>
depend ed</w>
inform atics</w>
compens atory</w>
occa sionally</w>
flan king</w>
ter ic</w>
N ec
radi ologic</w>
st ores</w>
per i</w>
prof loxacin</w>
toxic ities</w>
parenchym a</w>
Nat ural</w>
E 3</w>
o edema</w>
ogly co
Nur sing</w>
Inter action</w>
config ur
ocyst s</w>
fac ing</w>
aud i</w>
Individ ual</w>
she ath</w>
Pre treatment</w>
ke eping</w>
b and
tho rough</w>
pres ynaptic</w>
ma kers</w>
carni tine</w>
exclud ing</w>
Coh ort</w>
otrop y</w>
R b</w>
fortun ately</w>
rup tured</w>
Individ uals</w>
doc tor</w>
s ac</w>
M N</w>
7 00</w>
CR I
penetr ating</w>
Clostr idium</w>
12 9</w>
F E</w>
CA BG</w>
opi oids</w>
hemat ologic</w>
E SR
inf ancy</w>
end urance</w>
0. 95</w>
bon y</w>
Pri or</w>
K D</w>
haem oglobin</w>
disper sed</w>
immunost aining</w>
U p</w>
micro wave</w>
d ol
de tox
B V</w>
cyt ogenetic</w>
pro ton
monol ayers</w>
D im
brach ial</w>
mis match</w>
lamin in</w>
Exerc ise</w>
rh initis</w>
di mers</w>
compe ting</w>
neo adjuvant</w>
k a</w>
resid ence</w>
Met ast
rec tum</w>
Collec tively</w>
An d</w>
Ch ol
AB C</w>
AE s</w>
IGF BP</w>
Rec eptor</w>
os clerosis</w>
survi ve</w>
transi t</w>
oper ate</w>
anaes the
G Ps</w>
tr on</w>
o con
Endos copic</w>
w it
el ia</w>
ox ane</w>
Cr yst
lo oked</w>
A Z
Sym ptom
appro val</w>
N PC</w>
Q T</w>
hapl otypes</w>
Desc rip
up dated</w>
diarr ho
am ides</w>
lymph oblastic</w>
i osis</w>
oci ties</w>
ir r
0.8 5</w>
bronch i
v ar</w>
1 13</w>
Ab str
Elev ated</w>
Resp iratory</w>
ish er</w>
anc ing</w>
pelv is</w>
anten atal</w>
nod ule</w>
Th yro
c ue</w>
gen otyping</w>
re vised</w>
correspon d</w>
worsen ing</w>
n d</w>
x ine</w>
Ad ults</w>
.00 01</w>
aeros ol</w>
L ang
prost atectomy</w>
consci ousness</w>
centrifug ation</w>
under lie</w>
secre ting</w>
R AN
trajec tory</w>
f lies</w>
ed om</w>
R ed</w>
son ography</w>
fluoro uracil</w>
reciproc al</w>
For mul
Mont e</w>
bran ched</w>
AL Y
oper ator</w>
excit ability</w>
X T</w>
aut oradi
Character istics</w>
st och
iter ranean</w>
constitu tively</w>
cul tivation</w>
p unc
en ke
view ing</w>
bic arbonate</w>
4 50
Cl -</w>
3 50</w>
U T</w>
k m</w>
intram uscular</w>
V alu
incorpor ate</w>
sk ill</w>
Six teen</w>
teach ers</w>
TRI AL</w>
M H</w>
vascul itis</w>
S MA</w>
import antly</w>
Ar e</w>
Ob esity</w>
sec urity</w>
le af
thre onine</w>
pre eclampsia</w>
electro encephal
L R
W F</w>
ch er</w>
bl es</w>
pl asts</w>
ju ice</w>
vibr ation</w>
vel ocities</w>
A O
g .
bound aries</w>
Ad ju
sh i
ri m</w>
hep ar
tre ad
metallo proteinase</w>
L VE
de myel
alumin um</w>
M ass</w>
Pu blic</w>
histopath ologic</w>
opa edic</w>
it ate</w>
rhe a</w>
Rel ative</w>
fri end
tub ule</w>
stress ors</w>
stabil izing</w>
not ably</w>
Car lo</w>
ent ous</w>
ill i</w>
per ic
protein ases</w>
conf er</w>
u z
as tig
TR H</w>
PL ICA
Dise ases</w>
thalam us</w>
ing er</w>
sc ann
C erebral</w>
consum ers</w>
compr ises</w>
ing dom</w>
shar p</w>
oc ks</w>
prog ressed</w>
D ynamic</w>
0 7</w>
Spont aneous</w>
n als</w>
ipp ed</w>
proper ly</w>
ec to
CM L</w>
uber cul
I O
B r</w>
ti d</w>
om ere</w>
t ying</w>
12 7</w>
ster ile</w>
- 2
Min im
Cr yp
ag en
age -</w>
collabor ative</w>
eth ics</w>
hyp og
ocy st</w>
ac tu
fro g</w>
remo ving</w>
1 21</w>
ex ud
fe brile</w>
oc ele</w>
chol est
colum ns</w>
n ic</w>
quad r
d ay
P AC
7 5
0.9 6</w>
cam era</w>
an ions</w>
B loc
ere bro
Alcoh ol</w>
cyclo oxygenase</w>
wh ilst</w>
phosph at
resul tant</w>
psych ometric</w>
1 18</w>
X 1</w>
V max</w>
der al</w>
oglyc ans</w>
v on</w>
ur onic</w>
sup pressive</w>
sarco idosis</w>
ari an</w>
sme ar</w>
P t
where by</w>
pon ectin</w>
is omers</w>
0.00 7</w>
highligh ting</w>
simul ate</w>
por tions</w>
ob stac
N uclear</w>
graph ic</w>
S o</w>
intr ad
ham sters</w>
S ex</w>
oc rit</w>
f are</w>
Thir teen</w>
Calc ium</w>
coun ter</w>
Ad he
CA R</w>
ï ve</w>
sem inal</w>
micro satellite</w>
prote olysis</w>
fentan yl</w>
preferen tial</w>
- 1.
usp id</w>
A Q
nan ow
Dis orders</w>
Med iterranean</w>
tun ing</w>
co operation</w>
test es</w>
read mission</w>
M F
a res</w>
papill omavirus</w>
n ame</w>
id el
Re duction</w>
i ate</w>
0.9 7</w>
R eal</w>
arch a
V D</w>
mag n
disturb ed</w>
om ide</w>
sup ine</w>
eng age</w>
po ols</w>
shap es</w>
ecosy stems</w>
fo rensic</w>
a ult</w>
accep tability</w>
- di
t acti
Radi ation</w>
t 1</w>
all op
l aryng
tread mill</w>
ca va</w>
ent um</w>
re per
carb am
Me an
transi ently</w>
Qu al
electr on
enro ll
index es</w>
E d
ac utely</w>
ec ta
os ed</w>
ind ole</w>
omorph ic</w>
aff in
transpor ted</w>
quad ru
il eal</w>
back bone</w>
hyper thermia</w>
multic entr
sub arachnoid</w>
Medic aid</w>
simpl ified</w>
cam pa
AM E</w>
ro ta
B BB</w>
Dis order</w>
Mon itoring</w>
Hep at
hol ders</w>
consi st</w>
co w</w>
B E</w>
scar ce</w>
achiev ement</w>
ox etine</w>
0 8</w>
phen ols</w>
e z
Log istic</w>
deter gent</w>
ynam ics</w>
ana emia</w>
Commit tee</w>
B ax</w>
pre y</w>
P rom
N V</w>
A ch
T MS</w>
Overex pression</w>
is ometric</w>
quanti tation</w>
Ri ver</w>
um e</w>
di e</w>
form at</w>
V acc
Pear son</w>
re place</w>
pyr ro
aro usal</w>
Hep G2</w>
continu ity</w>
neuro pathic</w>
Gl ut
Eff ici
pleg ia</w>
bel ong</w>
L ys
stop ped</w>
coll ecting</w>
dys regulation</w>
Re duc
d yl</w>
t ar
pur ity</w>
infiltr ating</w>
Lac tob
laparo scopy</w>
4 9
TI R</w>
Ep stein</w>
N ext</w>
G LP</w>
paren chymal</w>
sol ving</w>
rhyth ms</w>
b us
coll ect</w>
inher itance</w>
bacteri oph
C RE
el le</w>
hist ocompatibility</w>
corne a</w>
Symptom s</w>
Objec tives</w>
mig rants</w>
meas les</w>
t ag
bl ed</w>
colon oscopy</w>
er ated</w>
z ot
Ac tive</w>
mim icking</w>
2 10</w>
Swe dish</w>
V TE</w>
co res</w>
sub tle</w>
gre w</w>
ti vities</w>
correspon ds</w>
M em
morph ologically</w>
th an
Clin ic</w>
ti se</w>
si veness</w>
neutrop enia</w>
M e</w>
Bar r</w>
b aro
trig eminal</w>
CL L</w>
HR H</w>
mod ules</w>
P y
thir ds</w>
cl ock</w>
gastro enter
G W
organ elles</w>
lyso zyme</w>
b umin</w>
mandi ble</w>
Lew is</w>
gli omas</w>
b er</w>
trabec ular</w>
periton itis</w>
0.00 8</w>
haemorrh age</w>
cap sular</w>
ent h</w>
surro gate</w>
htt p</w>
198 2</w>
ti tr
ol ate</w>
s ulation</w>
opo iesis</w>
neuro imaging</w>
Aver age</w>
Environ mental</w>
atrop ine</w>
co valently</w>
co operative</w>
explic it</w>
ar a</w>
socio demographic</w>
E P
ster il
pa rox
w aiting</w>
accompan ying</w>
work place</w>
ophil us</w>
co at</w>
MM A</w>
ascor bic</w>
anti psychotic</w>
form alin</w>
E E</w>
Respon ses</w>
ub ic</w>
ati s</w>
Ar ti
perform ances</w>
fil es</w>
C lu
overex pressing</w>
cyclospor ine</w>
bi osens
mand atory</w>
choro idal</w>
endometr ium</w>
r d</w>
G D
clu stered</w>
Bri tish</w>
AB A</w>
scal p</w>
Pe ople</w>
gro unds</w>
ubiquit ous</w>
prote omic</w>
RN ase</w>
imid azole</w>
intox ication</w>
Ne on
lab our</w>
Lear ning</w>
0 s</w>
resec table</w>
bac te
ocyt oma</w>
in ve
og aster</w>
prim ed</w>
C x
estr us</w>
is tically</w>
C aro
bot tom</w>
Immun e</w>
a etiology</w>
hyd rates</w>
chec k</w>
diver gent</w>
en osis</w>
g eriatric</w>
curv ature</w>
FO X
abs orp
A ST</w>
reper to
Simult aneous</w>
relap sed</w>
homocy steine</w>
erythro id</w>
Regi onal</w>
muc us</w>
physi ologically</w>
oligonucle otides</w>
pseud o</w>
obl otting</w>
fol i
Impro vement</w>
C ellular</w>
Rec or
h at
ati d</w>
plac ements</w>
it atively</w>
ure teral</w>
tom ato</w>
form ulated</w>
inter faces</w>
discrep ancy</w>
X R</w>
mo ist
O s</w>
b ending</w>
cann abin
P HA</w>
o plas
stig ma</w>
ex tern
arrhyth mic</w>
catech olamine</w>
14 4</w>
libr aries</w>
prot otype</w>
PD T</w>
pre vent
glycos ylated</w>
ca ver
b ing</w>
h id
A c</w>
99 mT
pon in</w>
therap ists</w>
ro limus</w>
D H
13 C</w>
0.9 4</w>
manufac turing</w>
k ling</w>
resol ve</w>
AF P</w>
ultr af
W s</w>
capill aries</w>
ipp ing</w>
sph ere</w>
mosquit o</w>
br ush</w>
D HA</w>
y sis</w>
s av
y mo
atax ia</w>
de oxy</w>
198 3</w>
veget ables</w>
ich i
splic e</w>
2 20</w>
sem in
D utch</w>
cos metic</w>
sem iconduc
ri o</w>
ic ol</w>
hist ories</w>
neuro trophic</w>
A OR</w>
f uc
st enting</w>
oc o
gri p</w>
tom ographic</w>
dise ased</w>
Liter ature</w>
calc itonin</w>
Contin uous</w>
meas urable</w>
qu asi</w>
1 p</w>
cal ls</w>
align ed</w>
Laparo scopic</w>
investig ates</w>
onym ous</w>
pa re
F O</w>
Phy l
coord inate</w>
Nig eria</w>
histo chemistry</w>
te ars</w>
Recom bin
Ad verse</w>
po t</w>
en teen</w>
fibro tic</w>
radi onuc
op ac
min i</w>
bon ded</w>
e e</w>
illustr ates</w>
sedi mentation</w>
rophyl l</w>
T radi
D U
d ness</w>
war m</w>
xen ograft</w>
0.9 3</w>
B P
99 m</w>
lei omy
bi ore
cann abis</w>
guan osine</w>
epith eli
L as
swim ming</w>
o ils</w>
macro scopic</w>
C ases</w>
oper ational</w>
sic kle</w>
fun ding</w>
M er
E W</w>
0.9 2</w>
Anim als</w>
thrombo embolism</w>
op posed</w>
capsul es</w>
id one</w>
Ste m</w>
ic ate</w>
germin ation</w>
adi um</w>
auton om
dis placed</w>
Tra ining</w>
nif edipine</w>
H Y
c ame</w>
bro il
disp ens
ton si
le aving</w>
le ak</w>
reinfor cement</w>
Pro per
13 7</w>
C 6</w>
hospit alizations</w>
answ er</w>
D ose</w>
hypo thesize</w>
extrac orporeal</w>
A x
L OS</w>
hor se</w>
s acc
r on</w>
amph i
A O</w>
Ve ter
V E</w>
c ogn
att entional</w>
see k</w>
antidepress ants</w>
id azole</w>
protec ting</w>
attenu ates</w>
expl ores</w>
un detectable</w>
comb ine</w>
pa in
smal l
Mechanis ms</w>
pre fer
tensi le</w>
CT A</w>
app rais
an i</w>
Leishman ia</w>
pro gen
P d</w>
conden sation</w>
intern alization</w>
intr ap
ti te</w>
g ol
IF ICA
BA SE</w>
Spec tr
manif est</w>
responsi bility</w>
dropl ets</w>
analog ous</w>
na ïve</w>
decarbox ylase</w>
AG E</w>
vitre ous</w>
ocarcin omas</w>
methyl ene</w>
sil ent</w>
2 31</w>
morph ogenesis</w>
ag en</w>
Investig ation</w>
ad min
pharmac ists</w>
un ting</w>
ci profloxacin</w>
de dicated</w>
oste ogenic</w>
em e
K idne
st and</w>
propor tion
Pro ject</w>
not e</w>
ma ze</w>
PLICA TIONS</w>
Pro gnostic</w>
domin ance</w>
si bly</w>
th eta</w>
re ality</w>
sor ting</w>
ser otypes</w>
B ir
cephal us</w>
cer amic</w>
suspen sions</w>
T C
Bi ological</w>
cur cumin</w>
0.8 9</w>
ge ometr
Im proved</w>
0.8 8</w>
trigg ering</w>
jour nals</w>
s en</w>
su red</w>
0.8 3</w>
seed lings</w>
c ities</w>
E PO</w>
compati bility</w>
om yc
conflic ting</w>
preser ving</w>
imp acted</w>
in patients</w>
Sur prisingly</w>
M is
E 2
C amp
expect ancy</w>
st ments</w>
h op
Sr c</w>
somat osensory</w>
U L
ph aryngeal</w>
SIGN IFICA
c il
x es</w>
f ec
tol u
Dou ble</w>
collag en
di ploid</w>
emp tying</w>
1 19</w>
at ur
posi tioned</w>
val vular</w>
her pes
al ism</w>
z i</w>
I B</w>
ser o
Gluc ose</w>
administr ative</w>
in spec
v ated</w>
an olamine</w>
an ore
n ationwide</w>
cytos keletal</w>
D ental</w>
In dic
M AC</w>
Com mon</w>
Spec tro
don ation</w>
ab s</w>
E VI
Re duced</w>
encour age</w>
ot echn
par am
P GF
enter oc
sug ars</w>
ol itis</w>
f arm</w>
P neum
T ech
D om
E L</w>
com promise</w>
paras it
co al</w>
ep ig
trans gene</w>
or iti
ultim ate</w>
en sing</w>
instrum ental</w>
adjunc t</w>
AM PK</w>
ili ated</w>
tom ic</w>
R et
periph ery</w>
L eg
SIGNIFICA NCE</w>
tradi tionally</w>
6 -</w>
iso proterenol</w>
w ell
regul ations</w>
hyp oc
V 1</w>
infec tive</w>
0.9 1</w>
ar te
transduc er</w>
E t
M C
Rec on
g p</w>
or rho
dr ying</w>
conc eption</w>
Pro duction</w>
ti bia</w>
exacerb ation</w>
scienti sts</w>
p H
mon ocyt
0.8 6</w>
at tained</w>
Sp inal</w>
oligos accharides</w>
omo tion</w>
bran ching</w>
cl o
sign atures</w>
modul us</w>
end ocytosis</w>
distingu ishing</w>
P ul
inter personal</w>
gast rectomy</w>
edi ting</w>
co x
el usive</w>
S k
1, 25</w>
glob ally</w>
synchron ous</w>
r DNA</w>
anthrop ometric</w>
M align
ab ain</w>
contr ain
op yran
as cer
ER K1</w>
M N
obser vers</w>
del eted</w>
cu stom
L N
melan ogaster</w>
emo tions</w>
spec ially</w>
micro biological</w>
V ib
Lactob acillus</w>
at rium</w>
Inflam matory</w>
Not ably</w>
al op
bio tin</w>
99mT c</w>
Pro v
practition er</w>
percenti le</w>
heter odi
dysp nea</w>
ar dis
TLR 4</w>
tr ade</w>
Al ter
encour aging</w>
re sts</w>
mit osis</w>
conform ations</w>
arr ative</w>
Pl ant</w>
super family</w>
b es</w>
13 8</w>
diaphrag m</w>
puber ty</w>
lat est</w>
Su per
serop ositive</w>
L ibr
M uc
My ocardial</w>
configur ations</w>
Del ta</w>
activ ators</w>
V L
R ating</w>
0.8 7</w>
in deed</w>
inter quartile</w>
glob in</w>
Mean while</w>
heavi ly</w>
irrig ation</w>
ay ing</w>
contamin ants</w>
deteri or
ir ium</w>
wal k</w>
the ast</w>
s oph
por ted</w>
sti tis</w>
Hepati c</w>
ad ver
habit ats</w>
tra vel
graf ted</w>
shorten ed</w>
trans m
sens ation</w>
h ap
trac ts</w>
avi r</w>
mid line</w>
impa ir</w>
lead ership</w>
t amine</w>
x ed</w>
T ol
dy es</w>
eti ological</w>
G ST
ventil atory</w>
0. 13</w>
0. 11</w>
ri ver</w>
ch ond
re pl
qual itatively</w>
e astern</w>
inform ative</w>
micro RNAs</w>
man agers</w>
K L</w>
Pac ific</w>
prim ates</w>
AB P</w>
dis continued</w>
cul t</w>
comm itment</w>
consum er</w>
S ens
con clusive</w>
the ophylline</w>
discus sions</w>
conjug ation</w>
method ologies</w>
azol am</w>
F V</w>
ast al</w>
AM D</w>
dys phagia</w>
ro str
exper tise</w>
col li
poli tical</w>
er ve</w>
br and</w>
1 0.5</w>
li sts</w>
mang anese</w>
Sub sequent</w>
duoden um</w>
cut aneously</w>
0.7 8</w>
introduc ing</w>
0. 14</w>
5 5
I 2</w>
man nose</w>
iz able</w>
PBM C</w>
A AA</w>
caregi ver</w>
ot axis</w>
o val
pedi cle</w>
PK A</w>
character izing</w>
care er</w>
ob enz
h ope</w>
Practi ce</w>
men op
T G
SM Cs</w>
abs tin
ra ising</w>
iodi de</w>
vin yl</w>
serot on
An g
Inter leukin</w>
ner ship</w>
N egative</w>
AD C</w>
th ecal</w>
collap se</w>
o facial</w>
but yl</w>
prote omics</w>
as certain</w>
Rec over
persi st</w>
c iliary</w>
ari th
intellig ence</w>
- 9</w>
Regar ding</w>
az ol</w>
A er
war ming</w>
hydro carbons</w>
clon idine</w>
path ogenicity</w>
arti facts</w>
vag al</w>
oz one</w>
ventr icul
CP R</w>
sc oli
DF T</w>
sti s</w>
e ur
gn ess</w>
V C</w>
me g
Ga stric</w>
st yrene</w>
EM BASE</w>
pr amine</w>
stoch astic</w>
Th ough</w>
D Q
F H</w>
im entin</w>
Inter vention</w>
Tr ic
O 1</w>
Eigh teen</w>
ant able</w>
Li ke</w>
Behavi or</w>
radi ology</w>
add resses</w>
bur ns</w>
A pop
probl ematic</w>
ke wise</w>
S G
ul ing</w>
we b
PC P</w>
enti nel</w>
reconstitu ted</w>
wea ker</w>
omer ization</w>
we d
P PI</w>
sel en
acyl glycerol</w>
thin king</w>
rh esus</w>
Ox id
thermod ynamic</w>
Con genital</w>
CD K
PT EN</w>
0.8 4</w>
cer amide</w>
n in
En g
L ig
comp ul
C IN
tel omerase</w>
sl ice</w>
a sive</w>
IM PLICATIONS</w>
amin idase</w>
pneum ococcal</w>
post ure</w>
U A</w>
G al</w>
altern ate</w>
nan ocom
b est
neuro toxicity</w>
plat forms</w>
gyn ec
an ionic</w>
PL A</w>
volu metric</w>
ER T</w>
l ingual</w>
op re
B 3</w>
0. 16</w>
exclu sive</w>
foun dation</w>
mun ic
C GRP</w>
germ line</w>
dep ic
INTERVEN TIONS</w>
un complicated</w>
sch ist
E st
ocom ial</w>
m ari
exc ep
dis charges</w>
Bio chemical</w>
em pl
M DS</w>
AL P</w>
bio tics</w>
resili ence</w>
spar se</w>
Ad ap
cath epsin</w>
fresh water</w>
perturb ation</w>
im es</w>
v ic</w>
di ol</w>
bl unt</w>
des orption</w>
ne sted</w>
sub cutaneously</w>
m 3</w>
19 0</w>
C CL
RE VI
po int
transfer ases</w>
bl ind
0. 35</w>
ul nar</w>
comp act</w>
adap t</w>
associ ate</w>
scre ws</w>
G am
re pressor</w>
w anted</w>
ar yl
ra ises</w>
S audi</w>
glucocortico ids</w>
vaso constriction</w>
gro und
ey el
house holds</w>
instrum entation</w>
capac ities</w>
p m</w>
nod ular</w>
0.8 2</w>
star vation</w>
di chloro
itone ally</w>
pa rotid</w>
Nr f2</w>
I Q</w>
R at</w>
SA H</w>
chem oradi
pac ked</w>
affin ities</w>
Formul a</w>
CRI SPR</w>
v ox
un favorable</w>
f air
R he
ra in
gastr in</w>
mit ting</w>
Col l
Pharmac o
Mul ti</w>
S .
g lu
er nal</w>
ail ed</w>
perf ect</w>
0. 90</w>
pair ing</w>
prescrip tions</w>
B L
attenu ate</w>
pro spec
sa icin</w>
. .</w>
com positions</w>
in soluble</w>
le ishman
re activation</w>
cohe rent</w>
is land</w>
NH 2</w>
at orial</w>
individu alized</w>
fre edom</w>
cro ps</w>
ov aries</w>
carcin ogenic</w>
le pro
nicotin ic</w>
si ella</w>
ste el</w>
cyt osine</w>
mic elles</w>
pass ed</w>
Adv anced</w>
bl asts</w>
198 1</w>
tra vel</w>
augh ter</w>
DE NCE</w>
diaz epam</w>
far ms</w>
gl and
pen ile</w>
P lac
al titude</w>
sulf on
H 4</w>
b FGF</w>
tic ated</w>
co factor</w>
pac kage</w>
re alized</w>
sci atic</w>
in somnia</w>
compr ise</w>
be ats</w>
homogen ates</w>
un ded</w>
cobal t</w>
fig ures</w>
tax onomic</w>
TR A
mos aic</w>
rem n
nas opharyngeal</w>
ot ted</w>
prim ate</w>
inver ted</w>
degrad able</w>
techn ological</w>
A po
es sion</w>
ic um</w>
0. 45</w>
0. 80</w>
equ ine</w>
prov ince</w>
SC D</w>
mas k</w>
plex es</w>
Stud ents</w>
neuro peptide</w>
met ac
sacrific ed</w>
hem i
bacter icidal</w>
A 549</w>
Q U
ox o</w>
mar ital</w>
tor que</w>
pu ps</w>
en sur
CX CL
brady kinin</w>
F D</w>
vis ited</w>
oper idol</w>
og rou
eu tic
GAB A
epti n</w>
Numer ous</w>
Nutri tion</w>
ic ide</w>
fos sa</w>
pa rous</w>
Kidne y</w>
k D</w>
un controlled</w>
adi ponectin</w>
cultiv ars</w>
neigh bor
E L
trem or</w>
P SC</w>
lin ker</w>
addi tionally</w>
brac hy
exclud e</w>
K en
br ing</w>
is one</w>
D ic
du plic
Platel et</w>
omegal y</w>
c d
L ate</w>
be ef</w>
tocopher ol</w>
Sup pl
p ter
fore brain</w>
V S</w>
an ic</w>
sme ars</w>
osp ec
pl ank
K S</w>
di thi
requis ite</w>
c rest</w>
carbo hydrates</w>
Not ch</w>
red und
determin ations</w>
classi fy</w>
Associ ations</w>
13 9</w>
mal on
b ite</w>
PA C</w>
orig inated</w>
cirrho tic</w>
0.7 6</w>
pri oriti
pro tr
ph alin</w>
tel omere</w>
notic ed</w>
st ance</w>
di aldehyde</w>
0.8 1</w>
broad ly</w>
possess ed</w>
1. 01</w>
go ats</w>
convul s
sp ores</w>
pac king</w>
ill ed</w>
j e</w>
an um</w>
su ited</w>
E ar
ari o</w>
carb onate</w>
par ity</w>
EVI DENCE</w>
leg is
Un it</w>
Heal th
acqu ire</w>
sub stitute</w>
silic o</w>
ob lig
she ets</w>
um en</w>
tro ponin</w>
diarrho ea</w>
2, 2</w>
b ever
meth an
K Cl</w>
Eff ective</w>
eutic als</w>
L G
ti tration</w>
D V</w>
ol k</w>
s. c.</w>
S ar
K ingdom</w>
acceler ate</w>
hydro gels</w>
linear ity</w>
person alized</w>
di ure
Th at</w>
n ev
sol ve</w>
A gg
10. 0</w>
ou tw
inst ance</w>
Behavi oral</w>
sto ichi
it on</w>
un infected</w>
pl ain</w>
lnc RNAs</w>
lam bs</w>
scaveng ing</w>
o ter
prolong ation</w>
N u
10 ,000</w>
sp anning</w>
Libr ary</w>
menop ause</w>
clos er</w>
a ided</w>
ubercul osis</w>
E astern</w>
n ail</w>
junc tional</w>
supernat ants</w>
an aphy
14 2</w>
RA F</w>
tex ture</w>
Lip id</w>
Eff ec
dri ver</w>
vap or</w>
chro mo
super vised</w>
li ve
buc cal</w>
M en</w>
sp as
z z
ill umination</w>
si vity</w>
1.0 2</w>
fac ed</w>
f loc
F isher</w>
En ergy</w>
progen y</w>
fir e</w>
bif ur
assign ment</w>
a str
Tem per
Experi ence</w>
In vol
o ventricular</w>
Leu k
amorph ous</w>
insp iratory</w>
T g</w>
O D</w>
0.7 7</w>
schizophren ic</w>
conjunctiv al</w>
pro lapse</w>
Heal thy</w>
H el
E B</w>
ben ch
L ist
D BP</w>
Ac tiv
distinc tion</w>
un differentiated</w>
HR V</w>
min ing</w>
s ent
Met S</w>
muc in</w>
day time</w>
vulg aris</w>
collo idal</w>
fi ers</w>
nanot ubes</w>
radi ologists</w>
bro mo
sh el
intr al
immun ogenicity</w>
Proper ties</w>
dis pers
ie ties</w>
Appro ach</w>
de structive</w>
Parti al</w>
xanth ine</w>
pa res</w>
13 4</w>
Qual itative</w>
f lower</w>
t ym
othor ax</w>
tel e
til t</w>
atro l</w>
sti pation</w>
R G
16 5</w>
monocyt ogenes</w>
ou pling</w>
re p
ane u
new er</w>
allo y</w>
vacu um</w>
resid ential</w>
sub optimal</w>
pot ato</w>
stabil ize</w>
ca ution</w>
tab let</w>
3 44</w>
K d</w>
ubiqu itin
11. 2</w>
High ly</w>
afferen ts</w>
erc etin</w>
SP SS</w>
interpre t</w>
transi tional</w>
replic ated</w>
B 6</w>
Rh o</w>
In stead</w>
amin s</w>
rel la</w>
deep er</w>
V II</w>
vers atile</w>
mutag enic</w>
fe et</w>
er up
mamm ography</w>
Pro state</w>
For mation</w>
Un fortunately</w>
chlor o</w>
B ro
pul s
recommend ation</w>
oste oblasts</w>
Carcin oma</w>
over t</w>
dendr ites</w>
flav in</w>
ver atrol</w>
0.7 4</w>
r ic</w>
out line</w>
On ce</w>
hepat oma</w>
Lin ear</w>
per icardial</w>
galacto sidase</w>
be at</w>
Memb rane</w>
V F</w>
intraper itoneally</w>
in ations</w>
schem es</w>
stal k</w>
ord inary</w>
acetab ular</w>
trans fusions</w>
de stro
bi os
aden ocarcinomas</w>
concentr ate</w>
fo s</w>
recycl ing</w>
re tain</w>
it an</w>
RE T</w>
loc omotion</w>
my ot
2 93</w>
F I</w>
j aw</w>
disp osition</w>
S TI
manufac ture
flavon oids</w>
lute in
re th
Psych i
zot ocin</w>
B 4</w>
gel atin</w>
mal e
mic s</w>
sk eleton</w>
moist ure</w>
hepat ectomy</w>
plant ar</w>
H GF</w>
adap tations</w>
0.7 1</w>
st ated</w>
0.7 9</w>
d a
W al
0. 18</w>
enter ing</w>
catechol amines</w>
G ran
op y</w>
phil is</w>
l ich
ACh E</w>
post prandial</w>
L u
se q</w>
os exual</w>
hel ped</w>
ur nal</w>
F R
repeat edly</w>
ho using</w>
hol ding</w>
o chemical</w>
kne es</w>
ag gra
F os</w>
psychi atry</w>
F K
swe red</w>
K ey</w>
wor ms</w>
el ution</w>
dic ine</w>
1 P</w>
arg um
gro o
stake holders</w>
14 3</w>
granul osa</w>
vi tis</w>
ang l
methyl transferase</w>
alpha -</w>
tr apping</w>
w .
confoun ders</w>
ith elial</w>
h il
multi plex</w>
depri ved</w>
cruc iate</w>
chemo kines</w>
A z
U til
lactam ase</w>
entrop y</w>
sin us
symptom atology</w>
ou abain</w>
Dem ographic</w>
1 75</w>
out lined</w>
extr av
LO G
0. 65</w>
preser ve</w>
enke phalin</w>
le gs</w>
av en
jug ular</w>
replic ate</w>
iz ers</w>
l ay</w>
B N</w>
pharmac ology</w>
co astal</w>
mim ic
in expensive</w>
hom olog</w>
uniform ly</w>
SE N
earli est</w>
0.7 3</w>
bacte remia</w>
le ph
quen ching</w>
et een</w>
dig esti
occup ied</w>
con tra
in er
Combin ation</w>
Is ra
an swered</w>
tw elve</w>
am yl
BR CA1</w>
Rep u
approxim ate</w>
susp ended</w>
dec id
C G
re actor</w>
de ox
for d</w>
autom atically</w>
Carb on</w>
g au
wash ing</w>
tic ks</w>
rest enosis</w>
anis otropy</w>
14 7</w>
app end
bro th</w>
j aun
benz yl</w>
l enti
S AR</w>
od ing</w>
prote ome</w>
py rene</w>
ec ond</w>
1.0 3</w>
rel ates</w>
syn cy
post traumatic</w>
gon dii</w>
Distr ibution</w>
f air</w>
carri age</w>
hydro cephalus</w>
Em base</w>
di ce</w>
OR s</w>
F N</w>
medic ally</w>
hum eral</w>
Prov ince</w>
C 5</w>
MR T</w>
consol idation</w>
in door</w>
rib ose</w>
constr ained</w>
r at
dent ate</w>
mis sense</w>
usi tis</w>
car ing</w>
hy pop
PT P</w>
oc ar
per mitted</w>
F ox
scat tered</w>
1 53</w>
Ch i</w>
de aling</w>
stand ardis
lo l</w>
K Y</w>
ad duct</w>
do t</w>
ev ity</w>
mon omers</w>
c ass
AC s</w>
deliver ing</w>
H L
0. 17</w>
An tim
bio films</w>
r ights</w>
con v
specific ities</w>
ag encies</w>
do ts</w>
anomal ous</w>
intram olecular</w>
B K</w>
os urg
int olerance</w>
cap top
S exual</w>
ac id
e icos
disc ord
i ans</w>
Au th
carbox ylic</w>
enroll ment</w>
10 ,
C 2
Stud ent</w>
continu um</w>
ys in</w>
orthop edic</w>
app earing</w>
sho ot</w>
tra p</w>
dis advantages</w>
refl ec
bab y</w>
K leb
0. 50</w>
amp ing</w>
w et
IC H</w>
plic ity</w>
oper on</w>
y go
cultiv ated</w>
Compar ing</w>
mu sic</w>
or ch
rom ycin</w>
st ably</w>
ex chang
emph ys
pri v
search ing</w>
F c
ag arose</w>
System s</w>
in dependence</w>
liter acy</w>
s orb
Hyper tension</w>
rec over</w>
H un
radio frequency</w>
sk olin</w>
cut ting</w>
A or
re operation</w>
CD D</w>
re test</w>
phosphodi esterase</w>
onch ial</w>
met aph
fa ec
fre ely</w>
scoli osis</w>
13 6</w>
obste tr
reperto ire</w>
yl es</w>
id us</w>
robu st
c ing
intra hepatic</w>
s elling</w>
itone um</w>
sho t</w>
cit abine</w>
elev ations</w>
lig am
modul ators</w>
coll ective</w>
F E
I BS</w>
ero sion</w>
ys mal</w>
mast ectomy</w>
beg in</w>
expl aining</w>
conven ience</w>
pec ul
J un</w>
under goes</w>
HR P</w>
rif amp
Throm b
Pre par
ultr y</w>
it er</w>
ari atric</w>
CD 44</w>
I ll
immun oblotting</w>
explo ited</w>
retro peritoneal</w>
pig lets</w>
c s</w>
1.0 5</w>
zym es</w>
aggreg ated</w>
sh rin
etr y</w>
gland ular</w>
lif es
cortis one</w>
ophthal mic</w>
g rap
o ks</w>
psych opathology</w>
R B</w>
Oxid ative</w>
out growth</w>
arb itr
Aut om
li tis</w>
ex tends</w>
em ma</w>
V A
nit us</w>
ar ises</w>
pur ch
amylo idosis</w>
equ iv
occa sions</w>
2 nd</w>
P PV</w>
com pares</w>
ob sc
cel i
Op en</w>
4 A</w>
u be</w>
De f
c age</w>
cul ating</w>
el abor
thyro xine</w>
V al</w>
gonad al</w>
glomerul onephritis</w>
Mo use</w>
An n
De termin
char ts</w>
mut ational</w>
neutr alization</w>
predn isone</w>
un explained</w>
T ow
1, 0
n ous</w>
attrac ted</w>
typh imurium</w>
p ir
con ve
initi atives</w>
chlo rophyll</w>
K E
lact ose</w>
oc cult</w>
search es</w>
approxim ation</w>
micro fluidic</w>
radi o</w>
Anim al</w>
mel ting</w>
0.00 9</w>
5 6
Con t
5 62</w>
15 4</w>
thal iana</w>
0. 20</w>
Kleb siella</w>
know led
chem otactic</w>
e NOS</w>
in yl</w>
desensi tization</w>
electr ons</w>
ud ine</w>
s i</w>
dur ations</w>
1.0 4</w>
o pro
mechan ically</w>
dissec ted</w>
dig it
otox ins</w>
top ois
ph er
C an</w>
re fined</w>
bund les</w>
bup ivacaine</w>
eosinoph il</w>
audi t</w>
II b</w>
sugg estions</w>
opportun istic</w>
c ast</w>
Perc utaneous</w>
impair s</w>
m .</w>
li poly
gam e</w>
per mis
BM T</w>
fram es</w>
lay ered</w>
CB T</w>
lat ex</w>
chloro plast</w>
el ings</w>
oste ocl
di electric</w>
Gen es</w>
Sev erity</w>
marri ed</w>
dispens able</w>
per s</w>
resid ency</w>
Physi cians</w>
ribonucle ic</w>
induc er</w>
ti fication</w>
expl ains</w>
14 1</w>
be red</w>
blo od
distor tion</w>
Wh it
rib osome</w>
mon omeric</w>
dis closed</w>
- based</w>
am phen
rever sibly</w>
N ucle
til l</w>
Pat tern
apprais al</w>
facil itation</w>
de hydration</w>
C SA</w>
sho p</w>
at e
h n
F TIR</w>
o yl
om ial</w>
D ual</w>
yn chron
kin je</w>
or us</w>
c im
cot ton</w>
lea ve</w>
for ty</w>
O 4</w>
uve itis</w>
aim ing</w>
Intrav enous</w>
fra ilty</w>
Mech anical</w>
3 rd</w>
DF S</w>
tw o
lnc RNA</w>
&apos; t</w>
s .</w>
modul ator</w>
anore xia</w>
au x
B 12</w>
gastr itis</w>
m erg
tes tinal</w>
glycol ysis</w>
A im</w>
combin es</w>
3, 5</w>
Signific antly</w>
cal orimetr
Reg ister</w>
hal operidol</w>
meth icillin</w>
tryp tamine</w>
ESR D</w>
C 1
DO X</w>
oti tis</w>
Mitochond rial</w>
K s</w>
este em</w>
obl ast
di ethyl
Las er</w>
Meas ures</w>
ar abin
ol us</w>
N R</w>
Ph il
ox yl
0. 67</w>
Pregn ancy</w>
ventil ated</w>
del ta
0.0 25</w>
M Hz</w>
F ri
Repu blic</w>
ac clim
recep tive</w>
oth ane</w>
thym ocytes</w>
dec lines</w>
e ve</w>
Recover y</w>
transmit ters</w>
E thi
mul tin
bir th
dra w</w>
polys accharides</w>
chori onic</w>
t os
iso electric</w>
re paired</w>
Ar thro
mo ieties</w>
veter inary</w>
friend ly</w>
benzodi azepine</w>
P ress
GABA ergic</w>
umb er</w>
Pur kinje</w>
0. 72</w>
8 6
fund us</w>
nich e</w>
Onc ology</w>
T ext</w>
lac ked</w>
15 2</w>
par a</w>
v imentin</w>
ic ile</w>
y olk</w>
arthro scopic</w>
M CA</w>
theore tically</w>
S odium</w>
NSAI Ds</w>
effici encies</w>
ver sions</w>
14 6</w>
one y</w>
amphen icol</w>
pro poses</w>
cle an</w>
excre ted</w>
post mortem</w>
ging i
B ilateral</w>
cor onal</w>
Recombin ant</w>
1 1.5</w>
F us
li st
stric tly</w>
polymorph onuclear</w>
po pl
e ae</w>
M W
PR P</w>
ev ac
C ost</w>
II a</w>
R ho
B CL</w>
synap t
cap saicin</w>
osensi tivity</w>
crow n</w>
lit ter</w>
wel fare</w>
5 th</w>
emerg ent</w>
ad versely</w>
pa uc
n arrative</w>
roti zing</w>
par kin
docum ents</w>
Surve illance</w>
chem il
albumin uria</w>
ca vities</w>
sic s</w>
Epidemi ology</w>
antagon ism</w>
expec tedly</w>
ch ap
fif ty</w>
under graduate</w>
mi x</w>
atri oventricular</w>
Clinic al
or ylation</w>
qu ick</w>
k Hz</w>
stra ight</w>
Aut o
str ips</w>
Nur ses</w>
rap amycin</w>
erythropo ietin</w>
p ens
pur ine</w>
co incid
chloro quine</w>
meth oxy</w>
chrom ium</w>
TI MP</w>
Con ventional</w>
pyr imidine</w>
ME T</w>
im otor</w>
0. 22</w>
E US</w>
ail ing</w>
Con di
Nan op
in qu
veget ation</w>
abdom y
not able</w>
pig mented</w>
F 4</w>
lo os
I schem
T c
e g</w>
perme able</w>
di uretic</w>
pl ot</w>
imid azol
ap ex</w>
ep tic</w>
Tr p</w>
two fold</w>
S ho
di ch
hum idity</w>
at resi
all ografts</w>
sion ed</w>
prim itive</w>
de polar
A K</w>
lys ates</w>
C ry
NH S</w>
Recom m
poly po
Med line</w>
Neon atal</w>
ww w.
character s</w>
Centr e</w>
M Pa</w>
tri pl
D anish</w>
con dyl
0. 70</w>
Com preh
D on
B AL</w>
ove restim
evac izumab</w>
sarcom as</w>
reser vation</w>
H U
multi factorial</w>
chic ks</w>
it a</w>
CP B</w>
electro magnetic</w>
B PD</w>
ag ree</w>
ac ic</w>
suppl ied</w>
tubercul ous</w>
pi x
j et</w>
cyt ometric</w>
s er</w>
dis playing</w>
rota virus</w>
me ga
phag ocytic</w>
navig ation</w>
an in</w>
0. 33</w>
PA Hs</w>
cl av
idel ity</w>
Inter actions</w>
n out</w>
t agged</w>
oc ap
paren ting</w>
contra dic
every day</w>
AR DS</w>
resembl ing</w>
meth acrylate</w>
E s
inter facial</w>
parathyro idism</w>
Q TL</w>
immunoglob ulins</w>
I HC</w>
Diab etic</w>
atin e</w>
contex tual</w>
neuro degeneration</w>
spac er</w>
HM G
carb on
atis m</w>
pl au
op en
wor ked</w>
col le
off ering</w>
16 8</w>
Spec ial</w>
elast ase</w>
vent ro
TH E
O K
ou ts</w>
mor al</w>
Po is
clar ified</w>
del irium</w>
Serv ices</w>
Ne ural</w>
Fr ac
L p</w>
Frequ ency</w>
spir al</w>
d welling</w>
ac ia</w>
thromb oxane</w>
anastom otic</w>
wri ting</w>
d re
altern ating</w>
F 3</w>
analy tes</w>
energ etic</w>
sist er</w>
nos ocomial</w>
CI S</w>
bi ogenesis</w>
th y
re min
supr am
pal p
drop ped</w>
CI s</w>
me als</w>
en ses</w>
infer red</w>
5 a</w>
glutam ic</w>
anti le</w>
exten sor</w>
N AME</w>
intra -</w>
co st
harv esting</w>
m ur
con stipation</w>
long evity</w>
st atins</w>
mit ogenic</w>
intrac erebral</w>
cho ose</w>
L U
influenz ae</w>
acet one</w>
ob r
1 D</w>
P ak
AP S</w>
NH L</w>
po ultry</w>
discrep ancies</w>
O CD</w>
CP T</w>
V L</w>
carri es</w>
sub cortical</w>
0. 21</w>
hydroxy apatite</w>
micro bes</w>
atmosph ere</w>
orn ith
Stre ptom
Fluoresc ence</w>
Hosp it
th ec
centr ic</w>
Cri tical</w>
hydro carbon</w>
d ang
sy philis</w>
diff icile</w>
br uc
d in</w>
nig ra</w>
veter ans</w>
poin ted</w>
pluripot ent</w>
HR QoL</w>
vis ually</w>
secre tions</w>
AP 1</w>
phosph on
collagen ase</w>
me iotic</w>
belong s</w>
sit ting</w>
oc clusive</w>
si fied</w>
impl ying</w>
G li
trou t</w>
d ressing</w>
Anti bodies</w>
Al ph
inferen ce</w>
cent ro
dextr in</w>
car c
eli oma</w>
nor ms</w>
leuk otri
maxim ize</w>
oph en</w>
ann ually</w>
D o</w>
lob es</w>
vasodi lation</w>
oste oblast</w>
Vib rio</w>
fo am</w>
di chro
in otropic</w>
ob ia</w>
hel ic
Guid elines</w>
Dis c
th igh</w>
thi o
es h</w>
l asted</w>
eosin ophilic</w>
MI P</w>
D .</w>
fa ecal</w>
0. 24</w>
an hydr
sal inity</w>
p raz
B CR</w>
l ers</w>
extr insic</w>
k et</w>
DE S</w>
pestic ide</w>
neuro genic</w>
phot ocat
itu ximab</w>
regar ds</w>
Th r</w>
m ass
ph atic</w>
Press ure</w>
er mal</w>
atresi a</w>
Pro vid
T ren
H G
ap ha
H G</w>
parkin son
Che m</w>
ca p</w>
psych otherapy</w>
REVI EW</w>
epith elia</w>
gen omics</w>
degrad ing</w>
ox azole</w>
V O2</w>
ist an</w>
fil tering</w>
g ases</w>
V LDL</w>
ad ine</w>
Health care</w>
R M</w>
olig o
sw allowing</w>
obut yric</w>
ke ep</w>
strepto zotocin</w>
VE L</w>
form aldehyde</w>
trache a</w>
Val idation</w>
Sw iss</w>
pos ity</w>
efflu ent</w>
im pul
R ac
flex or</w>
umb ens</w>
tr ain</w>
f eces</w>
em ent
col oc
Thyro id</w>
Th i
idi a</w>
gra ins</w>
UT R</w>
top ography</w>
W eight</w>
Ir on</w>
Nor way</w>
li que</w>
Tech niqu
incre ment</w>
co enzyme</w>
Differen ti
ser ous</w>
ter re
Sc ot
prob ing</w>
scann er</w>
descrip tions</w>
dropl et</w>
r ater</w>
in bred</w>
35 S</w>
R u
B PA</w>
embry ogenesis</w>
Modi fied</w>
recogn ised</w>
tor sion</w>
Sup port</w>
2 1
T O</w>
bas olateral</w>
ox ia</w>
AI S</w>
emphasi zes</w>
retar ded</w>
sequ e
calcul ating</w>
F etal</w>
amp icillin</w>
IF N
neutr on</w>
robust ness</w>
morph ometric</w>
ho c</w>
R elev
adop t</w>
g us</w>
dispers al</w>
im pe
bi g</w>
D r
pa y</w>
il ic</w>
cle an
Targ eting</w>
thromb olysis</w>
T 2D</w>
Mex ican</w>
corro bor
R ot
feren tial</w>
res ections</w>
0. 19</w>
con ti
ass ing</w>
ti dine</w>
su itability</w>
sav ings</w>
af en
uter o</w>
Mid dle</w>
S ea</w>
in ed</w>
D aily</w>
a f</w>
predisp osing</w>
M UC
0. 32</w>
cal cin
sub population</w>
expl ants</w>
s m
V 2</w>
Ont ario</w>
z eta</w>
H i
Q RS</w>
A .</w>
immunomod ulatory</w>
Phot o
predisp osition</w>
fair ly</w>
D 4</w>
T KA</w>
hydrox ylation</w>
EM I</w>
b i</w>
micr on
0. 23</w>
cros sing</w>
HF D</w>
bil aterally</w>
C U
migr ant</w>
T S
R emo
harb oring</w>
ev ap
acetyl transferase</w>
PT C</w>
lin gness</w>
Strateg ies</w>
mes ang
5 A</w>
Sev enteen</w>
E ry
perturb ations</w>
LE V
s aving</w>
d ying</w>
an ase</w>
Gen omic</w>
an der</w>
my c
G DM</w>
hemat ocrit</w>
vari eties</w>
Sch iz
sh ips</w>
fe elings</w>
l ar</w>
appendic itis</w>
M otor</w>
j apon
chem otaxis</w>
19 79</w>
2 C</w>
ch air</w>
abstin ence</w>
g ation</w>
propi onate</w>
jaun dice</w>
pig mentation</w>
M ain</w>
y lob
ell ate</w>
0. 55</w>
brachy therapy</w>
my x
M etal</w>
1.0 6</w>
anos oma</w>
9 00</w>
ro ll
ati zed</w>
0. 68</w>
Ac t</w>
EC TION</w>
Concentr ations</w>
perc ei
tric uspid</w>
dissoci ated</w>
CF TR</w>
an cre
correspon d
L 4</w>
f t
k 1</w>
conf ers</w>
Chlamy dia</w>
fail s</w>
Seph arose</w>
easi er</w>
dos ages</w>
es h
iti vely</w>
Pancre atic</w>
A PO
0.0 00</w>
dilu ted</w>
0. 66</w>
end onuclease</w>
PC NA</w>
li sted</w>
ulin um</w>
prostagland ins</w>
Mod els</w>
desi re</w>
exce eding</w>
xen ografts</w>
em it
per icardi
effec tors</w>
cl ient</w>
V ic
advanc ement</w>
est rous</w>
eti ologies</w>
en icity</w>
N GS</w>
multi modal</w>
profes sion</w>
rec re
ore duc
orth opaedic</w>
epis odic</w>
ascor b
diver ticul
cataly zes</w>
it ates</w>
os elec
chlor inated</w>
alg inate</w>
sulf ide</w>
Effec tiveness</w>
ca emic</w>
AR CH</w>
ass urance</w>
d t</w>
andi bular</w>
po l</w>
I so
P il
neighb oring</w>
veget able</w>
a vid
el emental</w>
D VT</w>
hyper parathyroidism</w>
and a</w>
Tryp anosoma</w>
kary otype</w>
od ont
ke to</w>
RF LP</w>
mim ics</w>
Cer vical</w>
O d
cap sid</w>
sensor imotor</w>
B er
on idazole</w>
dener vation</w>
sensiti vities</w>
bri de
Tr ac
E v
T esting</w>
stret ching</w>
E PR</w>
ul ic</w>
o roph
er ine</w>
disc s</w>
T om
Ti O2</w>
as best
16 3</w>
7 9
es --
po uch</w>
ga thered</w>
kine sia</w>
comp any</w>
0 ,
low -</w>
N it
et axel</w>
Op tical</w>
m sec</w>
radiolab eled</w>
ta z
RE LEV
M SM</w>
O ff
phosph ates</w>
14 8</w>
orth og
Dep end
predomin ance</w>
0. 63</w>
sig moid</w>
tr y</w>
ta urine</w>
ut roph
Malign ant</w>
t ent
transc ranial</w>
Cd c
vaso active</w>
K er
integr ative</w>
spea king</w>
substanti a</w>
quar ter</w>
C ES</w>
cl usal</w>
tic ation</w>
evalu ates</w>
restor ations</w>
Coun ty</w>
conver gence</w>
ocy stis</w>
Adv ances</w>
15 1</w>
In ternal</w>
et opo
flu xes</w>
o plasma</w>
ju ana</w>
hemisph eric</w>
l acti
for skolin</w>
occup ation</w>
encap sulation</w>
0. 56</w>
cre te</w>
RELEV ANCE</w>
e GFR</w>
20 5</w>
tr ust</w>
psych ology</w>
loc alize</w>
chol era</w>
gen otyped</w>
cy tic</w>
MM C</w>
a rent</w>
quanti fying</w>
controver sy</w>
in distinguishable</w>
ex port</w>
D BS</w>
ery thromycin</w>
Mod ulation</w>
C .
tri ed</w>
N itr
0. 69</w>
ob viously</w>
Streptom yces</w>
bacterioph age</w>
el lip
h on
R CT</w>
rein forced</w>
s outh</w>
immun ogenic</w>
Impro ving</w>
cru zi</w>
B en
caud ate</w>
ch ew
em ias</w>
succin ate</w>
antagon ized</w>
Reg ion</w>
D oc
immunocom promised</w>
18 F</w>
di urnal</w>
T X</w>
wil d
or ide</w>
vit amins</w>
For m</w>
sh ed
har monic</w>
mid w
32 P</w>
alpha 1</w>
Pattern s</w>
wed ge</w>
T ex
etopo side</w>
fr ont
a OR</w>
0. 28</w>
op eptide</w>
chol ic</w>
0. 64</w>
osi dase</w>
lig ase</w>
ylob acter</w>
E qu
sub acute</w>
par v
anaes thetic</w>
im bur
y ros
phot osynthesis</w>
micr on</w>
s ounds</w>
intr ag
G raph
u ght</w>
15 6</w>
coll ec
fresh ly</w>
k ill</w>
0. 26</w>
C on</w>
pattern ing</w>
un ted</w>
eng ra
ec k
proto zo
omat erials</w>
s entinel</w>
Intrac ellular</w>
H PA</w>
ad one</w>
ycl ic</w>
ew es</w>
aden o
d .</w>
ke ting</w>
3 60</w>
i o</w>
Anti body</w>
nano structures</w>
poly cystic</w>
discrimin ant</w>
RE S</w>
Th ail
poly unsaturated</w>
anti platelet</w>
pro thrombin</w>
ingredi ents</w>
hal othane</w>
Inter ventions</w>
Hem at
Phyl ogenetic</w>
im etic</w>
multi focal</w>
Optim al</w>
bi ocompatibility</w>
g lo
cal ibr
stress ful</w>
Sm ad
Sw it
Arter ial</w>
herpes virus</w>
Thail and</w>
perme ation</w>
do ing</w>
mul tim
Atl antic</w>
mo sis</w>
Em erg
B RAF</w>
lys osomes</w>
red ness</w>
man eu
transp osition</w>
bo ok</w>
adequ acy</w>
par adox
Transi ent</w>
attend ance</w>
ash es</w>
parti tion</w>
as on</w>
antin oc
Sch wan
explan ations</w>
uni qu
allevi ate</w>
me ters</w>
photo receptor</w>
int enti
In t
autonom ous</w>
Th or
ACh R</w>
SE ARCH</w>
elas ticity</w>
astro cyt
re fu
M am
i tic</w>
re ferences</w>
gen tly</w>
ket o
noc iceptive</w>
ap point
MAL DI</w>
St atus</w>
LE VEL</w>
cu st
0. 62</w>
po ver
emerg e</w>
nemat ode</w>
Maxim um</w>
interrup ted</w>
5 3
soph is
lam ellar</w>
topois omerase</w>
opo rous</w>
oph armac
U ro
mess ages</w>
he al</w>
. ..</w>
W I
electrocardi ogram</w>
inter cal
olig omers</w>
iso flurane</w>
amin ophen</w>
filam entous</w>
pea ked</w>
tur ned</w>
occlud ed</w>
6 6
con sequent</w>
I ran
PC L</w>
bi ases</w>
ol ive</w>
ensur ing</w>
h ips</w>
A di
prob abilities</w>
coron avirus</w>
M .</w>
reconstruc tions</w>
parti tioning</w>
recogn izing</w>
py raz
ulcer ation</w>
absc esses</w>
5 9
h a</w>
in one</w>
pre v
5 8
1 A1</w>
M ag
p 16</w>
J oint</w>
2, 6</w>
oscop e</w>
insp ired</w>
V as
7 7
n ary</w>
po d
ear man</w>
te g
M o</w>
bar ley</w>
g raph</w>
b cl</w>
D B
granul ocytes</w>
secre te</w>
auton omy</w>
as e
pe ers</w>
Bi ol</w>
bio informatics</w>
qu ercetin</w>
le tic</w>
promp ted</w>
G h
adi posity</w>
ou red</w>
lat encies</w>
cr is
q RT</w>
4 3
fil tered</w>
Child hood</w>
ocyan ate</w>
emphys ema</w>
H SCT</w>
tacti le</w>
R 3</w>
diaphrag matic</w>
atro genic</w>
en te
ach ol</w>
seroton ergic</w>
chlor amphenicol</w>
be ams</w>
compreh ension</w>
multi functional</w>
acc umbens</w>
al im
Comput er</w>
dev oid</w>
fol ds</w>
sy l
implic ation</w>
Repe ated</w>
RO M</w>
19 5</w>
CP P</w>
In dependent</w>
la b</w>
bride ment</w>
pre clud
in ward</w>
en o
Correc tion</w>
tin nitus</w>
malon dialdehyde</w>
poin ting</w>
leph rine</w>
nan om
Apop tosis</w>
peri odic
muc ous</w>
ultra structure</w>
dou b
alkal oids</w>
pa st
br y
ide as</w>
ch ymo
auto immunity</w>
M U
gu ar
R ates</w>
Schwan n</w>
S AS</w>
bel ief</w>
E I</w>
ing ested</w>
B 7</w>
plan es</w>
lutein izing</w>
un successful</w>
ap p</w>
re distribution</w>
beta 2</w>
incid ences</w>
mess age</w>
Ag ing</w>
n ish</w>
infec tivity</w>
g al</w>
b ath</w>
Ab normal</w>
eukary otes</w>
em atics</w>
A .
V O</w>
En d</w>
str ands</w>
f idelity</w>
constitu ent</w>
neph ritis</w>
minim izing</w>
ig uous</w>
broncho alveolar</w>
Hy bri
ma ster</w>
fist ulas</w>
hem agglutinin</w>
mas ked</w>
kn esses</w>
at or
am ox
adhe sions</w>
Electr onic</w>
it um</w>
sci ences</w>
F ibr
anc ient</w>
E SI</w>
L TP</w>
c DNAs</w>
E u
E PA</w>
Compreh ensive</w>
reconstruc tive</w>
pl eth
List eria</w>
C 18</w>
ornith ine</w>
a ids</w>
cat abolism</w>
G ene
0. 36</w>
frame works</w>
T N</w>
ion izing</w>
lact one</w>
con du
x ic</w>
bir d</w>
L C
IC S</w>
impl antable</w>
m ates</w>
Uni variate</w>
jejun al</w>
Bet a</w>
un less</w>
shif ting</w>
vill i</w>
re pressed</w>
swit ched</w>
adrenoc eptors</w>
mon oc
phosphor yl
Sp earman</w>
opi ate</w>
im per
f en</w>
fici ency</w>
ro pol
CD 11
ab iotic</w>
par tur
ov sk
dichro ism</w>
Wil ey</w>
ol inium</w>
if ies</w>
ster oid
adju stments</w>
14 9</w>
glu con
H 1
H P
pin eal</w>
p ra
lab ile</w>
s ement</w>
EC MO</w>
ine ural</w>
rostr al</w>
neuro lep
glucos amine</w>
ac on
19 2</w>
ar one</w>
ascorb ate</w>
orb idity</w>
Al most</w>
0. 27</w>
Oxy gen</w>
p 1</w>
repeti tion</w>
comb at</w>
ob lique</w>
anti gen
G ood</w>
brid ging</w>
cing ulate</w>
el es</w>
glycos amin
gener al
B I
4 2
trim eth
g ad
awa ke</w>
dis si
con flu
Recur rent</w>
rib osomes</w>
encoun ter</w>
thalass emia</w>
lifes pan</w>
deliver ies</w>
A d</w>
D HE
ov ulatory</w>
de uter
Thir d</w>
Endo thelial</w>
0. 30</w>
parall eled</w>
reflex es</w>
inter disciplinary</w>
reg imes</w>
seas ons</w>
restric tions</w>
vibr ational</w>
ej ac
0. 38</w>
Abstr act
1. 73</w>
int ent</w>
17 4</w>
neuro developmental</w>
lact ating</w>
0. 48</w>
im ine</w>
wil lingness</w>
Y AG</w>
Tre g</w>
fo ve
metabol ized</w>
osom iasis</w>
pro kary
immun ob
O G</w>
intra epithelial</w>
rig orous</w>
squ ares</w>
eth eless</w>
heal ed</w>
sched ules</w>
od or</w>
emplo y</w>
L 3</w>
osurg ery</w>
oin osi
F As</w>
neo vascularization</w>
the tical</w>
micro glial</w>
sen ior</w>
pen dic
sym path
Traum a</w>
di z
eff eren
ag eous</w>
top ological</w>
an ide</w>
el ig
coun selling</w>
pol lin
de sis</w>
SV 40</w>
nanoc ryst
nanos cale</w>
S 3</w>
morb id</w>
F oc
blind ness</w>
0. 58</w>
neuro genesis</w>
od ine</w>
NI H</w>
vesi cal</w>
at l
cl ade</w>
Ac cum
0. 42</w>
inter fe
re imbur
work load</w>
par s</w>
relig ious</w>
Descrip tive</w>
shed ding</w>
su tures</w>
solubil ized</w>
multicentr e</w>
detox ification</w>
u ps</w>
P le
D CS</w>
no vation</w>
ex empl
hyper insulin
An t
afen ib</w>
dic ation</w>
0. 34</w>
ovari ectomized</w>
deform ities</w>
se a
here sis</w>
Predic tion</w>
acetyl cholinesterase</w>
or h
lepro sy</w>
d an
Camp ylobacter</w>
stere otactic</w>
us crip
1.0 7</w>
tolu ene</w>
r ad
de acetyl
18 5</w>
Fam il
homolog ue</w>
c ep
oc clusal</w>
ar tic
her bic
caroten e</w>
Abstract Text</w>
19 75</w>
B row
RNA i</w>
celi ac</w>
shor tly</w>
ste atosis</w>
amb iguous</w>
bio diversity</w>
vol ution
IN G</w>
L BP</w>
allo steric</w>
mosquit oes</w>
S um
T im
Ch alleng
00 0
M BP</w>
top ology</w>
0. 61</w>
venti lator</w>
Temper ature</w>
S pl
S he
Reg ression</w>
1.0 8</w>
L ack</w>
um b</w>
pec tor
flo x
optim izing</w>
ME S</w>
G ender</w>
im posed</w>
av alin</w>
sub scales</w>
bul b</w>
hypo phy
veget ative</w>
quinol ine</w>
mo ved</w>
train ees</w>
iter pen
id ate</w>
AT P
gene ic</w>
R e</w>
be sides</w>
pho to</w>
II Ia</w>
S 100
yl amine</w>
granul omatous</w>
mesang ial</w>
el vic</w>
at ar
non coding</w>
g ian</w>
bur g</w>
miti gate</w>
HR s</w>
gem citabine</w>
Ac tin
spi kes</w>
sym metrical</w>
ti me
Kin etic</w>
w ine</w>
in clusions</w>
0. 54</w>
k it
En zyme</w>
trif luoro
ap heresis</w>
M ob
el uted</w>
st ation</w>
RI A</w>
fac tion</w>
ari ans</w>
Re action</w>
Compar isons</w>
ir rit
crystall ization</w>
in still
icul us</w>
A A
ter ol</w>
manip ulated</w>
un event
0. 52</w>
0. 60</w>
d ac
pop ul
Mal ay
restr aint</w>
hex a
chap ter</w>
dam aging</w>
au to</w>
Pur ification</w>
Prote ins</w>
hypercholesterol emia</w>
advant ageous</w>
as simil
hu ge</w>
al bin
in digenous</w>
lo oking</w>
op yr
Inc ub
13. 5</w>
at able</w>
THE SIS</w>
f uro
t ate</w>
chic ine</w>
ob liter
perform s</w>
con currently</w>
wor ker</w>
enz a</w>
11. 1</w>
oste omyelitis</w>
AL A</w>
hum an
s angu
ex osomes</w>
prim e</w>
exce ed</w>
inter neurons</w>
coll ections</w>
Fi eld</w>
SS c</w>
buff ered</w>
at erials</w>
odop sin</w>
pat ernal</w>
Clinical Tri
Morph ological</w>
ar um</w>
constitu ted</w>
Decre ased</w>
ol ith
fol ic</w>
it eal</w>
cou ple</w>
Rh od
N IR</w>
Mechanis m</w>
inte rested</w>
bio assay</w>
termin ated</w>
0. 31</w>
ground water</w>
terre strial</w>
li thi
idi tis</w>
dig oxin</w>
osp asm</w>
anti convuls
trim ethyl
C ho
TH A</w>
mid azolam</w>
S AM
Consi der
M ig
acet onitrile</w>
Ig G1</w>
Ga ussian</w>
dis til
ST EMI</w>
streptoc occi</w>
imetr y</w>
Chang e</w>
om b
trac hom
co ffe
er i</w>
osph ere</w>
AM PA</w>
pre requisite</w>
co stly</w>
tol i</w>
extrap ol
man uscrip
ER D</w>
.0 2</w>
sial ic</w>
b an
set t
ch al
ri amycin</w>
cephal ospor
cle aning</w>
projec ted</w>
PC C</w>
Develop mental</w>
pl u
pedi atr
tic um</w>
yo u</w>
a esthetic</w>
il es</w>
In tensive</w>
cre d
clos ing</w>
De ep</w>
t ude</w>
amb igu
exacerb ations</w>
DM SO</w>
c ited</w>
less ons</w>
cap ital</w>
super vision</w>
fr ic
possess ing</w>
distr action</w>
fa ther</w>
migr atory</w>
SO 4</w>
3 20</w>
mirro r</w>
id o</w>
17 7</w>
i ens</w>
w ann
im mor
consul tations</w>
oxal ate</w>
Veter ans</w>
restric tive</w>
pack aging</w>
harv est</w>
standardis ed</w>
0. 53</w>
0. 43</w>
res emble</w>
anth ocyan
W BC</w>
sic k</w>
b evacizumab</w>
tryp an
CA L</w>
se w
B E
pare sis</w>
M an</w>
Recomm end
small est</w>
19 78</w>
rh abdomy
transpor tation</w>
ER G</w>
GT Pase</w>
TRA IL</w>
intrac table</w>
0. 40</w>
der m</w>
CI N</w>
gradu ates</w>
0. 46</w>
lys ate</w>
Iran ian</w>
AN ALY
Effici ent</w>
en a</w>
ab rup
i aceae</w>
puls atile</w>
chaper one</w>
b ariatric</w>
retin ol</w>
yto in</w>
assum e</w>
antagon istic</w>
adjunc tive</w>
intr at
dev ast
Antim icrobial</w>
Aor tic</w>
G d</w>
thrombo embolic</w>
0. 44</w>
in significant</w>
crib ed</w>
0. 57</w>
un translated</w>
S patial</w>
an ne
E SR</w>
is omer</w>
Smo king</w>
the astern</w>
gen otoxic</w>
13. 3</w>
H H</w>
Tradi tional</w>
Tur key</w>
is in</w>
Mod eling</w>
radionuc lide</w>
I OL</w>
olip id</w>
derm is</w>
TL R</w>
reth ral</w>
ra ft</w>
is oc
canc erous</w>
s an
pat ellar</w>
analge sics</w>
synchron ization</w>
com pressive</w>
tem po
PD A</w>
ure ter
infrequ ent</w>
nec rotizing</w>
review ers</w>
m ite</w>
no ea</w>
ag ulation</w>
adip ocyte</w>
He ad</w>
nephro tic</w>
fibrill ar</w>
PA S</w>
liqu ids</w>
cyt ological</w>
disrup t</w>
lipo xy
Sh ig
alge sia</w>
calorimetr y</w>
W KY</w>
oc ation</w>
chamb ers</w>
S SR
P DE
bot t
0. 59</w>
In testinal</w>
G BS</w>
0. 37</w>
orph in</w>
LVE F</w>
six th</w>
erythem a</w>
Per son
l ingu
off set</w>
w are</w>
PA D</w>
i ously</w>
my opia</w>
reconstitu tion</w>
acin ar</w>
dig ested</w>
leth ality</w>
C le
it real</w>
pe a</w>
t an</w>
0. 29</w>
Ch i
oc utaneous</w>
ME NT</w>
micro structure</w>
tris omy</w>
INTERVEN TION</w>
l av
Nin eteen</w>
loc ate</w>
sequ entially</w>
ke y
electro spray</w>
oder ma</w>
port able</w>
guid ing</w>
Ab dom
s ate</w>
re jec
trac ing</w>
sic kness</w>
asbest os</w>
mono amine</w>
conduc tive</w>
robo t</w>
neur ite</w>
R eli
erec tile</w>
deox yn
PC 12</w>
bi ophysical</w>
captop ril</w>
20 20</w>
Ser toli</w>
rab ies</w>
H SA</w>
Per s
My el
W C</w>
PT X</w>
ic il
me gal
V ery</w>
UD P</w>
dent ure</w>
norm ative</w>
con ferred</w>
lead ers</w>
nor th</w>
pheny lephrine</w>
inf antile</w>
mega kary
Remo val</w>
P sy
consi ders</w>
ol im
immunocyto chemistry</w>
hem olysis</w>
advanc ing</w>
Pois son</w>
trachom atis</w>
12 ,
UT I</w>
CRE B</w>
anti proliferative</w>
Rhe um
in ol</w>
ogen ously</w>
TI ON
negl ected</w>
flox acin</w>
coun ted</w>
th aw
remain der</w>
chec ked</w>
O P
cont our</w>
AN G</w>
o b</w>
ER P</w>
arri val</w>
over night</w>
bi otechn
CA S</w>
gin sen
Alter ations</w>
r umin
SI R
intra thecal</w>
z yg
M ain
h s</w>
b ach</w>
ob ium</w>
acr ylic</w>
hard ness</w>
adren al
hel ping</w>
alcoh ols</w>
O vari
D ip
Man n</w>
2, 5</w>
ac ral</w>
In si
A my
hydrox ide</w>
denti sts</w>
at uration</w>
air s</w>
contrac eption</w>
son ographic</w>
coffe e</w>
O X
cyan ide</w>
Amin o</w>
b .
0. 47</w>
I E</w>
con azole</w>
il is</w>
surroun ded</w>
ple as
s aph
B PH</w>
myel o
im possible</w>
yn e</w>
S can
ir is</w>
ClinicalTri als.gov</w>
od ys
immunocom pet
on y</w>
thor ax</w>
granul oma</w>
B is
C PAP</w>
end or
0. 39</w>
f asci
H CO
pep tic</w>
opin ions</w>
PL A2</w>
P BS</w>
an ni
S ing
en oid</w>
hyper calc
param agnetic</w>
if ers</w>
parox ysmal</w>
tran ce</w>
tal k</w>
absorb ance</w>
ascer tained</w>
6 5
phot osensi
Vi et
eo chrom
0. 51</w>
is lands</w>
0. 41</w>
infer tile</w>
bre ed</w>
Cir culating</w>
og lo
AP D</w>
crani ofacial</w>
standardi zation</w>
Spec ies</w>
relap sing</w>
pr ice</w>
v oid
off s</w>
Pe ak</w>
in ogen</w>
ed ges</w>
bar ic</w>
val pro
e uc
ex it</w>
macrom olecules</w>
hom ozyg
tet anus</w>
An terior</w>
ap ril</w>
Paren ts</w>
15 8</w>
A rea</w>
Dis ability</w>
of ur
C ha
ureth ane</w>
orig inate</w>
mid brain</w>
hall mark</w>
P Y
A trial</w>
mo tions</w>
or ange</w>
sist ant</w>
py el
ca ve
GF AP</w>
su stain</w>
transp arent</w>
Adolesc ents</w>
o estrogen</w>
belong ed</w>
hydr ated</w>
syn geneic</w>
az epam</w>
immer sion</w>
min us</w>
R u</w>
m Abs</w>
se where</w>
ch or
pe ti
tw itch</w>
mari juana</w>
ac o</w>
co vers</w>
D ynamics</w>
sym bi
sha ft</w>
man nit
yl transferase</w>
16 6</w>
sophis ticated</w>
osteoc last</w>
R D
PE C</w>
elig ibility</w>
f alling</w>
entr ic</w>
ag inal</w>
iter ative</w>
2 80</w>
Poly morph
vi an</w>
TE XT</w>
Predic tors</w>
doc etaxel</w>
ga ze</w>
S ite</w>
Identi fying</w>
no ur
0. 49</w>
yl yl</w>
res veratrol</w>
ro ds</w>
splen ectomy</w>
de bridement</w>
prote oglycan</w>
tin a</w>
visu alize</w>
Cas 9</w>
ten sor</w>
r onate</w>
equ ipped</w>
17 2</w>
E MS</w>
thous and</w>
1.0 9</w>
50 6</w>
CD C</w>
Ex tr
fibr illary</w>
RESUL T</w>
sub mucosal</w>
tun n
on asal</w>
meth adone</w>
it ly</w>
th ing</w>
amin oglyco
mon o</w>
di g</w>
pauc ity</w>
16 4</w>
M PO</w>
az o
20 6</w>
hypo plasia</w>
he ads</w>
R os
T K</w>
elev en</w>
so y</w>
AR C</w>
CXCR 4</w>
KE Y</w>
MA O</w>
cl oz
B ene
CO S</w>
t ons</w>
thorac otomy</w>
eyel id</w>
Assess ing</w>
lign in</w>
re organization</w>
encour aged</w>
INTER PRE
Mac roph
jejun um</w>
Al together</w>
infiltr ate</w>
fe el</w>
A sp
M 3</w>
implic it</w>
flow ering</w>
my ometr
phosph oinosi
op tera</w>
Sa har
ap tam
carb achol</w>
Abdom inal</w>
M Ab</w>
ventr icles</w>
enter al</w>
sand w
live stock</w>
As th
wash ed</w>
T ask</w>
mannit ol</w>
er as</w>
sup er</w>
fac ile</w>
af lat
a vir
B ank</w>
mater n
Rh iz
leishman iasis</w>
melan omas</w>
ti m</w>
cal oric</w>
prevent able</w>
CD s</w>
RN P</w>
str ated</w>
nucle ation</w>
w ind</w>
b erry</w>
16 2</w>
S us
PC B</w>
st ore</w>
l arynx</w>
lab els</w>
pe red</w>
copolym er</w>
a a</w>
gre y</w>
ket one</w>
ad vis
S en
Str ain</w>
dys lipidemia</w>
instruc tions</w>
gh relin</w>
fa thers</w>
My c</w>
F abr
ol uminescence</w>
scat ter</w>
wor th</w>
compan ies</w>
H M</w>
saf er</w>
read ers</w>
Clin ically</w>
Radi o
e IF
compens ated</w>
wash out</w>
Ethi opia</w>
caver nous</w>
bi og
mar keting</w>
neuro psychiatric</w>
2 30</w>
AR F</w>
synap se</w>
negl ect</w>
mon oxide</w>
in struction</w>
vi d</w>
hel ices</w>
appe tite</w>
F as
pres chool</w>
Whit ney</w>
tic ism</w>
H PV
u tively</w>
hypo thetical</w>
mut ual</w>
S j
go at</w>
el sewhere</w>
C ong
auth en
hydroph ob
2 O</w>
am y
D eli
inv ited</w>
PRE SEN
dynam ical</w>
un identified</w>
son i</w>
ro oms</w>
nucle ase</w>
vic inity</w>
INTERPRE TATION</w>
s r
sal mon</w>
bac ks</w>
gau ge</w>
L ep
correc ts</w>
rough ness</w>
basi lar</w>
ch lamy
he ated</w>
lik re
10. 3</w>
Targ eted</w>
C enters</w>
An es
pi ece</w>
pit ch</w>
M P
Li kewise</w>
vasodi lator</w>
at ally</w>
s h</w>
Pro long
mat ches</w>
ri b</w>
elim inating</w>
acet aminophen</w>
fer ro
ST Z</w>
n ess
c c</w>
ar rested</w>
c ocul
cl ot</w>
ver ification</w>
Intra operative</w>
oglo bin
C 3H</w>
ble omycin</w>
en sed</w>
pa w</w>
alcohol ism</w>
Extrac ellular</w>
Mut ation</w>
motoneur ons</w>
y er</w>
ic o
appro ached</w>
spermat ogenesis</w>
adj ust</w>
D G
chrom atic</w>
[...]
