{
  "!</w>": 20073,
  "#</w>": 11084,
  "$</w>": 3011,
  "%</w>": 24,
  "&#124;</w>": 22192,
  "&#91;</w>": 135,
  "&#93;</w>": 139,
  "&amp;</w>": 1514,
  "&apos;": 4617,
  "&apos;</w>": 104,
  "&apos;s</w>": 121,
  "&apos;t</w>": 10620,
  "&gt;</w>": 361,
  "&lt;</w>": 109,
  "&quot;</w>": 112,
  "(</w>": 12,
  ")</w>": 11,
  "*</w>": 2074,
  "+</w>": 51,
  ",": 8011,
  ",000</w>": 3111,
  ",</w>": 7,
  "-": 185,
  "--": 1659,
  "----": 17492,
  "--</w>": 4783,
  "--a</w>": 8636,
  "--an</w>": 33702,
  "--and</w>": 32366,
  "--in</w>": 29185,
  "--the</w>": 16667,
  "-.": 16100,
  "-0.": 2045,
  "-0.0": 18618,
  "-0.1</w>": 30526,
  "-0.2</w>": 28820,
  "-0.3</w>": 29820,
  "-0.4</w>": 30685,
  "-0.5</w>": 27073,
  "-0.6</w>": 33991,
  "-1-</w>": 30051,
  "-1.": 9049,
  "-100</w>": 28137,
  "-10</w>": 8005,
  "-11</w>": 20048,
  "-12</w>": 19793,
  "-13</w>": 27258,
  "-14</w>": 29875,
  "-15</w>": 23734,
  "-17</w>": 34060,
  "-18</w>": 32219,
  "-1</w>": 1188,
  "-2": 8988,
  "-2,5</w>": 32046,
  "-2-</w>": 29073,
  "-2.": 13483,
  "-20</w>": 16788,
  "-2</w>": 4215,
  "-3": 13475,
  "-3-</w>": 32901,
  "-3.": 17569,
  "-30</w>": 26055,
  "-3</w>": 5082,
  "-4": 16889,
  "-4.": 23782,
  "-40</w>": 27933,
  "-4</w>": 5672,
  "-5": 19158,
  "-5.": 28468,
  "-50</w>": 30290,
  "-5</w>": 5145,
  "-6": 24318,
  "-6.": 33375,
  "-60</w>": 31731,
  "-6</w>": 5451,
  "-7": 27112,
  "-70</w>": 32201,
  "-7</w>": 7450,
  "-8": 25382,
  "-80</w>": 26223,
  "-8</w>": 8377,
  "-9": 24846,
  "-9</w>": 9726,
  "-</w>": 81,
  "-ATPase</w>": 7047,
  "-B</w>": 32276,
  "-C</w>": 22770,
  "-D</w>": 34208,
  "-H</w>": 30066,
  "-K</w>": 20738,
  "-L</w>": 30387,
  "-N</w>": 14973,
  "-O</w>": 19166,
  "-UTR</w>": 25920,
  "-activated</w>": 20118,
  "-alpha</w>": 16814,
  "-associated</w>": 27253,
  "-based</w>": 10597,
  "-beta</w>": 16733,
  "-bi": 27322,
  "-binding</w>": 20117,
  "-containing</w>": 24031,
  "-cyclic</w>": 23324,
  "-deoxy": 16743,
  "-deoxyuridine</w>": 32641,
  "-dependent</w>": 7055,
  "-derived</w>": 32747,
  "-di": 9078,
  "-end</w>": 27514,
  "-flanking</w>": 24977,
  "-free</w>": 19268,
  "-independent</w>": 18341,
  "-induced</w>": 5371,
  "-infected</w>": 31547,
  "-like</w>": 18741,
  "-mediated</w>": 13674,
  "-monophosphate</w>": 22515,
  "-negative</w>": 32768,
  "-nitro</w>": 26760,
  "-nucleotidase</w>": 30484,
  "-phosphate</w>": 26428,
  "-positive</w>": 18937,
  "-related</w>": 23849,
  "-sensitive</w>": 28040,
  "-specific</w>": 26713,
  "-stimulated</w>": 21508,
  "-terminal</w>": 27893,
  "-treated</w>": 25409,
  "-triphosphate</w>": 27757,
  "-untranslated</w>": 24634,
  "-α</w>": 30181,
  ".": 941,
  ".-": 20395,
  "...</w>": 11475,
  "..</w>": 34150,
  ".0": 3685,
  ".00": 18097,
  ".000": 21606,
  ".0001</w>": 8884,
  ".001</w>": 2694,
  ".002</w>": 16868,
  ".003</w>": 21131,
  ".004</w>": 24199,
  ".005</w>": 18855,
  ".006</w>": 30076,
  ".007</w>": 32113,
  ".008</w>": 33518,
  ".01</w>": 5199,
  ".02</w>": 11971,
  ".03</w>": 14735,
  ".04</w>": 16382,
  ".05</w>": 3630,
  ".1</w>": 20663,
  ".</w>": 4,
  ".A.</w>": 30540,
  ".S": 23212,
  ".S.</w>": 26803,
  ".The</w>": 12919,
  ".com</w>": 20098,
  ".org</w>": 27436,
  "/</w>": 26,
  "0": 1591,
  "0,": 11268,
  "0-</w>": 34233,
  "0.": 2894,
  "0.0": 2397,
  "0.00": 4813,
  "0.000": 12579,
  "0.00001</w>": 20210,
  "0.0001</w>": 2023,
  "0.0002</w>": 18536,
  "0.0003</w>": 23984,
  "0.0004</w>": 27804,
  "0.0005</w>": 16071,
  "0.000</w>": 11205,
  "0.001</w>": 506,
  "0.002</w>": 4477,
  "0.003</w>": 5698,
  "0.004</w>": 6690,
  "0.005</w>": 4262,
  "0.006</w>": 8412,
  "0.007</w>": 9026,
  "0.008</w>": 9207,
  "0.009</w>": 10535,
  "0.00</w>": 13519,
  "0.010</w>": 19760,
  "0.011</w>": 15056,
  "0.012</w>": 13629,
  "0.013</w>": 14536,
  "0.014</w>": 14596,
  "0.015</w>": 13089,
  "0.016</w>": 14538,
  "0.017</w>": 15500,
  "0.018</w>": 15867,
  "0.019</w>": 17344,
  "0.01</w>": 763,
  "0.020</w>": 24884,
  "0.021</w>": 18958,
  "0.022</w>": 19366,
  "0.023</w>": 18910,
  "0.024</w>": 19071,
  "0.025</w>": 10654,
  "0.026</w>": 19435,
  "0.027</w>": 19625,
  "0.028</w>": 19089,
  "0.029</w>": 21138,
  "0.02</w>": 2470,
  "0.030</w>": 29030,
  "0.031</w>": 21951,
  "0.032</w>": 21509,
  "0.033</w>": 22601,
  "0.034</w>": 22236,
  "0.035</w>": 19656,
  "0.036</w>": 21433,
  "0.037</w>": 22050,
  "0.038</w>": 22201,
  "0.039</w>": 23595,
  "0.03</w>": 3104,
  "0.040</w>": 33587,
  "0.041</w>": 24813,
  "0.042</w>": 24328,
  "0.043</w>": 24444,
  "0.044</w>": 26496,
  "0.045</w>": 21639,
  "0.046</w>": 23235,
  "0.047</w>": 23690,
  "0.048</w>": 22934,
  "0.049</w>": 24525,
  "0.04</w>": 3593,
  "0.05</w>": 394,
  "0.06</w>": 6249,
  "0.07</w>": 7103,
  "0.08</w>": 7012,
  "0.09</w>": 8127,
  "0.0</w>": 9820,
  "0.1": 33912,
  "0.10</w>": 8312,
  "0.11</w>": 9657,
  "0.125</w>": 24964,
  "0.12</w>": 8564,
  "0.13</w>": 9656,
  "0.14</w>": 9696,
  "0.15</w>": 6871,
  "0.16</w>": 9796,
  "0.17</w>": 10382,
  "0.18</w>": 10239,
  "0.19</w>": 11100,
  "0.1</w>": 1610,
  "0.2": 6239,
  "0.20</w>": 10539,
  "0.21</w>": 10930,
  "0.22</w>": 10749,
  "0.23</w>": 11134,
  "0.24</w>": 10983,
  "0.25</w>": 4839,
  "0.26</w>": 11382,
  "0.27</w>": 11697,
  "0.28</w>": 11365,
  "0.29</w>": 12133,
  "0.2</w>": 2259,
  "0.3": 6428,
  "0.30</w>": 11725,
  "0.31</w>": 11947,
  "0.32</w>": 11111,
  "0.33</w>": 10824,
  "0.34</w>": 11798,
  "0.35</w>": 9829,
  "0.36</w>": 11649,
  "0.37</w>": 12117,
  "0.38</w>": 11735,
  "0.39</w>": 12257,
  "0.3</w>": 2464,
  "0.4": 6931,
  "0.40</w>": 12033,
  "0.41</w>": 12273,
  "0.42</w>": 11783,
  "0.43</w>": 12017,
  "0.44</w>": 12058,
  "0.45</w>": 9935,
  "0.46</w>": 12037,
  "0.47</w>": 12241,
  "0.48</w>": 11745,
  "0.49</w>": 12362,
  "0.4</w>": 2805,
  "0.5": 6105,
  "0.50</w>": 10410,
  "0.51</w>": 12271,
  "0.52</w>": 11891,
  "0.53</w>": 12015,
  "0.54</w>": 11873,
  "0.55</w>": 11176,
  "0.56</w>": 11304,
  "0.57</w>": 12064,
  "0.58</w>": 11777,
  "0.59</w>": 12115,
  "0.5</w>": 1211,
  "0.6": 5932,
  "0.60</w>": 11893,
  "0.61</w>": 11834,
  "0.62</w>": 11463,
  "0.63</w>": 11278,
  "0.64</w>": 11366,
  "0.65</w>": 10291,
  "0.66</w>": 11207,
  "0.67</w>": 10648,
  "0.68</w>": 11182,
  "0.69</w>": 11329,
  "0.6</w>": 3010,
  "0.7": 4710,
  "0.70</w>": 10791,
  "0.71</w>": 10234,
  "0.72</w>": 10674,
  "0.73</w>": 10310,
  "0.74</w>": 10186,
  "0.75</w>": 6806,
  "0.76</w>": 10003,
  "0.77</w>": 10098,
  "0.78</w>": 9692,
  "0.79</w>": 10236,
  "0.7</w>": 3407,
  "0.8": 4520,
  "0.80</w>": 9937,
  "0.81</w>": 10006,
  "0.82</w>": 9852,
  "0.83</w>": 9485,
  "0.84</w>": 9776,
  "0.85</w>": 8865,
  "0.86</w>": 9567,
  "0.87</w>": 9628,
  "0.88</w>": 9480,
  "0.89</w>": 9478,
  "0.8</w>": 3070,
  "0.9": 3620,
  "0.90</w>": 9870,
  "0.91</w>": 9555,
  "0.92</w>": 9387,
  "0.93</w>": 9368,
  "0.94</w>": 9311,
  "0.95</w>": 8814,
  "0.96</w>": 9003,
  "0.97</w>": 9062,
  "0.98</w>": 8666,
  "0.99": 28608,
  "0.99</w>": 8043,
  "0.9</w>": 3351,
  "00": 4129,
  "000": 11831,
  "0000": 21773,
  "0001</w>": 29869,
  "000</w>": 4566,
  "001</w>": 13079,
  "002</w>": 20313,
  "00</w>": 4094,
  "01</w>": 3430,
  "02</w>": 6978,
  "03</w>": 8015,
  "04</w>": 8368,
  "05</w>": 7277,
  "06</w>": 8559,
  "07</w>": 8976,
  "08</w>": 9114,
  "09": 32325,
  "09</w>": 8692,
  "0</w>": 583,
  "0s</w>": 36597,
  "1": 926,
  "1,": 3052,
  "1,0": 10516,
  "1,000</w>": 6555,
  "1,10</w>": 31158,
  "1,1</w>": 15133,
  "1,2,": 27507,
  "1,2,3,": 29979,
  "1,2,3</w>": 29241,
  "1,2,4</w>": 20578,
  "1,25-</w>": 26321,
  "1,25</w>": 9582,
  "1,2</w>": 5905,
  "1,3": 16692,
  "1,3,5</w>": 27074,
  "1,3</w>": 6509,
  "1,4": 16966,
  "1,4,5</w>": 16923,
  "1,4</w>": 7953,
  "1,5": 18493,
  "1,500</w>": 26466,
  "1,5</w>": 17097,
  "1,6": 19820,
  "1,6</w>": 15503,
  "1,7": 20826,
  "1,8": 21834,
  "1,8</w>": 32011,
  "1,9": 23611,
  "1--": 27259,
  "1----": 27984,
  "1--</w>": 16076,
  "1-</w>": 4235,
  "1.": 3182,
  "1.0": 7290,
  "1.00": 27023,
  "1.00</w>": 8674,
  "1.01</w>": 10011,
  "1.02</w>": 10081,
  "1.03</w>": 10342,
  "1.04</w>": 10547,
  "1.05</w>": 10467,
  "1.06</w>": 11179,
  "1.07</w>": 11809,
  "1.08</w>": 11838,
  "1.09</w>": 12378,
  "1.0</w>": 1998,
  "1.10</w>": 12866,
  "1.11</w>": 12784,
  "1.12</w>": 12799,
  "1.13</w>": 13056,
  "1.14</w>": 13077,
  "1.15</w>": 12892,
  "1.16</w>": 13611,
  "1.17</w>": 13884,
  "1.18</w>": 14102,
  "1.19</w>": 14606,
  "1.1</w>": 2775,
  "1.20</w>": 14719,
  "1.21</w>": 14319,
  "1.22</w>": 14855,
  "1.23</w>": 14598,
  "1.24</w>": 15048,
  "1.25</w>": 8657,
  "1.26</w>": 15428,
  "1.27</w>": 15564,
  "1.28</w>": 15664,
  "1.29</w>": 16465,
  "1.2</w>": 2557,
  "1.3": 21038,
  "1.30</w>": 16681,
  "1.31</w>": 16529,
  "1.32</w>": 16282,
  "1.33</w>": 16057,
  "1.34</w>": 16725,
  "1.35</w>": 15752,
  "1.36</w>": 16849,
  "1.37</w>": 17222,
  "1.38</w>": 17333,
  "1.39</w>": 18031,
  "1.3</w>": 2865,
  "1.4": 21966,
  "1.40</w>": 18325,
  "1.41</w>": 18632,
  "1.42</w>": 17777,
  "1.43</w>": 17312,
  "1.44</w>": 18722,
  "1.45</w>": 17055,
  "1.46</w>": 18976,
  "1.47</w>": 19036,
  "1.48</w>": 19047,
  "1.49</w>": 19602,
  "1.4</w>": 3087,
  "1.5": 16126,
  "1.50</w>": 18861,
  "1.51</w>": 20119,
  "1.52</w>": 19895,
  "1.53</w>": 19959,
  "1.54</w>": 19456,
  "1.55</w>": 19238,
  "1.56</w>": 18946,
  "1.57</w>": 20631,
  "1.58</w>": 20598,
  "1.59</w>": 22153,
  "1.5</w>": 1641,
  "1.6": 24392,
  "1.60</w>": 22293,
  "1.61</w>": 22299,
  "1.62</w>": 21826,
  "1.63</w>": 21328,
  "1.64</w>": 21456,
  "1.65</w>": 19956,
  "1.66</w>": 21410,
  "1.67</w>": 19090,
  "1.68</w>": 22462,
  "1.69</w>": 22869,
  "1.6</w>": 3078,
  "1.7": 26270,
  "1.70</w>": 24062,
  "1.71</w>": 23407,
  "1.72</w>": 22753,
  "1.73</w>": 11738,
  "1.74</w>": 23294,
  "1.75</w>": 17357,
  "1.76</w>": 22984,
  "1.77</w>": 24277,
  "1.78</w>": 23069,
  "1.79</w>": 24766,
  "1.7</w>": 3510,
  "1.8": 26588,
  "1.80</w>": 25142,
  "1.81</w>": 24885,
  "1.82</w>": 23934,
  "1.83</w>": 24481,
  "1.84</w>": 24926,
  "1.85</w>": 22037,
  "1.86</w>": 24348,
  "1.87</w>": 24717,
  "1.88</w>": 25161,
  "1.89</w>": 25122,
  "1.8</w>": 3258,
  "1.9": 27283,
  "1.90</w>": 27047,
  "1.91</w>": 27067,
  "1.92</w>": 25349,
  "1.93</w>": 26381,
  "1.94</w>": 26427,
  "1.95</w>": 23335,
  "1.96</w>": 24219,
  "1.97</w>": 26828,
  "1.98</w>": 26199,
  "1.99</w>": 27974,
  "1.9</w>": 3690,
  "1.min</w>": 26793,
  "10": 1266,
  "10,": 10401,
  "10,000</w>": 10055,
  "10-</w>": 17963,
  "10.": 5843,
  "10.0</w>": 10044,
  "10.10": 34461,
  "10.1</w>": 13897,
  "10.2</w>": 12808,
  "10.3</w>": 12544,
  "10.4</w>": 13070,
  "10.5</w>": 9685,
  "10.6</w>": 13047,
  "10.7</w>": 13385,
  "10.8</w>": 13085,
  "10.9</w>": 14119,
  "100": 6323,
  "100,000</w>": 6761,
  "100.0</w>": 31869,
  "1000</w>": 3039,
  "100</w>": 359,
  "101</w>": 5260,
  "102</w>": 6394,
  "103</w>": 6629,
  "104</w>": 6656,
  "105</w>": 5578,
  "106</w>": 7145,
  "107</w>": 7637,
  "108</w>": 7184,
  "109": 27815,
  "109</w>": 7894,
  "10</w>": 91,
  "10A</w>": 24360,
  "10th</w>": 15910,
  "11": 3059,
  "11,": 13430,
  "11.": 6233,
  "11.0</w>": 15748,
  "11.1</w>": 11917,
  "11.2</w>": 10153,
  "11.3</w>": 13826,
  "11.4</w>": 13627,
  "11.5</w>": 10698,
  "11.6</w>": 14166,
  "11.7</w>": 14288,
  "11.8</w>": 13778,
  "11.9</w>": 15194,
  "110": 22159,
  "1100</w>": 29415,
  "110</w>": 4481,
  "111": 37854,
  "111</w>": 6334,
  "111In</w>": 26271,
  "112</w>": 7940,
  "113": 32344,
  "113</w>": 8866,
  "114</w>": 8430,
  "115</w>": 7462,
  "116</w>": 8097,
  "117</w>": 8742,
  "118</w>": 9014,
  "119</w>": 9509,
  "11</w>": 402,
  "11C</w>": 19999,
  "12": 1740,
  "12,": 12196,
  "12-</w>": 26597,
  "12.": 6918,
  "12.0</w>": 15072,
  "12.1</w>": 14811,
  "12.2</w>": 14647,
  "12.3</w>": 14545,
  "12.4</w>": 15684,
  "12.5</w>": 6652,
  "12.6</w>": 14897,
  "12.7</w>": 15327,
  "12.8</w>": 14635,
  "12.9</w>": 15567,
  "120": 21426,
  "1200</w>": 16264,
  "120</w>": 2382,
  "1210</w>": 37808,
  "121</w>": 8996,
  "122</w>": 8253,
  "123": 36391,
  "123</w>": 6773,
  "123I</w>": 24063,
  "124": 36227,
  "124</w>": 8503,
  "125": 16328,
  "125</w>": 4220,
  "125I</w>": 4843,
  "126": 32711,
  "126</w>": 7183,
  "127</w>": 8983,
  "128</w>": 8053,
  "129": 24629,
  "129</w>": 8807,
  "12</w>": 198,
  "12th</w>": 23228,
  "13": 1992,
  "13,": 15545,
  "13.": 7347,
  "13.0</w>": 18028,
  "13.1</w>": 15659,
  "13.2</w>": 14670,
  "13.3</w>": 12074,
  "13.4</w>": 16103,
  "13.5</w>": 11912,
  "13.6</w>": 14748,
  "13.7</w>": 16522,
  "13.8</w>": 15730,
  "13.9</w>": 17026,
  "130": 19657,
  "1300</w>": 31187,
  "130</w>": 5507,
  "131</w>": 7866,
  "131I</w>": 17141,
  "132</w>": 8754,
  "133</w>": 9211,
  "134</w>": 10132,
  "135</w>": 8086,
  "136</w>": 10441,
  "137": 26162,
  "137</w>": 9409,
  "138</w>": 9616,
  "139</w>": 9998,
  "13</w>": 465,
  "13C</w>": 9312,
  "14": 2106,
  "14,": 15399,
  "14.": 8036,
  "14.0</w>": 19637,
  "14.1</w>": 17090,
  "14.2</w>": 16351,
  "14.3</w>": 12949,
  "14.4</w>": 17307,
  "14.5</w>": 12920,
  "14.6</w>": 16357,
  "14.7</w>": 16859,
  "14.8</w>": 16608,
  "14.9</w>": 18405,
  "140": 24361,
  "1400</w>": 32479,
  "140</w>": 5017,
  "141</w>": 10590,
  "142</w>": 10070,
  "143</w>": 10267,
  "144</w>": 9300,
  "145</w>": 7291,
  "146</w>": 10691,
  "146a</w>": 29379,
  "147</w>": 10333,
  "148</w>": 11276,
  "149</w>": 11683,
  "14</w>": 400,
  "14C</w>": 4544,
  "14th</w>": 29810,
  "15": 2127,
  "15,": 17430,
  "15,000</w>": 32189,
  "15.": 8870,
  "15.0</w>": 18680,
  "15.1</w>": 18770,
  "15.2</w>": 17239,
  "15.3</w>": 17199,
  "15.4</w>": 16183,
  "15.5</w>": 14452,
  "15.6</w>": 16644,
  "15.7</w>": 18487,
  "15.8</w>": 17381,
  "15.9</w>": 19691,
  "150": 18981,
  "1500</w>": 12870,
  "150</w>": 2582,
  "151</w>": 11298,
  "152</w>": 10679,
  "153</w>": 10374,
  "154</w>": 10537,
  "155</w>": 8290,
  "156</w>": 11379,
  "157</w>": 12045,
  "158</w>": 12303,
  "159</w>": 12680,
  "15</w>": 274,
  "15N</w>": 18448,
  "15th</w>": 32131,
  "16": 2143,
  "16,": 17763,
  "16.": 9636,
  "16.0</w>": 20606,
  "16.1</w>": 19394,
  "16.2</w>": 18734,
  "16.3</w>": 18115,
  "16.4</w>": 19370,
  "16.5</w>": 15542,
  "16.6</w>": 18376,
  "16.7</w>": 12666,
  "16.8</w>": 20215,
  "16.9</w>": 20594,
  "160": 26982,
  "1600</w>": 27335,
  "160</w>": 5552,
  "161</w>": 12932,
  "162</w>": 12467,
  "163</w>": 13559,
  "164</w>": 12390,
  "165</w>": 10136,
  "166</w>": 12342,
  "167</w>": 13134,
  "168</w>": 10859,
  "169</w>": 13193,
  "16</w>": 479,
  "16S</w>": 6252,
  "17": 2103,
  "17,": 18584,
  "17.": 10553,
  "17.0</w>": 22944,
  "17.1</w>": 20335,
  "17.2</w>": 19258,
  "17.3</w>": 20142,
  "17.4</w>": 19484,
  "17.5</w>": 14507,
  "17.6</w>": 17908,
  "17.7</w>": 21173,
  "17.8</w>": 19867,
  "17.9</w>": 20391,
  "170": 26809,
  "170</w>": 8093,
  "171</w>": 13564,
  "172</w>": 12375,
  "173</w>": 13901,
  "174</w>": 11741,
  "175</w>": 10289,
  "176</w>": 13549,
  "177</w>": 12006,
  "178</w>": 13974,
  "179</w>": 14400,
  "17</w>": 580,
  "17A</w>": 19270,
  "17F</w>": 33893,
  "17beta</w>": 16699,
  "17β</w>": 27397,
  "18": 1940,
  "18,": 21197,
  "18.": 10721,
  "18.0</w>": 24043,
  "18.1</w>": 22041,
  "18.2</w>": 17792,
  "18.3</w>": 20892,
  "18.4</w>": 20815,
  "18.5</w>": 13853,
  "18.6</w>": 20617,
  "18.7</w>": 21981,
  "18.8</w>": 19567,
  "18.9</w>": 21945,
  "180": 22653,
  "1800</w>": 28289,
  "180</w>": 4253,
  "181</w>": 13569,
  "182</w>": 12916,
  "183</w>": 13092,
  "184</w>": 13520,
  "185</w>": 11812,
  "186</w>": 12725,
  "187</w>": 14031,
  "188</w>": 12996,
  "189</w>": 14490,
  "18</w>": 414,
  "18F</w>": 11349,
  "18S</w>": 20499,
  "19": 1593,
  "19,": 25115,
  "19.": 12632,
  "19.0</w>": 24814,
  "19.1</w>": 23024,
  "19.2</w>": 20646,
  "19.3</w>": 22246,
  "19.4</w>": 20357,
  "19.5</w>": 18504,
  "19.6</w>": 21049,
  "19.7</w>": 22818,
  "19.8</w>": 22440,
  "19.9</w>": 24000,
  "190</w>": 9827,
  "191</w>": 14499,
  "192</w>": 11690,
  "193</w>": 14603,
  "194</w>": 14476,
  "1950</w>": 24960,
  "1950s</w>": 33359,
  "195</w>": 11561,
  "1960</w>": 21913,
  "1960s</w>": 25649,
  "1963</w>": 34506,
  "1964</w>": 30883,
  "1965</w>": 23729,
  "1966</w>": 18792,
  "1967</w>": 26954,
  "1968</w>": 22559,
  "1969</w>": 22063,
  "196</w>": 13490,
  "1970</w>": 13160,
  "1970s</w>": 20300,
  "1971</w>": 18508,
  "1972</w>": 17130,
  "1973</w>": 15022,
  "1974</w>": 13912,
  "1975</w>": 11818,
  "1976</w>": 13122,
  "1977</w>": 13016,
  "1978</w>": 12027,
  "1979</w>": 11167,
  "197</w>": 14208,
  "198": 30182,
  "1980</w>": 7048,
  "1980s</w>": 16834,
  "1981</w>": 9901,
  "1982</w>": 9213,
  "1983</w>": 9322,
  "1984</w>": 8583,
  "1985</w>": 7154,
  "1986</w>": 7355,
  "1987</w>": 6949,
  "1988</w>": 6478,
  "1989</w>": 6483,
  "198</w>": 14139,
  "199": 21235,
  "1990</w>": 4590,
  "1990s</w>": 16498,
  "1991</w>": 5819,
  "1992</w>": 5533,
  "1993</w>": 5539,
  "1994</w>": 5219,
  "1995</w>": 4772,
  "1996</w>": 4910,
  "1997</w>": 4781,
  "1998</w>": 4631,
  "1999</w>": 4573,
  "199</w>": 12913,
  "19</w>": 656,
  "19th</w>": 27409,
  "1</w>": 36,
  "1A1</w>": 16918,
  "1A2</w>": 28885,
  "1A</w>": 4593,
  "1B1</w>": 25963,
  "1B</w>": 7045,
  "1C</w>": 13360,
  "1D</w>": 10915,
  "1E</w>": 32588,
  "1G</w>": 20586,
  "1H</w>": 6157,
  "1I</w>": 38104,
  "1L</w>": 24278,
  "1P</w>": 35287,
  "1R</w>": 7498,
  "1S</w>": 22437,
  "1T</w>": 28675,
  "1a</w>": 4964,
  "1alpha</w>": 8522,
  "1b</w>": 7379,
  "1beta</w>": 7333,
  "1c</w>": 14410,
  "1d</w>": 29067,
  "1p": 30730,
  "1p</w>": 9345,
  "1ra</w>": 31451,
  "1s</w>": 27383,
  "1st</w>": 7932,
  "1α</w>": 6663,
  "1β</w>": 5624,
  "2": 657,
  "2,": 3857,
  "2,0": 22813,
  "2,000</w>": 12738,
  "2,2</w>": 10029,
  "2,3,": 27119,
  "2,3,7,8</w>": 31259,
  "2,3</w>": 6870,
  "2,4,6</w>": 26316,
  "2,4</w>": 8391,
  "2,5": 33281,
  "2,5</w>": 15348,
  "2,6": 31897,
  "2,6</w>": 11512,
  "2,7": 25827,
  "2,8": 31577,
  "2,9": 32529,
  "2-</w>": 3162,
  "2.": 1208,
  "2.0": 21617,
  "2.00</w>": 23515,
  "2.01</w>": 28713,
  "2.02</w>": 27089,
  "2.03</w>": 26947,
  "2.04</w>": 26385,
  "2.05</w>": 25867,
  "2.06</w>": 27720,
  "2.07</w>": 27590,
  "2.08</w>": 27306,
  "2.09</w>": 29216,
  "2.0</w>": 2766,
  "2.10</w>": 28566,
  "2.11</w>": 29847,
  "2.12</w>": 28944,
  "2.13</w>": 28828,
  "2.14</w>": 28835,
  "2.15</w>": 25203,
  "2.16</w>": 30030,
  "2.17</w>": 29578,
  "2.18</w>": 31163,
  "2.19</w>": 32012,
  "2.1</w>": 3545,
  "2.20</w>": 33334,
  "2.21</w>": 32886,
  "2.22</w>": 30781,
  "2.23</w>": 31263,
  "2.24</w>": 31221,
  "2.25</w>": 23052,
  "2.26</w>": 31498,
  "2.27</w>": 30427,
  "2.28</w>": 32474,
  "2.29</w>": 33378,
  "2.2</w>": 3414,
  "2.30</w>": 34329,
  "2.31</w>": 32739,
  "2.32</w>": 33453,
  "2.33</w>": 30863,
  "2.34</w>": 33303,
  "2.35</w>": 29732,
  "2.36</w>": 33526,
  "2.37</w>": 34693,
  "2.38</w>": 32101,
  "2.3</w>": 3846,
  "2.43</w>": 34849,
  "2.45</w>": 30061,
  "2.4</w>": 3582,
  "2.5": 25930,
  "2.50</w>": 29980,
  "2.54</w>": 34745,
  "2.56</w>": 34191,
  "2.5</w>": 1768,
  "2.65</w>": 34841,
  "2.6</w>": 3791,
  "2.75</w>": 28919,
  "2.7</w>": 4137,
  "2.8</w>": 4050,
  "2.9</w>": 4250,
  "2.</w>": 28660,
  "20": 2278,
  "20,": 25670,
  "20,000</w>": 18495,
  "20.0</w>": 17159,
  "20.1</w>": 26334,
  "20.2</w>": 25420,
  "20.3</w>": 23866,
  "20.4</w>": 23605,
  "20.5</w>": 19992,
  "20.6</w>": 23478,
  "20.7</w>": 24198,
  "20.8</w>": 22195,
  "20.9</w>": 25792,
  "200": 9957,
  "200,000</w>": 33585,
  "2000</w>": 2488,
  "2001</w>": 4549,
  "2002</w>": 4841,
  "2003</w>": 5217,
  "2004</w>": 4985,
  "2005</w>": 4451,
  "2006</w>": 4603,
  "2007</w>": 4446,
  "2008</w>": 4072,
  "2009</w>": 3704,
  "200</w>": 1437,
  "201": 37140,
  "2010</w>": 2889,
  "2011</w>": 2998,
  "2012</w>": 2466,
  "2013</w>": 2272,
  "2014</w>": 2137,
  "2015</w>": 2161,
  "2016</w>": 2269,
  "2017</w>": 2906,
  "2018</w>": 4142,
  "2019</w>": 6163,
  "201</w>": 8232,
  "201Tl</w>": 33946,
  "2020</w>": 12166,
  "202</w>": 12855,
  "2030</w>": 33138,
  "203</w>": 13110,
  "204</w>": 12656,
  "205</w>": 11306,
  "206</w>": 12392,
  "207</w>": 14393,
  "208</w>": 14957,
  "209</w>": 14114,
  "20</w>": 219,
  "20th</w>": 18782,
  "21": 14974,
  "21.0</w>": 28234,
  "21.1</w>": 20747,
  "21.2</w>": 22580,
  "21.3</w>": 20325,
  "21.4</w>": 20487,
  "21.5</w>": 20969,
  "21.6</w>": 23267,
  "21.7</w>": 22917,
  "21.8</w>": 25193,
  "21.9</w>": 25528,
  "210</w>": 9172,
  "211</w>": 16408,
  "212</w>": 13666,
  "213</w>": 15965,
  "214</w>": 14868,
  "215</w>": 15891,
  "216</w>": 16094,
  "217</w>": 17612,
  "218</w>": 16523,
  "219</w>": 18570,
  "21</w>": 627,
  "21st</w>": 21424,
  "22": 5153,
  "22.": 14658,
  "22.0</w>": 27867,
  "22.1</w>": 24319,
  "22.2</w>": 18315,
  "22.3</w>": 23100,
  "22.4</w>": 24350,
  "22.5</w>": 17831,
  "22.6</w>": 24092,
  "22.7</w>": 23029,
  "22.8</w>": 25589,
  "22.9</w>": 26092,
  "220</w>": 9327,
  "221</w>": 15081,
  "222</w>": 14803,
  "223</w>": 15067,
  "224</w>": 17613,
  "225</w>": 13750,
  "226</w>": 16550,
  "227</w>": 19362,
  "228</w>": 18583,
  "229</w>": 19494,
  "22</w>": 777,
  "22q": 20805,
  "23": 4005,
  "23,": 33435,
  "23.": 14774,
  "23.0</w>": 31217,
  "23.1</w>": 21610,
  "23.2</w>": 26202,
  "23.3</w>": 21551,
  "23.4</w>": 24858,
  "23.5</w>": 19349,
  "23.6</w>": 26350,
  "23.7</w>": 26653,
  "23.8</w>": 23442,
  "23.9</w>": 27955,
  "230</w>": 12506,
  "23187</w>": 38052,
  "231</w>": 9455,
  "232</w>": 18241,
  "233</w>": 20076,
  "234</w>": 19224,
  "235</w>": 16161,
  "236</w>": 19481,
  "237</w>": 20341,
  "238</w>": 18775,
  "239</w>": 18188,
  "23</w>": 908,
  "23S</w>": 28911,
  "24": 4229,
  "24,": 24246,
  "24.": 13956,
  "24.0</w>": 30476,
  "24.1</w>": 24415,
  "24.2</w>": 25158,
  "24.3</w>": 23685,
  "24.4</w>": 26018,
  "24.5</w>": 22314,
  "24.6</w>": 26463,
  "24.7</w>": 27960,
  "24.8</w>": 28046,
  "24.9</w>": 29010,
  "240</w>": 8070,
  "241</w>": 20077,
  "242</w>": 18936,
  "243</w>": 19289,
  "244</w>": 20602,
  "245</w>": 18928,
  "246</w>": 20301,
  "247</w>": 19904,
  "248</w>": 19195,
  "249</w>": 21191,
  "24</w>": 334,
  "24h</w>": 15528,
  "25": 3693,
  "25,": 30546,
  "25-</w>": 31801,
  "25.": 16561,
  "25.0</w>": 19500,
  "25.1</w>": 31230,
  "25.2</w>": 28351,
  "25.3</w>": 26942,
  "25.4</w>": 27244,
  "25.5</w>": 23477,
  "25.6</w>": 25630,
  "25.7</w>": 27500,
  "25.8</w>": 26829,
  "25.9</w>": 27977,
  "2500</w>": 20414,
  "250</w>": 2040,
  "251</w>": 15578,
  "252</w>": 19101,
  "253</w>": 21259,
  "254</w>": 16903,
  "255</w>": 19545,
  "256</w>": 14073,
  "257</w>": 20740,
  "258</w>": 20387,
  "259</w>": 21653,
  "25</w>": 434,
  "25th</w>": 33223,
  "26": 4692,
  "26,": 30971,
  "26.": 16878,
  "26.1</w>": 27414,
  "26.2</w>": 27447,
  "26.3</w>": 24008,
  "26.4</w>": 27902,
  "26.5</w>": 22840,
  "26.6</w>": 27098,
  "26.7</w>": 22555,
  "26.8</w>": 27425,
  "26.9</w>": 28022,
  "260</w>": 13059,
  "261</w>": 20161,
  "262</w>": 21203,
  "263</w>": 20593,
  "264.7</w>": 25487,
  "264</w>": 19761,
  "265</w>": 19616,
  "266</w>": 18514,
  "267</w>": 21637,
  "268</w>": 18824,
  "269</w>": 22625,
  "26</w>": 991,
  "27": 3972,
  "27,": 34047,
  "27.": 17679,
  "27.1</w>": 29816,
  "27.2</w>": 29148,
  "27.3</w>": 22248,
  "27.4</w>": 29957,
  "27.5</w>": 21221,
  "27.6</w>": 27788,
  "27.7</w>": 28738,
  "27.8</w>": 25642,
  "27.9</w>": 30884,
  "270</w>": 13178,
  "271</w>": 21312,
  "272</w>": 21444,
  "273</w>": 20836,
  "274</w>": 21995,
  "275</w>": 18291,
  "276</w>": 21838,
  "277</w>": 22505,
  "278</w>": 22743,
  "279</w>": 23762,
  "27</w>": 1031,
  "28": 3977,
  "28.": 13965,
  "28.1</w>": 29817,
  "28.2</w>": 29456,
  "28.3</w>": 28011,
  "28.4</w>": 29855,
  "28.5</w>": 24384,
  "28.6</w>": 19079,
  "28.7</w>": 30734,
  "28.8</w>": 27770,
  "28.9</w>": 29062,
  "280</w>": 12354,
  "281</w>": 23482,
  "282</w>": 23110,
  "283</w>": 23205,
  "284</w>": 24101,
  "285</w>": 21702,
  "286</w>": 22747,
  "287</w>": 24320,
  "288</w>": 21176,
  "289</w>": 24096,
  "28</w>": 880,
  "29": 4552,
  "29.": 14834,
  "29.1</w>": 31020,
  "29.2</w>": 28066,
  "29.3</w>": 29727,
  "29.4</w>": 25972,
  "29.5</w>": 26484,
  "29.6</w>": 27961,
  "29.7</w>": 30694,
  "29.8</w>": 31137,
  "29.9</w>": 28716,
  "290</w>": 17325,
  "291</w>": 24027,
  "292</w>": 23713,
  "293</w>": 13060,
  "294": 38145,
  "294002</w>": 38861,
  "294</w>": 24229,
  "295</w>": 21795,
  "296</w>": 22832,
  "297</w>": 24259,
  "298</w>": 20050,
  "299</w>": 23269,
  "29</w>": 1205,
  "2</w>": 40,
  "2A</w>": 4553,
  "2B</w>": 7851,
  "2C</w>": 11168,
  "2D3</w>": 13080,
  "2D</w>": 3544,
  "2H</w>": 13336,
  "2K</w>": 30585,
  "2L</w>": 29949,
  "2M</w>": 18379,
  "2O3</w>": 16822,
  "2O</w>": 22466,
  "2R</w>": 8273,
  "2S</w>": 16390,
  "2a</w>": 6765,
  "2alpha</w>": 18959,
  "2b</w>": 8319,
  "2c</w>": 25063,
  "2d</w>": 29302,
  "2h</w>": 33795,
  "2m</w>": 29986,
  "2n</w>": 25137,
  "2nd</w>": 10487,
  "2p</w>": 18279,
  "2α</w>": 19844,
  "3": 678,
  "3&apos;": 29849,
  "3&apos;UTR</w>": 30811,
  "3,": 4273,
  "3,0": 30507,
  "3,000</w>": 26535,
  "3,2</w>": 34806,
  "3,3</w>": 17181,
  "3,4,5</w>": 29014,
  "3,4</w>": 6969,
  "3,5</w>": 13541,
  "3,6</w>": 34907,
  "3-</w>": 4221,
  "3.": 1057,
  "3.0": 31524,
  "3.0</w>": 3575,
  "3.1</w>": 3988,
  "3.25</w>": 34398,
  "3.2</w>": 3814,
  "3.33</w>": 31480,
  "3.3</w>": 5009,
  "3.4</w>": 4311,
  "3.5</w>": 3066,
  "3.6</w>": 4556,
  "3.75</w>": 26763,
  "3.7</w>": 4400,
  "3.8</w>": 4956,
  "3.9</w>": 4802,
  "3.</w>": 31590,
  "30": 3536,
  "30,000</w>": 25596,
  "30.0</w>": 26029,
  "30.1</w>": 33532,
  "30.2</w>": 30606,
  "30.3</w>": 30135,
  "30.4</w>": 27942,
  "30.5</w>": 27197,
  "30.6</w>": 29358,
  "30.7</w>": 32041,
  "30.8</w>": 26764,
  "30.9</w>": 33771,
  "300": 20072,
  "3000</w>": 15340,
  "300</w>": 2410,
  "301</w>": 17838,
  "302</w>": 17264,
  "303</w>": 19929,
  "304</w>": 16707,
  "305</w>": 18893,
  "306</w>": 21181,
  "307</w>": 21925,
  "308</w>": 15639,
  "309</w>": 21089,
  "30</w>": 249,
  "31.1</w>": 30618,
  "31.2</w>": 30111,
  "31.3</w>": 26986,
  "31.4</w>": 30291,
  "31.5</w>": 26525,
  "31.6</w>": 28290,
  "31.7</w>": 30972,
  "31.8</w>": 29666,
  "31.9</w>": 34484,
  "310</w>": 18413,
  "311</w>": 21229,
  "312</w>": 22881,
  "313</w>": 24630,
  "314</w>": 25226,
  "315</w>": 19881,
  "316</w>": 25437,
  "317</w>": 24809,
  "318</w>": 26246,
  "319</w>": 26006,
  "31</w>": 1083,
  "31P</w>": 19332,
  "32": 7816,
  "32.": 21712,
  "32.1</w>": 30686,
  "32.2</w>": 32384,
  "32.3</w>": 30455,
  "32.4</w>": 30248,
  "32.5</w>": 24416,
  "32.6</w>": 31814,
  "32.7</w>": 31722,
  "32.8</w>": 32426,
  "320</w>": 12003,
  "321</w>": 27209,
  "322</w>": 17806,
  "323</w>": 25637,
  "324</w>": 25623,
  "325</w>": 18713,
  "326</w>": 25100,
  "327</w>": 27677,
  "328</w>": 26009,
  "329</w>": 27198,
  "32</w>": 1059,
  "32P</w>": 11356,
  "33": 6634,
  "33.": 20330,
  "33.3</w>": 12851,
  "33.5</w>": 31871,
  "33.6</w>": 34282,
  "33.8</w>": 33527,
  "330</w>": 15818,
  "331</w>": 27586,
  "332</w>": 26894,
  "333</w>": 24486,
  "334</w>": 28421,
  "335</w>": 23559,
  "336</w>": 25931,
  "337</w>": 27700,
  "338</w>": 24862,
  "339</w>": 27850,
  "33</w>": 1179,
  "34": 6707,
  "34.": 21710,
  "34.1</w>": 33899,
  "34.2</w>": 32839,
  "34.3</w>": 32287,
  "34.4</w>": 31708,
  "34.5</w>": 26573,
  "34.6</w>": 31852,
  "34.7</w>": 33869,
  "34.8</w>": 31689,
  "34.9</w>": 34480,
  "340</w>": 16466,
  "341</w>": 27422,
  "342</w>": 20490,
  "343</w>": 25091,
  "344</w>": 14445,
  "345</w>": 24188,
  "346</w>": 28393,
  "347</w>": 29771,
  "348</w>": 27862,
  "349</w>": 31222,
  "34</w>": 1308,
  "34a</w>": 27486,
  "35": 6438,
  "35.": 21567,
  "35.1</w>": 34703,
  "35.2</w>": 34044,
  "35.3</w>": 29950,
  "35.4</w>": 33642,
  "35.5</w>": 27543,
  "35.6</w>": 33246,
  "35.7</w>": 27212,
  "35.8</w>": 34393,
  "350</w>": 8911,
  "351</w>": 27863,
  "352</w>": 29211,
  "353</w>": 30142,
  "354</w>": 29366,
  "355</w>": 26121,
  "356</w>": 28525,
  "357</w>": 30684,
  "3580</w>": 31495,
  "358</w>": 28684,
  "359</w>": 31464,
  "35</w>": 892,
  "35S</w>": 11060,
  "36": 6738,
  "36.": 21361,
  "36.1</w>": 33870,
  "36.2</w>": 34585,
  "36.3</w>": 33770,
  "36.4</w>": 26200,
  "36.5</w>": 28095,
  "36.6</w>": 31950,
  "36.7</w>": 30466,
  "36.8</w>": 30044,
  "360</w>": 11396,
  "361</w>": 28023,
  "362</w>": 28358,
  "363</w>": 29089,
  "364</w>": 30689,
  "365</w>": 18544,
  "366</w>": 29314,
  "367</w>": 29882,
  "368</w>": 28923,
  "369</w>": 31513,
  "36</w>": 1020,
  "37": 6611,
  "37.": 22571,
  "37.2</w>": 34885,
  "37.5</w>": 14738,
  "37.8</w>": 31705,
  "370</w>": 19245,
  "371</w>": 32338,
  "372</w>": 29287,
  "373</w>": 25162,
  "374</w>": 29918,
  "375</w>": 15607,
  "376</w>": 30937,
  "377</w>": 30036,
  "378</w>": 28336,
  "379</w>": 31714,
  "37</w>": 1172,
  "38": 6221,
  "38.": 22754,
  "38.1</w>": 34022,
  "38.2</w>": 33647,
  "38.3</w>": 33851,
  "38.5</w>": 22377,
  "38.6</w>": 33952,
  "38.7</w>": 34366,
  "38.8</w>": 34353,
  "38.9</w>": 31682,
  "380</w>": 19478,
  "381</w>": 29503,
  "382</w>": 29122,
  "383</w>": 29576,
  "384</w>": 23664,
  "385</w>": 28595,
  "386</w>": 32852,
  "387</w>": 31182,
  "388</w>": 28901,
  "389</w>": 30326,
  "38</w>": 1342,
  "39": 8550,
  "39.": 24989,
  "39.1</w>": 34879,
  "39.3</w>": 34971,
  "39.5</w>": 28018,
  "390</w>": 17010,
  "391</w>": 31504,
  "392</w>": 30533,
  "393</w>": 21899,
  "394</w>": 31835,
  "395</w>": 30195,
  "396</w>": 29245,
  "397</w>": 30515,
  "398</w>": 22626,
  "399</w>": 33028,
  "39</w>": 1520,
  "3</w>": 54,
  "3A</w>": 8392,
  "3B</w>": 15117,
  "3C</w>": 18818,
  "3D": 25535,
  "3D</w>": 1825,
  "3G</w>": 25922,
  "3H</w>": 1744,
  "3L</w>": 32625,
  "3M</w>": 29590,
  "3O4</w>": 38103,
  "3R</w>": 16802,
  "3S</w>": 27727,
  "3T3</w>": 8541,
  "3T</w>": 16474,
  "3a</w>": 8519,
  "3alpha</w>": 33992,
  "3b</w>": 15859,
  "3beta</w>": 19189,
  "3d</w>": 33609,
  "3p</w>": 6706,
  "3rd</w>": 10616,
  "3β</w>": 18941,
  "4": 430,
  "4,": 4550,
  "4,000</w>": 32055,
  "4,4</w>": 15027,
  "4,5</w>": 8934,
  "4,6</w>": 25908,
  "4-</w>": 5257,
  "4.": 1541,
  "4.0</w>": 4324,
  "4.1</w>": 4803,
  "4.2</w>": 4499,
  "4.3</w>": 5037,
  "4.4</w>": 5140,
  "4.5</w>": 3462,
  "4.6</w>": 5174,
  "4.7</w>": 5108,
  "4.8</w>": 4974,
  "4.9</w>": 5827,
  "40": 5216,
  "40,000</w>": 28619,
  "40.0</w>": 27670,
  "40.5</w>": 30002,
  "400": 26196,
  "4000</w>": 17419,
  "400</w>": 2604,
  "401</w>": 23500,
  "402</w>": 20251,
  "403</w>": 24659,
  "404</w>": 22996,
  "405</w>": 20702,
  "406</w>": 26382,
  "407</w>": 22110,
  "408</w>": 25876,
  "409</w>": 25617,
  "40</w>": 466,
  "40L</w>": 38455,
  "41.2</w>": 32339,
  "41.5</w>": 30663,
  "41.7</w>": 28474,
  "410</w>": 22273,
  "411</w>": 29640,
  "412</w>": 29174,
  "413</w>": 33292,
  "414</w>": 32408,
  "415</w>": 31080,
  "416</w>": 32289,
  "417</w>": 32471,
  "418</w>": 23789,
  "41</w>": 1574,
  "42": 11711,
  "42.": 26758,
  "42.1</w>": 34869,
  "42.3</w>": 33817,
  "42.5</w>": 27634,
  "42.8</w>": 34685,
  "42.9</w>": 25958,
  "420</w>": 18437,
  "421</w>": 29850,
  "422</w>": 31917,
  "423</w>": 28864,
  "424</w>": 30285,
  "425</w>": 26562,
  "426</w>": 34694,
  "427</w>": 33567,
  "428</w>": 31287,
  "429</w>": 30519,
  "42</w>": 1256,
  "43": 11538,
  "43.": 24433,
  "43.3</w>": 34385,
  "43.5</w>": 30045,
  "43.8</w>": 32804,
  "430</w>": 23815,
  "431</w>": 19830,
  "432</w>": 21294,
  "433</w>": 32501,
  "434</w>": 32091,
  "435</w>": 26396,
  "436</w>": 33631,
  "437</w>": 32294,
  "439</w>": 34958,
  "43</w>": 1446,
  "44": 9445,
  "44.": 25581,
  "44.4</w>": 25740,
  "440</w>": 22755,
  "441</w>": 33878,
  "444</w>": 34354,
  "445</w>": 34519,
  "448</w>": 29866,
  "449</w>": 34350,
  "44</w>": 1531,
  "45": 7287,
  "45.": 26208,
  "45.5</w>": 25961,
  "450": 17812,
  "450</w>": 5310,
  "451</w>": 30894,
  "452</w>": 34434,
  "453</w>": 34464,
  "454</w>": 26620,
  "455</w>": 31215,
  "45</w>": 992,
  "45Ca2</w>": 31683,
  "45Ca</w>": 27095,
  "46": 9433,
  "46.": 26158,
  "46.2</w>": 32326,
  "46.5</w>": 34619,
  "46.7</w>": 30467,
  "460</w>": 22170,
  "46619</w>": 30619,
  "468</w>": 29250,
  "46</w>": 1577,
  "47": 8676,
  "47.": 27347,
  "47.5</w>": 30868,
  "47.6</w>": 34707,
  "470</w>": 23357,
  "473</w>": 27439,
  "474</w>": 32073,
  "475</w>": 33049,
  "47</w>": 1648,
  "48": 7193,
  "48.": 27342,
  "48.5</w>": 33379,
  "480</w>": 15174,
  "485</w>": 31557,
  "486</w>": 17489,
  "488</w>": 25313,
  "48</w>": 953,
  "49": 9151,
  "49.": 29693,
  "490</w>": 24265,
  "494</w>": 33738,
  "495</w>": 32355,
  "497</w>": 31802,
  "498</w>": 33845,
  "499</w>": 33064,
  "49</w>": 1869,
  "4</w>": 85,
  "4A</w>": 10496,
  "4B</w>": 16260,
  "4C</w>": 28902,
  "4D</w>": 15300,
  "4E</w>": 23383,
  "4G</w>": 28416,
  "4H</w>": 28352,
  "4R</w>": 19750,
  "4S</w>": 21552,
  "4T</w>": 26804,
  "4V</w>": 29019,
  "4a</w>": 13030,
  "4b</w>": 26203,
  "4th</w>": 13260,
  "5": 351,
  "5&apos;": 18804,
  "5,": 4987,
  "5,000</w>": 19667,
  "5,5</w>": 23308,
  "5,6</w>": 16513,
  "5,7</w>": 28254,
  "5-</w>": 6982,
  "5.": 2073,
  "5.0</w>": 4156,
  "5.1</w>": 5646,
  "5.2</w>": 5086,
  "5.3</w>": 5223,
  "5.4</w>": 5442,
  "5.5</w>": 4113,
  "5.6</w>": 5317,
  "5.7</w>": 5747,
  "5.8</w>": 5421,
  "5.9</w>": 5616,
  "50": 5224,
  "50,": 32013,
  "50,000</w>": 17787,
  "50.0</w>": 20799,
  "500": 22171,
  "5000</w>": 14903,
  "500</w>": 2157,
  "501</w>": 24910,
  "502</w>": 27176,
  "503</w>": 26832,
  "504</w>": 28188,
  "505</w>": 25264,
  "506</w>": 20932,
  "507</w>": 31712,
  "508</w>": 20670,
  "509</w>": 30485,
  "50</w>": 297,
  "50s</w>": 35092,
  "51": 35627,
  "510</w>": 28801,
  "511</w>": 31991,
  "512</w>": 24992,
  "51</w>": 1800,
  "51Cr</w>": 23877,
  "52.5</w>": 31878,
  "520</w>": 25655,
  "525</w>": 30899,
  "52</w>": 1608,
  "53": 11469,
  "53.": 28937,
  "53.3</w>": 29675,
  "53.8</w>": 31787,
  "530</w>": 27925,
  "532</w>": 28131,
  "53</w>": 1827,
  "54": 14235,
  "54.": 29392,
  "54.5</w>": 27415,
  "540</w>": 23127,
  "549</w>": 32266,
  "54</w>": 1756,
  "55": 9866,
  "55.": 29678,
  "55.6</w>": 28504,
  "550</w>": 16979,
  "551</w>": 30107,
  "558</w>": 34370,
  "55</w>": 1368,
  "56": 10536,
  "56.": 30904,
  "56.5</w>": 34967,
  "560</w>": 26437,
  "562</w>": 28067,
  "56</w>": 1737,
  "57": 8738,
  "57.": 29531,
  "57.1</w>": 25663,
  "57.5</w>": 34347,
  "570</w>": 31007,
  "571</w>": 29832,
  "57</w>": 1841,
  "58": 11507,
  "58.": 30143,
  "58.3</w>": 29754,
  "580</w>": 29416,
  "58</w>": 1811,
  "59": 11503,
  "59.": 31886,
  "590</w>": 32263,
  "59</w>": 1870,
  "5</w>": 82,
  "5A</w>": 11147,
  "5B</w>": 22443,
  "5C</w>": 30428,
  "5D</w>": 14763,
  "5H</w>": 32279,
  "5HT</w>": 25376,
  "5R</w>": 34575,
  "5S</w>": 18316,
  "5Y</w>": 39223,
  "5a</w>": 16195,
  "5alpha</w>": 25802,
  "5b</w>": 23719,
  "5p</w>": 6084,
  "5th</w>": 12986,
  "6": 393,
  "6,": 6722,
  "6,6</w>": 33306,
  "6,7</w>": 27225,
  "6-</w>": 9550,
  "6.": 2537,
  "6.0</w>": 4830,
  "6.1</w>": 5972,
  "6.25</w>": 25096,
  "6.2</w>": 5822,
  "6.3</w>": 5518,
  "6.4</w>": 5623,
  "6.5</w>": 4506,
  "6.6</w>": 6044,
  "6.7</w>": 6291,
  "6.8</w>": 5594,
  "6.9</w>": 5789,
  "60": 5576,
  "60,000</w>": 34934,
  "60.0</w>": 32210,
  "600": 27037,
  "6000</w>": 25606,
  "600</w>": 4634,
  "602</w>": 27732,
  "603</w>": 31403,
  "605</w>": 31894,
  "606</w>": 33114,
  "607</w>": 34592,
  "608</w>": 34538,
  "609</w>": 28717,
  "60</w>": 504,
  "60s</w>": 37589,
  "61.5</w>": 28854,
  "619</w>": 36159,
  "61</w>": 1933,
  "62": 14986,
  "62.5</w>": 17123,
  "620</w>": 25025,
  "625</w>": 29113,
  "62</w>": 1926,
  "63": 15079,
  "63.": 30656,
  "63.6</w>": 30497,
  "630</w>": 26345,
  "632</w>": 28235,
  "635</w>": 31438,
  "63</w>": 1837,
  "64": 14095,
  "64.": 30599,
  "64.3</w>": 34759,
  "640</w>": 28428,
  "64</w>": 1682,
  "65": 12270,
  "65.": 30747,
  "650</w>": 18725,
  "65</w>": 1206,
  "66": 11779,
  "66.": 27622,
  "66.6</w>": 33796,
  "66.7</w>": 15816,
  "660</w>": 28802,
  "66</w>": 1949,
  "67": 8604,
  "67.": 33926,
  "67</w>": 1630,
  "68": 13619,
  "68.": 30641,
  "680</w>": 30372,
  "68</w>": 1974,
  "69": 13195,
  "69.": 34345,
  "69.2</w>": 34795,
  "69</w>": 2099,
  "6</w>": 116,
  "6A</w>": 16134,
  "6B</w>": 24953,
  "6G</w>": 30298,
  "6J</w>": 13651,
  "6R</w>": 22726,
  "6a</w>": 25245,
  "6b</w>": 28063,
  "6th</w>": 18458,
  "7": 440,
  "7,": 6892,
  "7,8</w>": 18926,
  "7-</w>": 17008,
  "7.": 2646,
  "7.0</w>": 5003,
  "7.1</w>": 5722,
  "7.2</w>": 5730,
  "7.3</w>": 5657,
  "7.4</w>": 4689,
  "7.5</w>": 4101,
  "7.6</w>": 6091,
  "7.7</w>": 5725,
  "7.8</w>": 6223,
  "7.9</w>": 6290,
  "70": 4740,
  "700</w>": 8804,
  "705</w>": 34509,
  "70</w>": 887,
  "70s</w>": 37501,
  "71.4</w>": 22764,
  "71</w>": 2076,
  "72": 26066,
  "72.7</w>": 31548,
  "720</w>": 21123,
  "72</w>": 1413,
  "73": 14773,
  "73.3</w>": 32387,
  "73</w>": 2207,
  "74": 17124,
  "74</w>": 2244,
  "75": 9002,
  "75.": 34755,
  "75.0</w>": 31469,
  "750</w>": 13164,
  "75</w>": 1087,
  "76": 18229,
  "76.": 34071,
  "76</w>": 2208,
  "77": 11770,
  "77.8</w>": 30190,
  "774</w>": 34950,
  "77</w>": 2249,
  "78": 17446,
  "78.": 33236,
  "780</w>": 34348,
  "78</w>": 2124,
  "79": 11259,
  "79</w>": 2355,
  "7</w>": 215,
  "7A</w>": 24104,
  "7R</w>": 34209,
  "7S</w>": 34275,
  "7T</w>": 23030,
  "7a</w>": 24890,
  "7th</w>": 17219,
  "8": 483,
  "8,": 8487,
  "8-</w>": 13244,
  "8.": 3513,
  "8.0</w>": 5953,
  "8.1</w>": 6697,
  "8.2</w>": 6216,
  "8.3</w>": 6257,
  "8.4</w>": 6086,
  "8.5</w>": 5165,
  "8.6</w>": 6132,
  "8.7</w>": 6743,
  "8.8</w>": 6332,
  "8.9</w>": 7191,
  "80": 5178,
  "80.0</w>": 32980,
  "8000</w>": 34248,
  "800</w>": 6073,
  "801</w>": 13168,
  "803</w>": 23620,
  "80</w>": 827,
  "81.8</w>": 32152,
  "815</w>": 34326,
  "81</w>": 2365,
  "82</w>": 2263,
  "83.3</w>": 19398,
  "83</w>": 2243,
  "84": 25489,
  "84.": 33134,
  "84.6</w>": 33016,
  "84</w>": 2232,
  "85": 16204,
  "85.": 33237,
  "85.7</w>": 22692,
  "850</w>": 26284,
  "85</w>": 1738,
  "86": 12739,
  "86.": 33662,
  "86.7</w>": 33082,
  "8644</w>": 32978,
  "86</w>": 2323,
  "87": 15660,
  "87.": 34624,
  "87.5</w>": 18574,
  "87</w>": 2419,
  "88": 19288,
  "88.": 32840,
  "88.9</w>": 30439,
  "88</w>": 2217,
  "89": 16211,
  "89.": 33464,
  "89</w>": 2401,
  "8</w>": 208,
  "8A</w>": 29641,
  "8S</w>": 30407,
  "8a</w>": 27008,
  "8th</w>": 21825,
  "9": 482,
  "9,": 9142,
  "9,10</w>": 27950,
  "9-</w>": 21823,
  "9.": 3927,
  "9.0</w>": 7160,
  "9.1</w>": 6952,
  "9.2</w>": 6675,
  "9.3</w>": 6817,
  "9.4</w>": 6292,
  "9.5</w>": 5149,
  "9.6</w>": 6294,
  "9.7</w>": 6692,
  "9.8</w>": 6737,
  "9.9</w>": 8076,
  "90": 4613,
  "90.9</w>": 33355,
  "900</w>": 11181,
  "90</w>": 791,
  "91.7</w>": 31773,
  "91</w>": 2529,
  "92.3</w>": 32171,
  "929</w>": 36498,
  "92</w>": 2326,
  "93": 22936,
  "93.3</w>": 30348,
  "937</w>": 35167,
  "93</w>": 2465,
  "94": 25904,
  "94.": 32890,
  "94</w>": 2487,
  "95": 17740,
  "95.": 30332,
  "95</w>": 203,
  "95th</w>": 31362,
  "96": 19858,
  "96.": 30446,
  "96</w>": 2001,
  "97": 19910,
  "97.": 28731,
  "97.5</w>": 29688,
  "97</w>": 2608,
  "98": 15001,
  "98.": 27531,
  "980": 38715,
  "98059</w>": 37375,
  "98</w>": 2457,
  "99": 8030,
  "99.": 20997,
  "99.9</w>": 33880,
  "99</w>": 2404,
  "99m</w>": 9369,
  "99mT": 38478,
  "99mTc</w>": 9602,
  "9</w>": 348,
  "9a</w>": 31510,
  "9th</w>": 29439,
  ":</w>": 20,
  ";</w>": 44,
  "</s>": 2,
  "<pad>": 1,
  "<s>": 0,
  "<unk>": 3,
  "=</w>": 43,
  "?</w>": 927,
  "@-@</w>": 9,
  "@</w>": 8580,
  "A": 388,
  "A-</w>": 13714,
  "A.": 11606,
  "A.</w>": 13739,
  "A1": 17301,
  "A10</w>": 27056,
  "A11</w>": 33643,
  "A1</w>": 2575,
  "A1C</w>": 26273,
  "A1c</w>": 22106,
  "A2": 13637,
  "A23187</w>": 14512,
  "A2</w>": 2975,
  "A3</w>": 7330,
  "A4</w>": 9086,
  "A549</w>": 9949,
  "A5</w>": 13228,
  "A6</w>": 16758,
  "A7</w>": 28276,
  "A8</w>": 27809,
  "A9</w>": 20627,
  "A</w>": 39,
  "AA": 12445,
  "AA</w>": 2547,
  "AAA</w>": 9699,
  "AAC</w>": 25734,
  "AAD</w>": 30376,
  "AAF</w>": 32257,
  "AAP</w>": 32897,
  "AAS</w>": 26482,
  "AAT</w>": 25098,
  "AAV": 23603,
  "AAV</w>": 12640,
  "AAs</w>": 24908,
  "AB": 2935,
  "AB</w>": 4765,
  "ABA</w>": 9252,
  "ABC": 37583,
  "ABC</w>": 8843,
  "ABCA1</w>": 32062,
  "ABCB1</w>": 30812,
  "ABCG2</w>": 32138,
  "ABE": 37786,
  "ABELLED</w>": 40980,
  "ABI": 36716,
  "ABI</w>": 20121,
  "ABILITY</w>": 32704,
  "ABL</w>": 17172,
  "ABO</w>": 16764,
  "ABP</w>": 12282,
  "ABR</w>": 17503,
  "ABS</w>": 28083,
  "ABSTR": 39611,
  "ABSTRACT</w>": 3327,
  "ABT</w>": 28002,
  "AC": 2008,
  "AC1</w>": 27199,
  "AC</w>": 2685,
  "ACA</w>": 14143,
  "ACC</w>": 8386,
  "ACD</w>": 21250,
  "ACE2</w>": 29570,
  "ACE</w>": 4437,
  "ACEI</w>": 34061,
  "ACF</w>": 30578,
  "ACH</w>": 28601,
  "ACHE</w>": 39485,
  "ACI</w>": 25720,
  "ACL": 18304,
  "ACL</w>": 7980,
  "ACP</w>": 13776,
  "ACR</w>": 13053,
  "ACS</w>": 6382,
  "ACT": 22197,
  "ACT</w>": 8923,
  "ACTH</w>": 5127,
  "ACTI": 39228,
  "ACTION</w>": 37979,
  "ACV</w>": 31218,
  "ACh": 35434,
  "ACh</w>": 7169,
  "AChE</w>": 10244,
  "AChR</w>": 16986,
  "AChRs</w>": 36158,
  "ACs</w>": 10380,
  "AD": 2571,
  "AD</w>": 1291,
  "ADA</w>": 12915,
  "ADAM": 16994,
  "ADAMTS": 32783,
  "ADC</w>": 9713,
  "ADCC</w>": 24794,
  "ADD</w>": 23170,
  "ADE</w>": 35014,
  "ADF</w>": 31356,
  "ADG</w>": 29718,
  "ADH</w>": 13219,
  "ADHD</w>": 4804,
  "ADL</w>": 12853,
  "ADM</w>": 16025,
  "ADMA</w>": 28180,
  "ADP</w>": 4105,
  "ADPKD</w>": 27980,
  "ADR</w>": 13662,
  "ADRs</w>": 21495,
  "ADSCs</w>": 27892,
  "ADT</w>": 20693,
  "ADs</w>": 17798,
  "AE": 7066,
  "AE</w>": 5338,
  "AED</w>": 22458,
  "AEDs</w>": 20889,
  "AEP</w>": 27122,
  "AEs</w>": 8846,
  "AF": 4726,
  "AF1</w>": 35017,
  "AF</w>": 2490,
  "AFB1</w>": 23811,
  "AFB</w>": 29600,
  "AFF</w>": 29338,
  "AFLP</w>": 32619,
  "AFM</w>": 12887,
  "AFP</w>": 9315,
  "AFS</w>": 28592,
  "AG": 4289,
  "AG</w>": 5386,
  "AGA</w>": 22991,
  "AGE</w>": 11073,
  "AGEs</w>": 21077,
  "AGP</w>": 31406,
  "AGS</w>": 29165,
  "AGT</w>": 29755,
  "AGs</w>": 37027,
  "AH": 18989,
  "AH</w>": 8528,
  "AHA</w>": 25354,
  "AHI</w>": 19065,
  "AHL</w>": 36881,
  "AHP</w>": 34870,
  "AHR</w>": 19279,
  "AI": 4177,
  "AI</w>": 3965,
  "AIC</w>": 34552,
  "AID</w>": 23891,
  "AIDS</w>": 2823,
  "AIH</w>": 27967,
  "AII</w>": 15361,
  "AIL": 32824,
  "AIM</w>": 2659,
  "AIMS</w>": 3329,
  "AIN</w>": 27693,
  "AIP</w>": 24136,
  "AIR</w>": 22453,
  "AIS</w>": 11071,
  "AIT</w>": 26145,
  "AIs</w>": 27517,
  "AJ": 35575,
  "AJCC</w>": 33987,
  "AK": 8420,
  "AK</w>": 16202,
  "AKI</w>": 7128,
  "AKR</w>": 31159,
  "AKT</w>": 7850,
  "AL": 2697,
  "AL</w>": 3907,
  "ALA</w>": 11919,
  "ALD": 24105,
  "ALD</w>": 18348,
  "ALDH</w>": 31298,
  "ALE</w>": 36095,
  "ALF</w>": 30563,
  "ALI</w>": 16280,
  "ALK</w>": 12642,
  "ALL</w>": 6093,
  "ALP</w>": 9813,
  "ALS</w>": 6024,
  "ALT</w>": 7560,
  "ALY": 39403,
  "ALY</w>": 37032,
  "ALYs</w>": 36522,
  "AM": 2888,
  "AM1</w>": 33572,
  "AM</w>": 3332,
  "AMA</w>": 19701,
  "AMC</w>": 29219,
  "AMD</w>": 9679,
  "AME</w>": 27819,
  "AMF</w>": 28311,
  "AMH</w>": 20513,
  "AMI</w>": 6967,
  "AML</w>": 5128,
  "AMP</w>": 3613,
  "AMPA</w>": 11968,
  "AMPK</w>": 9544,
  "AMPs</w>": 24367,
  "AMR</w>": 23581,
  "AMS</w>": 19206,
  "AMs</w>": 17723,
  "AN": 3413,
  "AN</w>": 5965,
  "ANA</w>": 19728,
  "ANALY": 38216,
  "ANALYSIS</w>": 12703,
  "ANC</w>": 18798,
  "ANCA</w>": 15188,
  "ANCE</w>": 34524,
  "AND</w>": 558,
  "ANES</w>": 37358,
  "ANF</w>": 16043,
  "ANG": 26659,
  "ANG</w>": 12209,
  "ANIM": 39400,
  "ANIMALS</w>": 26693,
  "ANN</w>": 23237,
  "ANOVA</w>": 7056,
  "ANP</w>": 8398,
  "ANS</w>": 15066,
  "ANT</w>": 24767,
  "AO": 8940,
  "AO</w>": 9419,
  "AOM</w>": 24048,
  "AOR</w>": 9335,
  "AP": 2379,
  "AP1</w>": 10948,
  "AP2</w>": 22398,
  "AP</w>": 1876,
  "APA</w>": 14356,
  "APACHE</w>": 21450,
  "APAP</w>": 23714,
  "APC</w>": 7487,
  "APCs</w>": 28629,
  "APD</w>": 18951,
  "APE</w>": 28632,
  "API</w>": 15513,
  "APL</w>": 18547,
  "APN</w>": 27275,
  "APO": 19837,
  "APO</w>": 33671,
  "APOE</w>": 17498,
  "APP</w>": 7676,
  "APPRO": 39829,
  "APPROACH</w>": 28910,
  "APR</w>": 32404,
  "APS</w>": 10916,
  "APT</w>": 29064,
  "APTT</w>": 33494,
  "APs</w>": 13966,
  "AQ": 10619,
  "AQ</w>": 26019,
  "AQP4</w>": 29671,
  "AR": 2435,
  "AR1</w>": 27857,
  "AR</w>": 2316,
  "ARA</w>": 26245,
  "ARB</w>": 28821,
  "ARC</w>": 12403,
  "ARCH</w>": 39298,
  "ARD</w>": 33774,
  "ARDS</w>": 10835,
  "ARE": 20782,
  "ARE</w>": 17832,
  "ARF</w>": 12507,
  "ARG</w>": 31456,
  "ARI": 34780,
  "ARI</w>": 22719,
  "ARM</w>": 29542,
  "ARP</w>": 29466,
  "ARS</w>": 15877,
  "ART</w>": 4524,
  "ARV</w>": 33632,
  "ARY</w>": 20187,
  "ARs</w>": 13540,
  "AS": 3264,
  "AS1</w>": 14613,
  "AS</w>": 2174,
  "ASA</w>": 8216,
  "ASC": 18721,
  "ASC</w>": 16294,
  "ASCT</w>": 34265,
  "ASCs</w>": 22120,
  "ASD</w>": 5011,
  "ASE</w>": 26301,
  "ASI": 22351,
  "ASL</w>": 23882,
  "ASM</w>": 23643,
  "ASO</w>": 29872,
  "ASP": 29400,
  "ASP</w>": 23582,
  "ASR</w>": 34827,
  "ASSIGNED</w>": 40320,
  "AST</w>": 9275,
  "ASU": 38857,
  "ASs</w>": 29958,
  "AT": 2400,
  "AT1</w>": 8017,
  "AT2</w>": 15224,
  "AT</w>": 1527,
  "ATA</w>": 19973,
  "ATC</w>": 29591,
  "ATCC</w>": 13024,
  "ATD</w>": 31918,
  "ATE</w>": 22403,
  "ATED</w>": 35923,
  "ATF</w>": 34196,
  "ATG": 26135,
  "ATG</w>": 19353,
  "ATI": 26820,
  "ATION</w>": 13249,
  "ATL</w>": 21109,
  "ATM</w>": 15585,
  "ATP": 16575,
  "ATP</w>": 1383,
  "ATPase</w>": 4216,
  "ATPases</w>": 24688,
  "ATR</w>": 17407,
  "ATRA</w>": 19833,
  "ATS</w>": 31188,
  "ATs</w>": 23726,
  "AU": 7338,
  "AU</w>": 19301,
  "AUC": 22490,
  "AUC</w>": 4151,
  "AUD</w>": 23844,
  "AV": 5368,
  "AV</w>": 6248,
  "AVF</w>": 20368,
  "AVM</w>": 19509,
  "AVMs</w>": 27211,
  "AVP</w>": 8035,
  "AVR</w>": 19225,
  "AVS</w>": 33694,
  "AX</w>": 27057,
  "AY": 25694,
  "AZ": 14237,
  "AZA</w>": 34127,
  "AZT</w>": 20623,
  "Ab": 5674,
  "Ab</w>": 6029,
  "Abbot": 39847,
  "Abbott</w>": 31037,
  "Abdom": 39296,
  "Abdominal</w>": 12428,
  "Aberr": 38279,
  "Aberrant</w>": 21082,
  "Abeta</w>": 13420,
  "Ability</w>": 28475,
  "Abl": 38046,
  "Abl</w>": 25781,
  "Ablation</w>": 26341,
  "Abnormal": 38956,
  "Abnormal</w>": 11601,
  "Abnormalities</w>": 22116,
  "Abo": 39548,
  "Aboriginal</w>": 18272,
  "About</w>": 7322,
  "Above</w>": 29111,
  "Abs": 37797,
  "Abs</w>": 12346,
  "Absence</w>": 19975,
  "Absolute</w>": 22627,
  "Absorption</w>": 21016,
  "Abstr": 35342,
  "Abstract": 39915,
  "Abstract</w>": 31342,
  "AbstractText</w>": 11817,
  "Abund": 34835,
  "Abuse</w>": 27549,
  "Ac": 2938,
  "Ac</w>": 9307,
  "Aca": 37956,
  "Acad</w>": 27656,
  "Academic</w>": 14566,
  "Academy</w>": 17041,
  "Acanth": 35245,
  "Acanthamoeba</w>": 27642,
  "Acc": 14970,
  "Acceler": 28316,
  "Accelerated</w>": 32188,
  "Accep": 20632,
  "Access</w>": 14742,
  "According</w>": 3722,
  "Accordingly</w>": 8037,
  "Accred": 34530,
  "Accum": 37231,
  "Accumulating</w>": 25000,
  "Accumulation</w>": 18472,
  "Accur": 37944,
  "Accuracy</w>": 14168,
  "Accurate</w>": 13417,
  "Acet": 11885,
  "Acetyl": 29892,
  "Acetylcholine</w>": 34087,
  "Ach": 18759,
  "Achieving</w>": 33964,
  "Achilles</w>": 16174,
  "Acid</w>": 7731,
  "Acids</w>": 26800,
  "Acin": 38097,
  "Acinetobacter</w>": 15064,
  "Acous": 39230,
  "Acoustic</w>": 27226,
  "Acqu": 38099,
  "Acquired</w>": 20735,
  "Acquisition</w>": 33788,
  "Acr": 24565,
  "Across</w>": 13370,
  "Act</w>": 11184,
  "Actin": 11867,
  "Actin</w>": 33091,
  "Action</w>": 14362,
  "Activ": 17519,
  "Activated</w>": 16216,
  "Activation</w>": 5873,
  "Active</w>": 9170,
  "Activities</w>": 14984,
  "Activity</w>": 5105,
  "Acupuncture</w>": 30360,
  "Acute</w>": 2768,
  "Ad": 3649,
  "Ad5</w>": 34481,
  "Ad</w>": 11722,
  "AdV</w>": 32022,
  "Adap": 26790,
  "Adaptation</w>": 22103,
  "Adaptive</w>": 18737,
  "Addi": 24324,
  "Addiction</w>": 33758,
  "Adding</w>": 22251,
  "Addition</w>": 7494,
  "Additional</w>": 5475,
  "Additionally</w>": 2318,
  "Addressing</w>": 31933,
  "Ade": 38740,
  "Aden": 11504,
  "Adenocarcinoma</w>": 27868,
  "Adenosine</w>": 18206,
  "Adequ": 37875,
  "Adequate</w>": 22366,
  "Adhe": 29106,
  "Adherence</w>": 14578,
  "Adhesion</w>": 23368,
  "Adi": 16192,
  "Adipose</w>": 23656,
  "Adj": 26824,
  "Adju": 37181,
  "Adjusted</w>": 20103,
  "Adjustment</w>": 29520,
  "Adjuv": 39005,
  "Adjuvant</w>": 18288,
  "Admini": 30277,
  "Administration</w>": 4860,
  "Ado": 29691,
  "Adolesc": 36435,
  "Adolescent</w>": 13717,
  "Adolescents</w>": 12320,
  "Adop": 31755,
  "Adren": 17313,
  "Adrenal</w>": 27355,
  "Adriamycin</w>": 28075,
  "Adsorption</w>": 22399,
  "Adult</w>": 5977,
  "Adults</w>": 8883,
  "Adv": 16284,
  "Advanced</w>": 9900,
  "Advances</w>": 11297,
  "Advant": 37090,
  "Advantages</w>": 30835,
  "Adverse</w>": 9355,
  "Advis": 32878,
  "Ae.</w>": 22780,
  "Aedes</w>": 15911,
  "Aer": 18300,
  "Aerobic</w>": 28593,
  "Aeromonas</w>": 20971,
  "Af": 24580,
  "Aff": 11098,
  "Affairs</w>": 21747,
  "Affect</w>": 30077,
  "Affected</w>": 33007,
  "Affective</w>": 34337,
  "Affinity</w>": 26792,
  "Afgh": 33193,
  "Afr": 36076,
  "Africa</w>": 3742,
  "African</w>": 2679,
  "Africans</w>": 32555,
  "After": 27240,
  "After</w>": 572,
  "Ag": 5361,
  "Ag</w>": 3654,
  "AgNPs</w>": 18267,
  "Again</w>": 33135,
  "Against</w>": 16673,
  "Age": 25590,
  "Age</w>": 4135,
  "Aged</w>": 27352,
  "Agency</w>": 15328,
  "Agents</w>": 23034,
  "Agg": 25255,
  "Aggreg": 30352,
  "Aggregation</w>": 30067,
  "Aggressive</w>": 25516,
  "Aging</w>": 11598,
  "Agon": 29517,
  "Agr": 36362,
  "Agre": 38441,
  "Agreement</w>": 21117,
  "Agricul": 24713,
  "Agro": 37463,
  "Agrobacterium</w>": 20262,
  "Ah": 24831,
  "Ah</w>": 30949,
  "AhR</w>": 21940,
  "Aim": 36073,
  "Aim</w>": 10626,
  "Aims</w>": 17617,
  "Air": 23138,
  "Air</w>": 13328,
  "Airway</w>": 19693,
  "Ak": 15717,
  "Akt</w>": 4763,
  "Al": 1875,
  "Al</w>": 5598,
  "Ala": 19405,
  "Ala</w>": 7750,
  "Alaska</w>": 25982,
  "Alb": 31875,
  "Alber": 37645,
  "Alberta</w>": 26030,
  "Albumin</w>": 28340,
  "Alcoh": 24859,
  "Alcohol</w>": 9006,
  "Alex": 22946,
  "Alg": 35992,
  "Algorith": 36485,
  "Algorithm</w>": 28782,
  "Align": 30337,
  "Alk": 18230,
  "Alkaline</w>": 30550,
  "All": 10778,
  "All</w>": 487,
  "Allerg": 33427,
  "Allergic</w>": 24537,
  "Allergy</w>": 31167,
  "Alli": 26871,
  "Allo": 19297,
  "Allogeneic</w>": 32605,
  "Almost</w>": 11696,
  "Along</w>": 21709,
  "Alph": 31636,
  "Alpha</w>": 13324,
  "Also</w>": 3185,
  "Alt": 38560,
  "Alter": 38719,
  "Alteration</w>": 27256,
  "Alterations</w>": 12216,
  "Altered</w>": 14220,
  "Altern": 26578,
  "Alternaria</w>": 34254,
  "Alternative</w>": 13751,
  "Alternatively</w>": 17668,
  "Although</w>": 499,
  "Altman</w>": 21868,
  "Altogether</w>": 12418,
  "Alu</w>": 26412,
  "Alumin": 29994,
  "Alve": 39289,
  "Alveolar</w>": 28132,
  "Alz": 38214,
  "Alzheimer</w>": 2474,
  "Am": 4771,
  "Am</w>": 14097,
  "AmB</w>": 34435,
  "Amaz": 32986,
  "Amazon</w>": 25276,
  "Ambul": 38292,
  "Ambulatory</w>": 23171,
  "Amer": 36209,
  "Americ": 32321,
  "America</w>": 5990,
  "American</w>": 1746,
  "Americans</w>": 6872,
  "Ames</w>": 32518,
  "Ami": 33917,
  "Amin": 14990,
  "Amino</w>": 12240,
  "Ammon": 28583,
  "Amni": 33299,
  "Amon": 40048,
  "Among</w>": 1089,
  "Amongst</w>": 28874,
  "Amp": 19423,
  "Amph": 27721,
  "Ampl": 25490,
  "Amplification</w>": 26067,
  "Amy": 18832,
  "Amyloid</w>": 22009,
  "An": 1955,
  "An.</w>": 21276,
  "An</w>": 480,
  "Anaerobic</w>": 31944,
  "Anaes": 31542,
  "Analog": 31898,
  "Analy": 15363,
  "Analyses</w>": 7740,
  "Analysis</w>": 1364,
  "Analytical</w>": 20659,
  "Analyzing</w>": 30765,
  "Anat": 35541,
  "Anatomic</w>": 29751,
  "Anatomical</w>": 22020,
  "Anatomy</w>": 33168,
  "And</w>": 8842,
  "Ander": 37210,
  "Anderson</w>": 28705,
  "Andro": 25019,
  "Androgen</w>": 28329,
  "Anemia</w>": 25843,
  "Anes": 36822,
  "Anesthesi": 37116,
  "Anesthesia</w>": 22508,
  "Anesthesiologists</w>": 29954,
  "Aneur": 37298,
  "Aneurys": 35834,
  "Aneurysm</w>": 30690,
  "Ang": 14605,
  "Ang</w>": 8195,
  "AngII</w>": 29821,
  "Angel": 34674,
  "Angeles</w>": 23657,
  "Angi": 10945,
  "Angiogenesis</w>": 27587,
  "Angiography</w>": 24418,
  "Angiotensin</w>": 15339,
  "Angle</w>": 30246,
  "Ani": 33633,
  "Anim": 39029,
  "Animal</w>": 10532,
  "Animals</w>": 9388,
  "Ank": 25967,
  "Ankle</w>": 25077,
  "Ann": 29863,
  "Annexin</w>": 24562,
  "Annual</w>": 18913,
  "Ano": 21971,
  "Anomal": 25706,
  "Anoph": 39755,
  "Anopheles</w>": 17840,
  "Another</w>": 7834,
  "Ant": 16246,
  "Antarctic</w>": 25217,
  "Anten": 29679,
  "Anterior</w>": 12300,
  "Anth": 22792,
  "Anthrop": 35365,
  "Anthropometric</w>": 28211,
  "Anti": 3933,
  "Anti</w>": 5045,
  "Antibacterial</w>": 26190,
  "Antibiotic</w>": 13761,
  "Antibiotics</w>": 27978,
  "Antibodies</w>": 10959,
  "Antibody</w>": 11398,
  "Antic": 28064,
  "Antico": 27236,
  "Antigen</w>": 17205,
  "Antim": 35022,
  "Antimicrobial</w>": 12054,
  "Antioxidant</w>": 17127,
  "Antitumor</w>": 32904,
  "Antiviral</w>": 33103,
  "Anxi": 37640,
  "Anxiety</w>": 8572,
  "Any</w>": 16023,
  "Aor": 35187,
  "Aortic</w>": 12055,
  "Ap": 4410,
  "Apart</w>": 15395,
  "Apgar</w>": 21392,
  "Aph": 23382,
  "Apl": 38651,
  "Aplysia</w>": 33253,
  "Apo": 13444,
  "Apo</w>": 24139,
  "ApoE</w>": 22140,
  "Apoli": 39496,
  "Apolipoprotein</w>": 28466,
  "Apop": 39085,
  "Apoptosis</w>": 11571,
  "Apoptotic</w>": 34294,
  "App": 17033,
  "Apparent</w>": 27951,
  "Apparently</w>": 32236,
  "Appl": 39023,
  "Application</w>": 5634,
  "Applications</w>": 14183,
  "Applied</w>": 29471,
  "Applying</w>": 18173,
  "Appro": 36719,
  "Approach</w>": 10127,
  "Approaches</w>": 20043,
  "Appropri": 36867,
  "Appropriate</w>": 17803,
  "Approxim": 36771,
  "Approximately</w>": 7566,
  "Apri": 40003,
  "April</w>": 4505,
  "Apropos</w>": 30397,
  "Aqu": 19985,
  "Aqueous</w>": 22638,
  "Ar": 2897,
  "Ar</w>": 19466,
  "Ara": 33832,
  "Ara</w>": 24768,
  "Arab": 24057,
  "Arab</w>": 22076,
  "Arabia</w>": 13558,
  "Arabic</w>": 29851,
  "Arabidopsis</w>": 4921,
  "Arach": 28748,
  "Arc": 35600,
  "Arch": 20601,
  "Archa": 26952,
  "Arctic</w>": 20977,
  "Are</w>": 8928,
  "Area</w>": 12304,
  "Areas</w>": 16236,
  "Arg": 8363,
  "Arg</w>": 6281,
  "Argen": 35673,
  "Argentina</w>": 17328,
  "Argin": 37936,
  "Arginine</w>": 28330,
  "Arm</w>": 23677,
  "Army</w>": 25235,
  "Aro": 28266,
  "Around</w>": 31578,
  "Array</w>": 25994,
  "Arsen": 37700,
  "Arsenic</w>": 30215,
  "Artem": 22859,
  "Arter": 36535,
  "Arteri": 24480,
  "Arterial</w>": 11426,
  "Artery</w>": 14695,
  "Arth": 36928,
  "Arthritis</w>": 18773,
  "Arthro": 18974,
  "Arthroplasty</w>": 27470,
  "Arthroscopic</w>": 27475,
  "Arti": 31882,
  "Article</w>": 33325,
  "Articles</w>": 26037,
  "Artificial</w>": 17985,
  "As": 4871,
  "As</w>": 521,
  "Asc": 17610,
  "Ascaris</w>": 29121,
  "Ash": 23824,
  "Asia</w>": 7148,
  "Asian</w>": 4776,
  "Asians</w>": 17000,
  "Asn": 26795,
  "Asn</w>": 15271,
  "Asp": 12421,
  "Asp</w>": 8468,
  "Aspects</w>": 28354,
  "Asperg": 38067,
  "Aspergillus</w>": 7580,
  "Aspir": 38544,
  "Aspirin</w>": 25254,
  "Ass": 37383,
  "Assay</w>": 17001,
  "Assays</w>": 30720,
  "Assemb": 38816,
  "Assembly</w>": 20179,
  "Assess": 37271,
  "Assessing</w>": 12411,
  "Assessment</w>": 2921,
  "Assessments</w>": 28930,
  "Assisted</w>": 18748,
  "Associ": 35157,
  "Associated</w>": 5919,
  "Association</w>": 2912,
  "Associations</w>": 9997,
  "Assuming</w>": 26781,
  "Asth": 37623,
  "Asthma</w>": 13395,
  "Astr": 30740,
  "Astro": 22809,
  "Asymmetric</w>": 25914,
  "Asymptomatic</w>": 27458,
  "At": 5619,
  "At</w>": 701,
  "Atg": 32918,
  "Ath": 29646,
  "Ather": 31535,
  "Atherosclerosis</w>": 20716,
  "Athl": 38842,
  "Athletes</w>": 34939,
  "Atl": 33224,
  "Atlantic</w>": 11433,
  "Atlas</w>": 19889,
  "Atomic</w>": 23292,
  "Atrial</w>": 12311,
  "Att": 31887,
  "Attachment</w>": 29403,
  "Attemp": 37208,
  "Attempts</w>": 22149,
  "Atten": 17968,
  "Attention</w>": 13176,
  "Attitudes</w>": 19240,
  "Atypical</w>": 19471,
  "Au": 8111,
  "Au</w>": 6799,
  "AuNPs</w>": 19194,
  "Aud": 38994,
  "Audi": 21875,
  "Auditory</w>": 18894,
  "Aug": 20213,
  "August</w>": 5394,
  "Aurora</w>": 26928,
  "Austr": 33054,
  "Austral": 23376,
  "Australia</w>": 4701,
  "Australian</w>": 5752,
  "Austria</w>": 24264,
  "Aut": 9090,
  "Auth": 21427,
  "Authors</w>": 14698,
  "Autism</w>": 16308,
  "Auto": 15332,
  "Autoimmune</w>": 21754,
  "Autologous</w>": 22417,
  "Autom": 36632,
  "Automated</w>": 16080,
  "Automatic</w>": 23852,
  "Autonomic</w>": 31141,
  "Autophagy</w>": 19419,
  "Autopsy</w>": 31063,
  "Av": 18601,
  "Avail": 40465,
  "Availability</w>": 32345,
  "Available</w>": 20442,
  "Aver": 36316,
  "Average</w>": 9215,
  "Avoid": 26555,
  "Awa": 39266,
  "Awareness</w>": 17901,
  "Ax": 11441,
  "Axis</w>": 27430,
  "Ay": 37533,
  "Ayurve": 34062,
  "Az": 10278,
  "Aβ": 21175,
  "Aβ</w>": 7841,
  "B": 230,
  "B-</w>": 23919,
  "B.": 22163,
  "B.</w>": 24648,
  "B10.": 32725,
  "B10</w>": 30422,
  "B12</w>": 10623,
  "B16</w>": 18995,
  "B19</w>": 22154,
  "B1</w>": 3412,
  "B27</w>": 20917,
  "B2</w>": 4546,
  "B3": 36090,
  "B3</w>": 9795,
  "B3LYP</w>": 28578,
  "B4</w>": 10225,
  "B5</w>": 23227,
  "B6": 35453,
  "B6</w>": 10164,
  "B6C3": 34449,
  "B7</w>": 11587,
  "B8</w>": 31872,
  "B</w>": 152,
  "BA": 10770,
  "BA</w>": 4708,
  "BAC": 14958,
  "BAC</w>": 14923,
  "BACKG": 40207,
  "BACKGROU": 38242,
  "BACKGROUND</w>": 280,
  "BAL": 35003,
  "BAL</w>": 10794,
  "BALB</w>": 6409,
  "BALF</w>": 18602,
  "BAP": 33194,
  "BASE</w>": 38510,
  "BAT</w>": 14784,
  "BAX</w>": 33550,
  "BAY</w>": 34259,
  "BB": 19845,
  "BB</w>": 8209,
  "BBB</w>": 9104,
  "BC": 11225,
  "BC</w>": 3452,
  "BCAA</w>": 34098,
  "BCC</w>": 18856,
  "BCG</w>": 8002,
  "BCI</w>": 21984,
  "BCL": 22966,
  "BCL2</w>": 30900,
  "BCL</w>": 18829,
  "BCNU</w>": 31207,
  "BCP</w>": 28486,
  "BCR</w>": 10985,
  "BCS</w>": 18911,
  "BCVA</w>": 18571,
  "BCs</w>": 33807,
  "BD": 11686,
  "BD</w>": 4237,
  "BDE</w>": 28786,
  "BDI</w>": 19976,
  "BDNF</w>": 6891,
  "BDV</w>": 29834,
  "BE": 12025,
  "BE</w>": 9111,
  "BED</w>": 32047,
  "BER</w>": 30062,
  "BET</w>": 27613,
  "BF": 26378,
  "BF</w>": 7917,
  "BFU</w>": 34514,
  "BG</w>": 10602,
  "BH4</w>": 30019,
  "BH</w>": 18406,
  "BHK</w>": 30803,
  "BHT</w>": 32361,
  "BI": 11710,
  "BI</w>": 6913,
  "BIA</w>": 28008,
  "BID</w>": 31097,
  "BIO": 32507,
  "BIS</w>": 21251,
  "BK": 19526,
  "BK</w>": 10391,
  "BL": 9873,
  "BL</w>": 7700,
  "BLA": 38011,
  "BLA</w>": 33491,
  "BLAST</w>": 33766,
  "BLM</w>": 22473,
  "BM": 3399,
  "BM</w>": 4069,
  "BMC</w>": 16881,
  "BMD</w>": 4657,
  "BMI</w>": 1893,
  "BMP2</w>": 34174,
  "BMP</w>": 8447,
  "BMS</w>": 21902,
  "BMSCs</w>": 15562,
  "BMT</w>": 10570,
  "BMs</w>": 30063,
  "BN": 20534,
  "BN</w>": 10298,
  "BNP</w>": 10559,
  "BO": 9830,
  "BO</w>": 20806,
  "BOLD</w>": 18301,
  "BP": 10971,
  "BP1</w>": 13874,
  "BP2</w>": 32356,
  "BP</w>": 1785,
  "BPA</w>": 11061,
  "BPD</w>": 10807,
  "BPH</w>": 12245,
  "BPS</w>": 33508,
  "BPV</w>": 33265,
  "BPs</w>": 17518,
  "BQ</w>": 27343,
  "BR": 5404,
  "BR</w>": 7254,
  "BRAF</w>": 11434,
  "BRCA1</w>": 10319,
  "BRCA2</w>": 19178,
  "BRCA</w>": 28616,
  "BRS</w>": 30449,
  "BS</w>": 5759,
  "BSA</w>": 7588,
  "BSE</w>": 27060,
  "BSI</w>": 22592,
  "BSO</w>": 33097,
  "BSP</w>": 29233,
  "BT": 18717,
  "BT</w>": 7061,
  "BTV</w>": 34002,
  "BTX</w>": 31445,
  "BU": 19461,
  "BUN</w>": 24370,
  "BV": 26531,
  "BV</w>": 8823,
  "BVDV</w>": 27987,
  "BW": 26880,
  "BW</w>": 7395,
  "BZ": 21168,
  "Ba": 7807,
  "Ba2</w>": 29424,
  "Ba</w>": 17592,
  "BaP</w>": 25727,
  "Bab": 24234,
  "Babesia</w>": 27801,
  "Bac": 15080,
  "Bacillus</w>": 4791,
  "Back": 32102,
  "Back</w>": 23395,
  "Background</w>": 2298,
  "Bacter": 20403,
  "Bacteri": 15936,
  "Bacteria</w>": 15424,
  "Bacterial</w>": 8389,
  "Bacteroides</w>": 16652,
  "Bal": 10690,
  "Balance</w>": 20958,
  "Balb</w>": 22950,
  "Balloon</w>": 30406,
  "Bam": 36120,
  "BamHI</w>": 33836,
  "Ban": 33624,
  "Band</w>": 30726,
  "Bang": 34857,
  "Bangl": 36633,
  "Bangladesh</w>": 15625,
  "Bank</w>": 22044,
  "Bar": 11485,
  "Barcel": 40347,
  "Barcelona</w>": 33960,
  "Barr": 37117,
  "Barr</w>": 9184,
  "Barrett</w>": 15676,
  "Barri": 39974,
  "Barrier</w>": 34367,
  "Barriers</w>": 20088,
  "Barré</w>": 27404,
  "Bart": 36192,
  "Barthel</w>": 33206,
  "Bartonella</w>": 33500,
  "Bas": 16727,
  "Basal</w>": 13147,
  "Base</w>": 19325,
  "Based</w>": 1304,
  "Baseline</w>": 8193,
  "Basi": 31289,
  "Basic</w>": 14225,
  "Basin</w>": 26626,
  "Bat": 33056,
  "Batter": 36652,
  "Battery</w>": 29381,
  "Bax</w>": 9120,
  "Bay": 30126,
  "Bay</w>": 14437,
  "Bayes</w>": 31306,
  "Bayesian</w>": 7658,
  "Bcl": 29031,
  "Bcl</w>": 4939,
  "Be": 5727,
  "Be</w>": 21696,
  "Bec": 14649,
  "Because</w>": 1884,
  "Beck</w>": 18606,
  "Bed": 29665,
  "Before</w>": 7419,
  "Beg": 30552,
  "Beh": 35212,
  "Behavi": 37610,
  "Behavior</w>": 9752,
  "Behavioral</w>": 10046,
  "Behaviors</w>": 28370,
  "Behaviour</w>": 27748,
  "Behavioural</w>": 31912,
  "Behçet</w>": 21318,
  "Bei": 39105,
  "Beijing</w>": 16447,
  "Being</w>": 15108,
  "Bel": 10831,
  "Belgian</w>": 29938,
  "Belgium</w>": 20885,
  "Bell</w>": 31907,
  "Ben": 17875,
  "Bene": 17580,
  "Benefits</w>": 25125,
  "Benign</w>": 19884,
  "Benz": 14153,
  "Ber": 14421,
  "Berg": 31936,
  "Berlin</w>": 28049,
  "Besides</w>": 6596,
  "Best</w>": 20360,
  "Bet": 18395,
  "Beta</w>": 11660,
  "Better</w>": 16233,
  "Between</w>": 3603,
  "Bey": 39882,
  "Beyond</w>": 17184,
  "Bi": 3309,
  "Bi</w>": 16783,
  "Bias</w>": 33533,
  "Bic": 23973,
  "Bif": 35460,
  "Bifid": 38687,
  "Bifidobacterium</w>": 28157,
  "Big</w>": 26072,
  "Bil": 21960,
  "Bilateral</w>": 10699,
  "Bile</w>": 24737,
  "Biliary</w>": 25553,
  "Bin": 23188,
  "Binary</w>": 34628,
  "Binding</w>": 7018,
  "Bio": 4788,
  "Bio</w>": 16153,
  "Biob": 34865,
  "Bioch": 35668,
  "Biochem</w>": 22886,
  "Biochemical</w>": 9810,
  "Biochemistry</w>": 23668,
  "Biofilm</w>": 33119,
  "Bioin": 35477,
  "Bioinformatics</w>": 22512,
  "Biol</w>": 11527,
  "Biological</w>": 9476,
  "Biology</w>": 21946,
  "Biom": 13496,
  "Biomar": 40278,
  "Biomarker</w>": 30327,
  "Biomarkers</w>": 17884,
  "Biomechanical</w>": 28500,
  "Biomedical</w>": 28422,
  "Bioph": 39781,
  "Biophys</w>": 33144,
  "Biopsies</w>": 30741,
  "Biopsy</w>": 18059,
  "Bios": 34964,
  "Biosynthesis</w>": 27169,
  "Bipolar</w>": 26285,
  "Bir": 15485,
  "Birth</w>": 16222,
  "Bis": 12254,
  "Bis</w>": 25338,
  "Bivariate</w>": 33288,
  "Bl": 14241,
  "Bl</w>": 31288,
  "Black</w>": 8233,
  "Blacks</w>": 28297,
  "Bladder</w>": 18743,
  "Bland</w>": 21674,
  "Blast": 27365,
  "Ble": 34714,
  "Bleeding</w>": 22051,
  "Blin": 22793,
  "Blo": 18009,
  "Bloc": 23922,
  "Block</w>": 25083,
  "Blockade</w>": 24581,
  "Blocking</w>": 25788,
  "Blood</w>": 2827,
  "Blu": 32959,
  "Blue</w>": 13136,
  "Bm": 21910,
  "Bmax</w>": 19531,
  "Bo": 5444,
  "BoNT</w>": 28698,
  "Board</w>": 15420,
  "Body</w>": 6522,
  "Bol": 33122,
  "Boltz": 40369,
  "Boltzmann</w>": 31347,
  "Bomb": 35900,
  "Bombyx</w>": 34675,
  "Bon": 22997,
  "Bond</w>": 18032,
  "Bone</w>": 4879,
  "Bonfer": 40226,
  "Bonferroni</w>": 25977,
  "Bor": 10220,
  "Bordetella</w>": 26292,
  "Borrelia</w>": 17323,
  "Bos": 28394,
  "Bost": 40022,
  "Boston</w>": 21308,
  "Bot": 15644,
  "Both</w>": 949,
  "Bovine</w>": 16739,
  "Bow": 24614,
  "Bowel</w>": 21397,
  "Box</w>": 27584,
  "Bq</w>": 28551,
  "Br": 3978,
  "Br</w>": 8980,
  "Bra": 14366,
  "Brachy": 32451,
  "Brad": 31992,
  "Bragg</w>": 28978,
  "Brain</w>": 4899,
  "Bran": 23964,
  "Brassi": 37203,
  "Brassica</w>": 20397,
  "Braz": 37177,
  "Brazil</w>": 5048,
  "Brazilian</w>": 7995,
  "Brd": 35601,
  "BrdU</w>": 15277,
  "Bre": 9148,
  "Breast": 33217,
  "Breast</w>": 5888,
  "Bri": 20389,
  "Brid": 27533,
  "Brief</w>": 14257,
  "Brit": 37780,
  "Britain</w>": 22802,
  "British</w>": 9251,
  "Bro": 10179,
  "Brom": 25793,
  "Bronch": 20741,
  "Bronchial</w>": 32427,
  "Brow": 37301,
  "Brown</w>": 16234,
  "Brownian</w>": 32405,
  "Bruc": 36872,
  "Brucella</w>": 17523,
  "Brug": 27886,
  "Brun": 31687,
  "Bs</w>": 7860,
  "Bt</w>": 26159,
  "Bu": 8361,
  "Bu</w>": 16886,
  "Bub": 32919,
  "Bud": 22307,
  "Buil": 37304,
  "Building</w>": 21804,
  "Bul": 14699,
  "Bun": 34224,
  "Bur": 8647,
  "Burden</w>": 25143,
  "Burk": 39586,
  "Burkhol": 39946,
  "Burkholderia</w>": 24860,
  "Burkitt</w>": 21007,
  "Burn</w>": 33672,
  "Bus": 33459,
  "But": 17458,
  "But</w>": 6349,
  "By</w>": 1215,
  "Byp": 39646,
  "Bypass</w>": 34031,
  "C": 305,
  "C-</w>": 23151,
  "C.": 11325,
  "C.</w>": 12598,
  "C1": 16845,
  "C10</w>": 33228,
  "C12</w>": 32708,
  "C16</w>": 25058,
  "C18</w>": 11643,
  "C1</w>": 4195,
  "C1q</w>": 18670,
  "C2": 12951,
  "C2</w>": 4877,
  "C2C12</w>": 28053,
  "C3": 7668,
  "C30</w>": 34567,
  "C3</w>": 5000,
  "C3H</w>": 12569,
  "C3b</w>": 23853,
  "C4": 14789,
  "C4</w>": 7320,
  "C5": 17791,
  "C57": 20319,
  "C57</w>": 32968,
  "C57BL</w>": 5555,
  "C5</w>": 10359,
  "C5a</w>": 20720,
  "C6": 15590,
  "C60</w>": 32712,
  "C6</w>": 9410,
  "C7</w>": 16507,
  "C8</w>": 17468,
  "C9</w>": 23838,
  "C</w>": 103,
  "CA": 1799,
  "CA125</w>": 27013,
  "CA19</w>": 31168,
  "CA1</w>": 7796,
  "CA2</w>": 25633,
  "CA3</w>": 14126,
  "CA</w>": 2068,
  "CAA</w>": 21056,
  "CAB</w>": 32636,
  "CABG</w>": 8808,
  "CAC": 30727,
  "CAC</w>": 17362,
  "CAD</w>": 4055,
  "CAE</w>": 34548,
  "CAF</w>": 24520,
  "CAG</w>": 15892,
  "CAH</w>": 24354,
  "CAI</w>": 29995,
  "CAL</w>": 15592,
  "CAM</w>": 6420,
  "CAN</w>": 25717,
  "CAP</w>": 8001,
  "CAPD</w>": 17823,
  "CAR": 28953,
  "CAR</w>": 9042,
  "CART</w>": 31893,
  "CAS</w>": 12215,
  "CASE</w>": 6425,
  "CAT": 31323,
  "CAT</w>": 6820,
  "CAs</w>": 26010,
  "CB": 4428,
  "CB1</w>": 19453,
  "CB2</w>": 32720,
  "CB</w>": 6147,
  "CBA</w>": 16381,
  "CBC</w>": 34660,
  "CBCT</w>": 13555,
  "CBD</w>": 14909,
  "CBF</w>": 8321,
  "CBI</w>": 28243,
  "CBP</w>": 19715,
  "CBS</w>": 21942,
  "CBT</w>": 10576,
  "CBV</w>": 27450,
  "CBZ</w>": 20985,
  "CBs</w>": 33169,
  "CC": 3864,
  "CC1</w>": 18139,
  "CC2</w>": 32841,
  "CC</w>": 3278,
  "CCA": 37172,
  "CCA</w>": 13394,
  "CCAAT</w>": 29469,
  "CCC</w>": 22870,
  "CCD</w>": 18414,
  "CCI</w>": 18312,
  "CCK</w>": 7024,
  "CCL": 12200,
  "CCL2</w>": 26926,
  "CCM</w>": 27453,
  "CCN": 16468,
  "CCP</w>": 24832,
  "CCR": 10783,
  "CCR2</w>": 33483,
  "CCR5</w>": 16751,
  "CCS</w>": 24113,
  "CCT</w>": 17195,
  "CCl4</w>": 18587,
  "CCs</w>": 19486,
  "CD": 1241,
  "CD10</w>": 29785,
  "CD11": 35484,
  "CD11b</w>": 17391,
  "CD11c</w>": 33613,
  "CD133</w>": 23074,
  "CD14</w>": 12769,
  "CD163</w>": 33568,
  "CD16</w>": 22823,
  "CD18</w>": 22748,
  "CD19</w>": 18469,
  "CD1</w>": 23883,
  "CD20</w>": 18242,
  "CD23</w>": 29929,
  "CD25</w>": 14092,
  "CD28</w>": 15770,
  "CD2</w>": 18760,
  "CD30</w>": 25595,
  "CD31</w>": 23196,
  "CD34</w>": 6666,
  "CD36</w>": 22962,
  "CD38</w>": 22426,
  "CD3</w>": 6462,
  "CD40</w>": 12777,
  "CD40L</w>": 22845,
  "CD44": 27054,
  "CD44</w>": 10461,
  "CD45": 16151,
  "CD45</w>": 17982,
  "CD4</w>": 1731,
  "CD56</w>": 20829,
  "CD5</w>": 21480,
  "CD68</w>": 23832,
  "CD80</w>": 28181,
  "CD86</w>": 27654,
  "CD8</w>": 3007,
  "CD95</w>": 24594,
  "CD</w>": 2101,
  "CDA</w>": 29461,
  "CDC": 24540,
  "CDC</w>": 12380,
  "CDD</w>": 35709,
  "CDDP</w>": 13859,
  "CDH</w>": 20883,
  "CDI</w>": 14471,
  "CDK": 16833,
  "CDK2</w>": 34243,
  "CDK4</w>": 27227,
  "CDK</w>": 28020,
  "CDKN": 25127,
  "CDP</w>": 24012,
  "CDR</w>": 25828,
  "CDS</w>": 24329,
  "CDT</w>": 28487,
  "CDs</w>": 12462,
  "CE": 4773,
  "CE</w>": 4536,
  "CEA</w>": 6691,
  "CEC</w>": 29634,
  "CEM</w>": 24028,
  "CEN": 24325,
  "CENT</w>": 40059,
  "CENTRAL</w>": 25714,
  "CER": 26298,
  "CES</w>": 21642,
  "CETP</w>": 28708,
  "CEUS</w>": 25785,
  "CF": 5031,
  "CF</w>": 3486,
  "CFA</w>": 15900,
  "CFC</w>": 26886,
  "CFD</w>": 33172,
  "CFR</w>": 30392,
  "CFS</w>": 16300,
  "CFTR</w>": 11189,
  "CFU</w>": 6941,
  "CFs</w>": 26961,
  "CG": 10322,
  "CG</w>": 6821,
  "CGA</w>": 32513,
  "CGH</w>": 22634,
  "CGI</w>": 30156,
  "CGM</w>": 33871,
  "CGP</w>": 26116,
  "CGRP</w>": 9801,
  "CGS</w>": 31781,
  "CH": 2550,
  "CH1</w>": 33258,
  "CH2": 22787,
  "CH2</w>": 20362,
  "CH3": 23299,
  "CH3</w>": 18715,
  "CH4</w>": 25099,
  "CH</w>": 4239,
  "CHA</w>": 29708,
  "CHB</w>": 20916,
  "CHC</w>": 21765,
  "CHD</w>": 5823,
  "CHF</w>": 8713,
  "CHL</w>": 34828,
  "CHO</w>": 7935,
  "CHOP</w>": 18145,
  "CHS</w>": 21748,
  "CHX</w>": 26627,
  "CI": 3650,
  "CI</w>": 266,
  "CIA</w>": 24020,
  "CIC</w>": 25257,
  "CID</w>": 22902,
  "CII</w>": 32418,
  "CIMT</w>": 31762,
  "CIN": 17360,
  "CIN</w>": 12036,
  "CINAHL</w>": 15455,
  "CIP</w>": 28480,
  "CIPA": 40338,
  "CIS</w>": 17061,
  "CIT</w>": 29242,
  "CIs</w>": 10897,
  "CJD</w>": 25165,
  "CK": 7516,
  "CK2</w>": 26451,
  "CK</w>": 5753,
  "CKD</w>": 5027,
  "CL": 3153,
  "CL1</w>": 29716,
  "CL</w>": 3498,
  "CLA</w>": 13931,
  "CLC</w>": 24997,
  "CLD</w>": 26529,
  "CLE</w>": 25870,
  "CLIN": 38223,
  "CLINICAL</w>": 8605,
  "CLL</w>": 9186,
  "CLP</w>": 16593,
  "CLS</w>": 22275,
  "CLUSI": 37574,
  "CLs</w>": 20577,
  "CM": 4097,
  "CM</w>": 3808,
  "CMA</w>": 27875,
  "CMC</w>": 15576,
  "CMD</w>": 29743,
  "CME</w>": 22257,
  "CMI</w>": 26668,
  "CML</w>": 8978,
  "CMP</w>": 22358,
  "CMR</w>": 15255,
  "CMS</w>": 18689,
  "CMT</w>": 22608,
  "CMV</w>": 4371,
  "CMs</w>": 20263,
  "CN": 3828,
  "CN</w>": 5266,
  "CNN</w>": 22352,
  "CNP</w>": 22543,
  "CNR</w>": 33370,
  "CNS</w>": 2960,
  "CNT</w>": 13203,
  "CNTF</w>": 33846,
  "CNTs</w>": 16599,
  "CNU</w>": 38730,
  "CNV</w>": 13907,
  "CNVs</w>": 25820,
  "CO": 2660,
  "CO2</w>": 3117,
  "CO3</w>": 29398,
  "CO</w>": 2343,
  "COC</w>": 34568,
  "COD</w>": 15551,
  "COI</w>": 27213,
  "COL": 14779,
  "COLL": 39712,
  "COLLECTION</w>": 23314,
  "COM": 17081,
  "COM</w>": 22685,
  "COMT</w>": 23206,
  "CON": 9551,
  "CON</w>": 14210,
  "CONCLUSI": 39017,
  "CONCLUSION</w>": 319,
  "CONCLUSIONS</w>": 226,
  "CONTEXT</w>": 12645,
  "COOH</w>": 14935,
  "COP</w>": 22506,
  "COPD</w>": 3609,
  "COR</w>": 31767,
  "CORT</w>": 28129,
  "COS</w>": 12407,
  "COVID</w>": 4805,
  "COX</w>": 4816,
  "CP": 4423,
  "CP2</w>": 27719,
  "CP</w>": 2633,
  "CPA</w>": 15472,
  "CPAP</w>": 12256,
  "CPB</w>": 10806,
  "CPC</w>": 22047,
  "CPD</w>": 23443,
  "CPE</w>": 23252,
  "CPG</w>": 33326,
  "CPK</w>": 30339,
  "CPM</w>": 25838,
  "CPP</w>": 11562,
  "CPR</w>": 9736,
  "CPS</w>": 21246,
  "CPT</w>": 10921,
  "CPs</w>": 20128,
  "CQ</w>": 23614,
  "CR": 2735,
  "CR1</w>": 19208,
  "CR</w>": 3370,
  "CRC</w>": 3822,
  "CRD4": 40110,
  "CRD420": 28092,
  "CRE": 21085,
  "CRE</w>": 22202,
  "CREB</w>": 12197,
  "CRF</w>": 7405,
  "CRH</w>": 13298,
  "CRI": 35168,
  "CRISPR</w>": 9864,
  "CRIT": 40482,
  "CRITERIA</w>": 20661,
  "CRM</w>": 33266,
  "CRP</w>": 3993,
  "CRPC</w>": 22852,
  "CRS</w>": 13835,
  "CRT</w>": 7709,
  "CRs</w>": 28410,
  "CS": 4038,
  "CS</w>": 2501,
  "CSA</w>": 10600,
  "CSC</w>": 15043,
  "CSCs</w>": 16084,
  "CSD</w>": 27701,
  "CSE</w>": 22806,
  "CSF</w>": 1724,
  "CSI</w>": 31360,
  "CSM</w>": 28307,
  "CSP</w>": 20167,
  "CSR</w>": 34112,
  "CSS</w>": 17256,
  "CST</w>": 18269,
  "CSs</w>": 31784,
  "CT": 3143,
  "CT</w>": 621,
  "CTA</w>": 10896,
  "CTC</w>": 15280,
  "CTCs</w>": 19717,
  "CTD</w>": 19334,
  "CTG</w>": 28697,
  "CTGF</w>": 24722,
  "CTL</w>": 7424,
  "CTLA": 33104,
  "CTLA</w>": 20202,
  "CTLs</w>": 24342,
  "CTO</w>": 32020,
  "CTP</w>": 16157,
  "CTR</w>": 25815,
  "CTS</w>": 18751,
  "CTV</w>": 31591,
  "CTX</w>": 13108,
  "CTs</w>": 16003,
  "CU": 11138,
  "CU</w>": 19754,
  "CUS</w>": 28970,
  "CV": 6712,
  "CV</w>": 4164,
  "CVC</w>": 22970,
  "CVD</w>": 4862,
  "CVI</w>": 33509,
  "CVP</w>": 32242,
  "CVR</w>": 34386,
  "CVS</w>": 27607,
  "CVs</w>": 32564,
  "CW": 31818,
  "CW</w>": 19877,
  "CX": 10303,
  "CX</w>": 28594,
  "CXCL": 12063,
  "CXCL12</w>": 28829,
  "CXCR": 17004,
  "CXCR4</w>": 12404,
  "CY": 9788,
  "CY</w>": 21281,
  "CYP": 7716,
  "CYP1A1</w>": 22133,
  "CYP1A2</w>": 26974,
  "CYP2": 15120,
  "CYP2C": 36350,
  "CYP2C19</w>": 25292,
  "CYP2C9</w>": 27724,
  "CYP2D6</w>": 18826,
  "CYP2E1</w>": 24412,
  "CYP3": 28407,
  "CYP3A4</w>": 17684,
  "CYP3A</w>": 29401,
  "CYP</w>": 14481,
  "CZ": 26726,
  "Ca": 3133,
  "Ca2</w>": 1079,
  "Ca</w>": 1232,
  "CaCl2</w>": 26236,
  "CaM</w>": 14043,
  "CaMK": 36253,
  "CaMKII</w>": 26838,
  "CaP</w>": 26031,
  "CaT</w>": 39557,
  "Caco</w>": 14526,
  "Cad": 27565,
  "Cadmium</w>": 27195,
  "Caenor": 40360,
  "Caenorhabditis</w>": 15047,
  "Caesarean</w>": 30191,
  "Caffe": 38659,
  "Caffeine</w>": 29350,
  "Cal": 5660,
  "Calc": 14945,
  "Calcium</w>": 9039,
  "Calcul": 30393,
  "Calculations</w>": 31601,
  "Calibration</w>": 34295,
  "Califor": 39025,
  "California</w>": 7127,
  "Call": 31236,
  "Calmette</w>": 27468,
  "Cam": 11691,
  "Cambo": 32175,
  "Camero": 38847,
  "Cameroon</w>": 26906,
  "Camp": 25925,
  "Campylobacter</w>": 11806,
  "Can": 11054,
  "Can</w>": 10552,
  "Canada</w>": 5192,
  "Canadi": 36124,
  "Canadian</w>": 6721,
  "Cancer</w>": 1788,
  "Cancers</w>": 34886,
  "Candi": 26464,
  "Candida</w>": 5077,
  "Candidate</w>": 33648,
  "Canine</w>": 28571,
  "Cann": 36217,
  "Cannabis</w>": 33092,
  "Cap": 6638,
  "Capacity</w>": 27985,
  "Cape</w>": 23956,
  "Capillary</w>": 26488,
  "Car": 6337,
  "Carb": 10847,
  "Carbo": 35468,
  "Carbohydrate</w>": 32540,
  "Carbon</w>": 10326,
  "Carcin": 18868,
  "Carcinoma</w>": 10183,
  "Cardi": 15489,
  "Cardiac</w>": 5389,
  "Cardio": 32267,
  "Cardiology</w>": 25167,
  "Cardiomy": 26420,
  "Cardiopulmonary</w>": 32883,
  "Cardiovascular</w>": 7865,
  "Care": 25854,
  "Care</w>": 3282,
  "Careful</w>": 20018,
  "Caregi": 33840,
  "Caregivers</w>": 27771,
  "Carib": 38920,
  "Caribbean</w>": 18142,
  "Carlo</w>": 8958,
  "Caro": 31604,
  "Carolina</w>": 17905,
  "Carotid</w>": 17955,
  "Carri": 24852,
  "Cartilage</w>": 30418,
  "Cas": 16172,
  "Cas9</w>": 12372,
  "Cas</w>": 26540,
  "Case</w>": 3061,
  "Cases</w>": 9383,
  "Caspase</w>": 19392,
  "Cast": 26714,
  "Cat": 9246,
  "Cat</w>": 34450,
  "Catal": 24151,
  "Catalytic</w>": 25474,
  "Catalyzed</w>": 24225,
  "Catar": 31102,
  "Catech": 31100,
  "Categ": 35128,
  "Category</w>": 35439,
  "Cath": 17600,
  "Catheter</w>": 23769,
  "Cauc": 37191,
  "Caucasi": 40593,
  "Caucasian</w>": 8373,
  "Caucasians</w>": 16319,
  "Cause</w>": 26485,
  "Caused</w>": 30144,
  "Causes</w>": 23623,
  "Cav": 22455,
  "Cb": 30168,
  "Cbl</w>": 27518,
  "Cd": 8880,
  "Cd2</w>": 28165,
  "Cd</w>": 4251,
  "CdS</w>": 28050,
  "CdSe</w>": 32273,
  "Cdc": 15044,
  "Cdc42</w>": 25869,
  "Cdk": 30450,
  "Ce": 13313,
  "Ce</w>": 21922,
  "Cef": 21641,
  "Cel": 21527,
  "Cell</w>": 2134,
  "Cells</w>": 3428,
  "Cellular</w>": 9287,
  "Cen": 37173,
  "Census</w>": 34500,
  "Cent": 19642,
  "Center</w>": 4271,
  "Centers</w>": 12546,
  "Centr": 25548,
  "Central</w>": 4620,
  "Centre</w>": 10788,
  "Cephal": 32502,
  "Cer": 8990,
  "Cer</w>": 24081,
  "Cerebellar</w>": 34695,
  "Cerebral</w>": 8968,
  "Cerebro": 35300,
  "Cerebrospinal</w>": 25803,
  "Certain</w>": 15620,
  "Cervical</w>": 11247,
  "Cesarean</w>": 32357,
  "Ch": 2201,
  "Ch</w>": 27434,
  "ChAT</w>": 23259,
  "ChE</w>": 21112,
  "ChIP</w>": 21796,
  "Cha": 18319,
  "Chag": 39226,
  "Chagas</w>": 18394,
  "Chain</w>": 23163,
  "Challeng": 37196,
  "Challenge</w>": 33489,
  "Challenges</w>": 16139,
  "Chang": 35811,
  "Change</w>": 11965,
  "Changes</w>": 3127,
  "Changing</w>": 21889,
  "Channel</w>": 30361,
  "Char": 13491,
  "Character": 18081,
  "Characteristic</w>": 26473,
  "Characteristics</w>": 8906,
  "Characterization</w>": 4338,
  "Charcot</w>": 27429,
  "Charg": 37123,
  "Charge</w>": 28783,
  "Charlson</w>": 28508,
  "Che": 15009,
  "Check": 35935,
  "Checklist</w>": 19719,
  "Chel": 31411,
  "Chem": 11140,
  "Chem</w>": 11000,
  "Chemical</w>": 7712,
  "Chemistry</w>": 28045,
  "Chemo": 21180,
  "Chemotherapy</w>": 12779,
  "Cher": 27754,
  "Chest</w>": 15254,
  "Chi": 17833,
  "Chi</w>": 10375,
  "Chiari</w>": 23336,
  "Chic": 22468,
  "Chicago</w>": 24317,
  "Chil": 37001,
  "Child": 36352,
  "Child</w>": 7236,
  "Childhood</w>": 11539,
  "Children</w>": 2863,
  "Chile</w>": 20219,
  "Chilean</w>": 34121,
  "Chim": 27224,
  "Chin": 36501,
  "China</w>": 2083,
  "Chinese</w>": 1743,
  "Chip</w>": 27387,
  "Chir": 29702,
  "Chiral</w>": 32761,
  "Chit": 37913,
  "Chitosan</w>": 28429,
  "Chl</w>": 24575,
  "Chlamy": 35926,
  "Chlamydia</w>": 11195,
  "Chlamydomonas</w>": 25204,
  "Chlo": 35350,
  "Chlor": 13868,
  "Chlorella</w>": 33156,
  "Chloro": 16985,
  "Cho": 15678,
  "Cho</w>": 29212,
  "Choice</w>": 28218,
  "Chol": 13667,
  "Cholec": 34736,
  "Cholesterol</w>": 16141,
  "Chondro": 24176,
  "Chr": 36537,
  "Chris": 31579,
  "Chrom": 19168,
  "Chromat": 33652,
  "Chromatin</w>": 26509,
  "Chromatography</w>": 28130,
  "Chromosomal</w>": 24210,
  "Chromosome</w>": 18515,
  "Chron": 30624,
  "Chronic</w>": 3160,
  "Chrys": 33057,
  "Ci": 17526,
  "Ci</w>": 22221,
  "Cigaret": 39080,
  "Cigarette</w>": 24458,
  "Cin": 28257,
  "Cir": 12485,
  "Circadian</w>": 25039,
  "Circular</w>": 24206,
  "Circulating</w>": 12277,
  "Circum": 33689,
  "Cis": 37008,
  "Cisplatin</w>": 23118,
  "Citr": 36373,
  "Citrus</w>": 30668,
  "City</w>": 8680,
  "Cl": 3380,
  "Cl-</w>": 8912,
  "Cl2</w>": 11405,
  "Cl3</w>": 25817,
  "Cl4</w>": 36866,
  "Cl</w>": 2989,
  "Cla": 19146,
  "Clar": 26365,
  "Class</w>": 7212,
  "Classi": 22893,
  "Classical</w>": 26901,
  "Classification</w>": 8531,
  "Cle": 24038,
  "Clear": 23552,
  "Clear</w>": 25751,
  "Cleavage</w>": 32818,
  "Cli": 33225,
  "Clim": 36825,
  "Climate</w>": 25003,
  "Clin": 14383,
  "Clin</w>": 32577,
  "Clinic": 35328,
  "Clinic</w>": 9180,
  "Clinical": 36263,
  "Clinical</w>": 1119,
  "ClinicalTri": 39145,
  "ClinicalTrials.gov</w>": 12249,
  "Clinically</w>": 12497,
  "Clinicians</w>": 13602,
  "Clinicopathological</w>": 34572,
  "Clo": 23041,
  "Cloning</w>": 14231,
  "Clos": 23327,
  "Close</w>": 25978,
  "Closed</w>": 33708,
  "Clostr": 36575,
  "Clostridium</w>": 8806,
  "Clu": 14250,
  "Cluster</w>": 16935,
  "Cmax</w>": 18093,
  "Co": 2050,
  "Co2</w>": 32327,
  "Co</w>": 3842,
  "CoA</w>": 4671,
  "CoV</w>": 8388,
  "Coast</w>": 33556,
  "Cob": 22055,
  "Cobb</w>": 27249,
  "Cocaine</w>": 28464,
  "Coch": 37041,
  "Cochlear</w>": 32905,
  "Cochrane</w>": 5269,
  "Code</w>": 28850,
  "Cognition</w>": 34760,
  "Cognitive</w>": 6475,
  "Coh": 38782,
  "Cohe": 25119,
  "Cohen</w>": 19039,
  "Cohort</w>": 8798,
  "Col": 4357,
  "Col</w>": 30153,
  "Cold</w>": 21162,
  "Cole": 39293,
  "Coleoptera</w>": 27725,
  "Coll": 24140,
  "Collabor": 37778,
  "Collaboration</w>": 24341,
  "Collaborative</w>": 20669,
  "Collagen</w>": 17567,
  "Collec": 34036,
  "Collection</w>": 27309,
  "Collectively</w>": 8839,
  "College</w>": 7260,
  "Colom": 35372,
  "Colombia</w>": 20064,
  "Colon": 19384,
  "Colon</w>": 25871,
  "Colonic</w>": 32204,
  "Color": 39351,
  "Color</w>": 19326,
  "Colorado</w>": 27459,
  "Colorectal</w>": 13191,
  "Colum": 37839,
  "Columbia</w>": 18499,
  "Com": 4341,
  "Coma</w>": 26062,
  "Combin": 25532,
  "Combination</w>": 10315,
  "Combined</w>": 6600,
  "Combining</w>": 12868,
  "Comm": 37158,
  "Commerc": 36722,
  "Commercial</w>": 29472,
  "Commission</w>": 16952,
  "Commit": 36356,
  "Committee</w>": 9119,
  "Common": 29717,
  "Common</w>": 9529,
  "Commun": 28896,
  "Communication</w>": 16339,
  "Communities</w>": 27783,
  "Community</w>": 6759,
  "Comorbidity</w>": 29844,
  "Comp": 21857,
  "Compan": 34213,
  "Compar": 26546,
  "Comparative</w>": 5125,
  "Compared</w>": 2200,
  "Comparing</w>": 10417,
  "Comparison</w>": 2381,
  "Comparisons</w>": 11883,
  "Compens": 31420,
  "Compet": 26834,
  "Competi": 39522,
  "Competition</w>": 27204,
  "Competitive</w>": 32092,
  "Compl": 17782,
  "Complement</w>": 26553,
  "Complementary</w>": 24686,
  "Complete</w>": 6745,
  "Complex": 32733,
  "Complex</w>": 8615,
  "Complexes</w>": 21602,
  "Compliance</w>": 24130,
  "Complications</w>": 8747,
  "Compo": 39095,
  "Compon": 40539,
  "Component</w>": 22146,
  "Components</w>": 28182,
  "Composite</w>": 17696,
  "Composition</w>": 22617,
  "Compound</w>": 13537,
  "Compounds</w>": 13485,
  "Compreh": 37179,
  "Comprehensive</w>": 11639,
  "Compression</w>": 33449,
  "Compu": 35727,
  "Comput": 36960,
  "Computational</w>": 16044,
  "Computed</w>": 8670,
  "Computer</w>": 11554,
  "Computerized</w>": 24102,
  "Con": 2499,
  "Con</w>": 11384,
  "ConA</w>": 31572,
  "Concentr": 36233,
  "Concentration</w>": 18234,
  "Concentrations</w>": 11185,
  "Concep": 24257,
  "Concept</w>": 34412,
  "Concer": 34639,
  "Concerning</w>": 23070,
  "Concerns</w>": 32103,
  "Conclusion</w>": 2213,
  "Conclusions</w>": 2726,
  "Concomit": 34715,
  "Concomitant</w>": 19254,
  "Concurrent</w>": 19612,
  "Condi": 20350,
  "Conditional</w>": 34210,
  "Conditions</w>": 16063,
  "Conduc": 24549,
  "Conf": 37241,
  "Conference</w>": 21763,
  "Confidence</w>": 26279,
  "Confir": 19905,
  "Conflic": 29647,
  "Confocal</w>": 25844,
  "Conform": 38422,
  "Conformational</w>": 27277,
  "Cong": 32811,
  "Congenital</w>": 9773,
  "Congo</w>": 22300,
  "Congress</w>": 31113,
  "Conjug": 20444,
  "Connec": 14128,
  "Consec": 39626,
  "Consecutive</w>": 19406,
  "Consensus</w>": 17998,
  "Consequences</w>": 32674,
  "Consequently</w>": 6211,
  "Conserv": 39326,
  "Conservation</w>": 34789,
  "Conservative</w>": 22017,
  "Consi": 36721,
  "Consider": 39398,
  "Considerable</w>": 21559,
  "Consideration</w>": 32328,
  "Considerations</w>": 30343,
  "Considering</w>": 7883,
  "Consist": 37473,
  "Consistent</w>": 8720,
  "Consistently</w>": 27476,
  "Consortium</w>": 20505,
  "Const": 38269,
  "Constant</w>": 27678,
  "Constitu": 24504,
  "Construc": 25064,
  "Construction</w>": 20495,
  "Consul": 24468,
  "Consum": 27483,
  "Consumption</w>": 21293,
  "Cont": 16694,
  "Contact</w>": 18534,
  "Containing</w>": 27745,
  "Contemporary</w>": 31282,
  "Content</w>": 18634,
  "Context</w>": 22343,
  "Contin": 15906,
  "Continued</w>": 27702,
  "Continuous</w>": 9342,
  "Contr": 15315,
  "Contrac": 34099,
  "Contrary</w>": 14265,
  "Contrast</w>": 14718,
  "Contrib": 21720,
  "Contribution</w>": 21239,
  "Contro": 39951,
  "Control</w>": 3477,
  "Controll": 37340,
  "Controlled</w>": 7170,
  "Controlling</w>": 21685,
  "Controls</w>": 19276,
  "Controver": 29908,
  "Conventional</w>": 10746,
  "Conver": 23665,
  "Conversely</w>": 6465,
  "Conversion</w>": 21172,
  "Cooperative</w>": 19376,
  "Coord": 29719,
  "Coordination</w>": 31383,
  "Cop": 16385,
  "Copenh": 40188,
  "Copenhagen</w>": 33454,
  "Coping</w>": 26330,
  "Copper</w>": 17107,
  "Copyright</w>": 20199,
  "Cor": 5051,
  "Cord</w>": 20568,
  "Core</w>": 14845,
  "Corneal</w>": 18711,
  "Coron": 37704,
  "Coronary</w>": 7410,
  "Coronavirus</w>": 34595,
  "Correc": 19941,
  "Correction</w>": 11566,
  "Correlates</w>": 27956,
  "Correlation</w>": 7168,
  "Correlations</w>": 14423,
  "Correspon": 34327,
  "Corresponding</w>": 28186,
  "Corrig": 33844,
  "Cortex</w>": 31607,
  "Cortical</w>": 16398,
  "Cortico": 21351,
  "Cortisol</w>": 30968,
  "Coryne": 39467,
  "Corynebacterium</w>": 21231,
  "Cos": 27265,
  "Cost": 37192,
  "Cost</w>": 10707,
  "Costa</w>": 30657,
  "Costs</w>": 21975,
  "Cot": 22824,
  "Cou": 24293,
  "Coul": 23673,
  "Coun": 10812,
  "Counc": 39766,
  "Council</w>": 13270,
  "Countries</w>": 33008,
  "County</w>": 11295,
  "Coupled</w>": 27370,
  "Coupling</w>": 24345,
  "Cour": 27635,
  "Course</w>": 30328,
  "Cover": 34266,
  "Cow": 34561,
  "Cox": 31723,
  "Cox</w>": 4073,
  "Cp": 15367,
  "Cp</w>": 20379,
  "CpG</w>": 8624,
  "Cr": 5816,
  "Cr</w>": 4759,
  "Cran": 37928,
  "Crani": 27366,
  "Cranial</w>": 33727,
  "Cre": 9261,
  "Cre</w>": 16451,
  "Creutz": 40023,
  "Creutzfeldt</w>": 33175,
  "Cri": 25689,
  "Criter": 36711,
  "Criteria</w>": 14117,
  "Critical</w>": 10936,
  "Critically</w>": 32503,
  "Cro": 17125,
  "Croati": 26550,
  "Crohn</w>": 6155,
  "Cron": 37467,
  "Cronbach</w>": 14390,
  "Cros": 23884,
  "Cross": 33862,
  "Cross</w>": 5019,
  "Cru": 34902,
  "Cruc": 29521,
  "Crude</w>": 30022,
  "Cry": 10779,
  "Cryp": 22276,
  "Cryptococcus</w>": 22406,
  "Cryptospor": 38830,
  "Cryptosporidium</w>": 17874,
  "Cryst": 24726,
  "Crystal</w>": 14326,
  "Crystall": 25997,
  "Cs": 13227,
  "Cs</w>": 2253,
  "CsA</w>": 8661,
  "Ct": 28318,
  "Cu": 6354,
  "Cu2</w>": 23800,
  "Cu</w>": 2665,
  "CuO</w>": 31698,
  "Cuc": 26443,
  "Cul": 18907,
  "Culex</w>": 26872,
  "Culic": 28882,
  "Cultural</w>": 28489,
  "Culture</w>": 15325,
  "Cultured</w>": 21774,
  "Cultures</w>": 23036,
  "Cum": 36724,
  "Cumulative</w>": 17741,
  "Cur": 9751,
  "Curcumin</w>": 24761,
  "Current</w>": 3572,
  "Currently</w>": 6552,
  "Cushing</w>": 14913,
  "Cut": 32812,
  "Cutaneous</w>": 15306,
  "Cx": 13435,
  "Cx43</w>": 18386,
  "Cy": 6186,
  "Cy</w>": 33557,
  "CyA</w>": 28355,
  "Cyan": 25936,
  "Cycl": 12120,
  "Cycle</w>": 28376,
  "Cyclic</w>": 16949,
  "Cyclin</w>": 21154,
  "Cyclo": 22242,
  "Cyclos": 22528,
  "Cyp": 15034,
  "Cys": 11235,
  "Cys</w>": 8056,
  "Cyst": 21017,
  "Cystic</w>": 19489,
  "Cyt": 8920,
  "Cyto": 20595,
  "Cytochrome</w>": 21336,
  "Cytogenetic</w>": 25051,
  "Cytokine</w>": 20998,
  "Cytokines</w>": 26280,
  "Cytomegalovirus</w>": 29277,
  "Cytoplasmic</w>": 30813,
  "Cytos": 25728,
  "Cytotoxic</w>": 23698,
  "Cytotoxicity</w>": 23289,
  "Cz": 36546,
  "Czech</w>": 21603,
  "D": 261,
  "D-</w>": 17392,
  "D.": 21098,
  "D.</w>": 15779,
  "D1</w>": 3098,
  "D2": 26063,
  "D2</w>": 3532,
  "D3": 32169,
  "D3</w>": 4880,
  "D4": 34812,
  "D4</w>": 11126,
  "D5</w>": 24550,
  "D6</w>": 28889,
  "D7</w>": 34426,
  "D88</w>": 38762,
  "D</w>": 245,
  "DA": 8382,
  "DA</w>": 2589,
  "DAA</w>": 28237,
  "DAD</w>": 31854,
  "DAF</w>": 27915,
  "DAG</w>": 24351,
  "DAI</w>": 31930,
  "DAP": 34474,
  "DAP</w>": 22025,
  "DAPT</w>": 33267,
  "DAS": 38806,
  "DAS28</w>": 34914,
  "DAS</w>": 19829,
  "DASH</w>": 24666,
  "DAT</w>": 15266,
  "DATA</w>": 6674,
  "DB": 13849,
  "DB</w>": 14841,
  "DBA</w>": 14060,
  "DBH</w>": 34596,
  "DBP</w>": 10108,
  "DBS</w>": 11321,
  "DBT</w>": 29252,
  "DC</w>": 3062,
  "DCA</w>": 20409,
  "DCC</w>": 31191,
  "DCD</w>": 29765,
  "DCE</w>": 21099,
  "DCIS</w>": 19320,
  "DCM</w>": 15408,
  "DCP</w>": 30010,
  "DCR</w>": 33389,
  "DCS</w>": 26499,
  "DCs</w>": 6384,
  "DD": 8669,
  "DD</w>": 6781,
  "DDD</w>": 23612,
  "DDE</w>": 28909,
  "DDM</w>": 38704,
  "DDP</w>": 19634,
  "DDR</w>": 34170,
  "DDS</w>": 27154,
  "DDT</w>": 17535,
  "DE": 3494,
  "DE</w>": 6716,
  "DEA</w>": 31441,
  "DEAE</w>": 16368,
  "DEC</w>": 34796,
  "DEGs</w>": 14519,
  "DEHP</w>": 24866,
  "DEN</w>": 26452,
  "DENCE</w>": 39675,
  "DENV</w>": 19241,
  "DEP</w>": 21044,
  "DER</w>": 34226,
  "DES</w>": 10989,
  "DESC": 40078,
  "DESCRIP": 39883,
  "DESCRIPTION</w>": 27681,
  "DESIGN</w>": 1351,
  "DEX</w>": 14014,
  "DEs</w>": 36146,
  "DF": 5697,
  "DF</w>": 6498,
  "DFS</w>": 10617,
  "DFT</w>": 9738,
  "DG": 12582,
  "DG</w>": 8780,
  "DH": 9309,
  "DH</w>": 7939,
  "DHA</w>": 9319,
  "DHE": 39177,
  "DHEA</w>": 14725,
  "DHEAS</w>": 33510,
  "DHFR</w>": 26543,
  "DHP</w>": 33781,
  "DHT</w>": 15954,
  "DI": 3409,
  "DI</w>": 6125,
  "DIA</w>": 34186,
  "DIAG": 40250,
  "DIAGNO": 33229,
  "DIC</w>": 16393,
  "DIN": 37514,
  "DING</w>": 38177,
  "DIP</w>": 33684,
  "DIS</w>": 30031,
  "DISC": 36321,
  "DISCUS": 39720,
  "DISCUSSION</w>": 4858,
  "DIT</w>": 33017,
  "DIs</w>": 29464,
  "DJ</w>": 33712,
  "DK": 32176,
  "DKA</w>": 33993,
  "DL": 5118,
  "DL</w>": 7786,
  "DLB</w>": 28750,
  "DLBCL</w>": 16932,
  "DLPFC</w>": 33304,
  "DLS</w>": 27097,
  "DM": 4085,
  "DM1</w>": 26694,
  "DM</w>": 3138,
  "DMA</w>": 25903,
  "DMAR": 35452,
  "DMARDs</w>": 33847,
  "DMBA</w>": 20794,
  "DMD</w>": 14795,
  "DME</w>": 27653,
  "DMF</w>": 20912,
  "DMH</w>": 33277,
  "DMI</w>": 24689,
  "DMN</w>": 20563,
  "DMS</w>": 31859,
  "DMSA</w>": 33812,
  "DMSO</w>": 11988,
  "DMT</w>": 32100,
  "DN": 6037,
  "DN</w>": 9650,
  "DNA": 18383,
  "DNA</w>": 173,
  "DNAs</w>": 12522,
  "DNMT": 32931,
  "DNP</w>": 17447,
  "DNR</w>": 28668,
  "DNase</w>": 14217,
  "DNs</w>": 29667,
  "DO": 5181,
  "DO</w>": 13376,
  "DOC</w>": 18197,
  "DOCA</w>": 27318,
  "DOI</w>": 14027,
  "DOM</w>": 23072,
  "DON</w>": 22522,
  "DOPA</w>": 14904,
  "DOPAC</w>": 28450,
  "DOR</w>": 29557,
  "DOT</w>": 23503,
  "DOX</w>": 10635,
  "DP": 11966,
  "DP</w>": 4933,
  "DPA</w>": 32940,
  "DPAT</w>": 23213,
  "DPD</w>": 30609,
  "DPH</w>": 32496,
  "DPI</w>": 28966,
  "DPP": 30014,
  "DPP</w>": 17424,
  "DPPC</w>": 26335,
  "DPPH</w>": 20565,
  "DQ": 16800,
  "DQ</w>": 15977,
  "DQA1</w>": 34072,
  "DQB1</w>": 21282,
  "DR": 3558,
  "DR3</w>": 32036,
  "DR4</w>": 25946,
  "DR</w>": 3378,
  "DRB1</w>": 13932,
  "DRE": 23337,
  "DRE</w>": 31435,
  "DRF</w>": 30575,
  "DRG</w>": 12689,
  "DRS</w>": 30849,
  "DS": 16008,
  "DS</w>": 2804,
  "DSA</w>": 15496,
  "DSB</w>": 22839,
  "DSBs</w>": 25169,
  "DSC</w>": 16257,
  "DSM</w>": 6684,
  "DSP</w>": 33093,
  "DSS</w>": 14135,
  "DST</w>": 26784,
  "DT": 19209,
  "DT</w>": 8394,
  "DTC</w>": 23989,
  "DTH</w>": 22978,
  "DTI</w>": 16013,
  "DTPA</w>": 13057,
  "DTT</w>": 26386,
  "DU": 10875,
  "DU</w>": 19422,
  "DURE</w>": 41014,
  "DURES</w>": 41051,
  "DV": 33561,
  "DV</w>": 12330,
  "DVT</w>": 11239,
  "DW": 32111,
  "DW</w>": 21402,
  "DWI</w>": 14388,
  "DX": 17880,
  "DX</w>": 29134,
  "DXA</w>": 16825,
  "DY": 16605,
  "DY</w>": 33728,
  "DZ</w>": 33243,
  "Da": 29186,
  "Da</w>": 13434,
  "Dacron</w>": 32981,
  "Daily</w>": 11108,
  "Dam": 34535,
  "Damage</w>": 19649,
  "Dan": 15499,
  "Danish</w>": 10790,
  "Daph": 39099,
  "Daphnia</w>": 32675,
  "Dar": 17530,
  "Dat": 25028,
  "Data</w>": 1200,
  "Datab": 35414,
  "Database</w>": 7112,
  "Daw": 37995,
  "Dawley</w>": 6027,
  "Day</w>": 6347,
  "Days</w>": 16654,
  "De": 2808,
  "De</w>": 16624,
  "Death</w>": 12608,
  "Deb": 28195,
  "Dec": 7685,
  "December</w>": 2692,
  "Deci": 27228,
  "Decision</w>": 16601,
  "Decom": 26146,
  "Decre": 33192,
  "Decrease</w>": 30362,
  "Decreased</w>": 11937,
  "Decreases</w>": 34611,
  "Deep</w>": 11986,
  "Def": 18956,
  "Defects</w>": 22501,
  "Defense</w>": 33944,
  "Defic": 18270,
  "Deficiency</w>": 20637,
  "Defin": 20573,
  "Defining</w>": 27778,
  "Deg": 26841,
  "Degradation</w>": 19434,
  "Del": 8333,
  "Delay</w>": 33461,
  "Delayed</w>": 13163,
  "Deletion</w>": 14333,
  "Delhi</w>": 33582,
  "Deli": 36308,
  "Delivery</w>": 14328,
  "Delphi</w>": 19794,
  "Delta": 8440,
  "Delta</w>": 9626,
  "Dem": 14577,
  "Dementia</w>": 16270,
  "Demographic</w>": 10288,
  "Demographics</w>": 32560,
  "Demon": 36929,
  "Demonstration</w>": 26689,
  "Den": 15250,
  "Dend": 27929,
  "Dendritic</w>": 21737,
  "Dengue</w>": 24248,
  "Denmark</w>": 12660,
  "Density</w>": 15456,
  "Dental</w>": 9525,
  "Denti": 23979,
  "Dep": 13716,
  "Depart": 35105,
  "Department</w>": 4469,
  "Depend": 37726,
  "Dependence</w>": 28534,
  "Dependent</w>": 15647,
  "Depending</w>": 14921,
  "Depl": 39013,
  "Depletion</w>": 22940,
  "Deposition</w>": 34355,
  "Depression</w>": 5308,
  "Depressive</w>": 18865,
  "Der": 16713,
  "Der</w>": 27791,
  "Deri": 39271,
  "Deriv": 35271,
  "Derivatives</w>": 26877,
  "Derived</w>": 15323,
  "Derm": 31751,
  "Dermat": 14211,
  "Des": 8632,
  "Desc": 30330,
  "Descrip": 37139,
  "Description</w>": 24732,
  "Descriptive</w>": 11788,
  "Design": 29044,
  "Design</w>": 5952,
  "Despite</w>": 1585,
  "Det": 16737,
  "Detailed</w>": 13273,
  "Details</w>": 34652,
  "Detecting</w>": 30098,
  "Detection</w>": 4735,
  "Deter": 33477,
  "Determin": 31665,
  "Determinants</w>": 20147,
  "Determination</w>": 7475,
  "Determining</w>": 21786,
  "Dev": 20622,
  "Develop": 29057,
  "Developing</w>": 14364,
  "Development</w>": 3155,
  "Developmental</w>": 11979,
  "Device</w>": 19675,
  "Devices</w>": 27668,
  "Dex": 23659,
  "Dex</w>": 21226,
  "Dexam": 40140,
  "Dexamethasone</w>": 23035,
  "Di": 2535,
  "Di</w>": 32875,
  "Diab": 37010,
  "Diabetes</w>": 5372,
  "Diabetic</w>": 10849,
  "Diag": 37464,
  "Diagnos": 19571,
  "Diagnosis</w>": 5493,
  "Diagnostic</w>": 5706,
  "Diagnostics</w>": 34858,
  "Dialysis</w>": 26761,
  "Diarr": 31240,
  "Dic": 14521,
  "Dich": 31227,
  "Dicty": 37942,
  "Dictyostelium</w>": 22117,
  "Diels</w>": 34968,
  "Diet</w>": 13217,
  "Dietary</w>": 7733,
  "Diff": 25394,
  "Differen": 30554,
  "Difference</w>": 25805,
  "Differences</w>": 4815,
  "Different</w>": 4448,
  "Differenti": 27903,
  "Differential</w>": 6228,
  "Differentiation</w>": 14121,
  "Difficul": 35402,
  "Difficulties</w>": 30170,
  "Diffuse</w>": 21163,
  "Diffusion</w>": 16666,
  "Dig": 12673,
  "Digital</w>": 14246,
  "Dil": 17529,
  "Dim": 13418,
  "Dimen": 35771,
  "Dimensional</w>": 20774,
  "Din": 25342,
  "Dip": 21839,
  "Diptera</w>": 18924,
  "Dir": 31381,
  "Direc": 12848,
  "Direct</w>": 5606,
  "Directed</w>": 33406,
  "Dis": 3031,
  "Disability</w>": 12305,
  "Disc": 32524,
  "Discharge</w>": 28897,
  "Disco": 38591,
  "Discovery</w>": 17047,
  "Discrim": 28047,
  "Discrimination</w>": 28009,
  "Discussion</w>": 13241,
  "Dise": 38787,
  "Disease</w>": 2541,
  "Diseases</w>": 8963,
  "Disorder</w>": 9105,
  "Disorders</w>": 9050,
  "Disper": 30984,
  "Disrup": 34620,
  "Disruption</w>": 19403,
  "Dissection</w>": 31724,
  "Dissem": 36653,
  "Disseminated</w>": 34959,
  "Dissociation</w>": 32691,
  "Dist": 23497,
  "Distal</w>": 21407,
  "Distance</w>": 34017,
  "Distinct</w>": 16718,
  "Distr": 24954,
  "Distress</w>": 27285,
  "Distribution</w>": 10347,
  "District</w>": 15468,
  "Disturb": 26932,
  "Diver": 22765,
  "Diverse</w>": 29256,
  "Diversity</w>": 19648,
  "Division</w>": 21697,
  "Dn": 33866,
  "Dna": 19898,
  "Do": 18744,
  "Do</w>": 10964,
  "Doc": 15122,
  "Docum": 26032,
  "Does</w>": 8667,
  "Dogs</w>": 23508,
  "Dom": 12791,
  "Domain</w>": 21707,
  "Don": 16892,
  "Donor</w>": 19192,
  "Dop": 17161,
  "Dopamine</w>": 17903,
  "Doppler</w>": 3101,
  "Dor": 22915,
  "Dorsal</w>": 34753,
  "Dose</w>": 9413,
  "Doses</w>": 28886,
  "Dou": 25218,
  "Double</w>": 9507,
  "Dow": 36886,
  "Down": 32441,
  "Down</w>": 8256,
  "Downregulation</w>": 29761,
  "Dox": 37414,
  "Dox</w>": 25705,
  "Doxorubicin</w>": 31984,
  "Dr": 17385,
  "Dr.</w>": 19594,
  "Dr</w>": 29841,
  "Dra": 32372,
  "Draft</w>": 28665,
  "Drawing</w>": 28535,
  "Dri": 19061,
  "Drin": 38202,
  "Drinking</w>": 32149,
  "Driven</w>": 30289,
  "Dro": 25678,
  "Dros": 38876,
  "Drosophila</w>": 3726,
  "Dru": 37937,
  "Drug</w>": 3934,
  "Drugs</w>": 14646,
  "Dry</w>": 25491,
  "Ds": 27177,
  "Ds</w>": 3277,
  "Du": 8162,
  "Dual</w>": 10604,
  "Duchenne</w>": 19255,
  "Due</w>": 4290,
  "Dukes</w>": 34055,
  "Dun": 24867,
  "Dur": 26821,
  "Duration</w>": 18221,
  "During</w>": 1078,
  "Dutch</w>": 9328,
  "Dy": 17375,
  "Dynamic</w>": 8974,
  "Dynamics</w>": 12337,
  "Dys": 11075,
  "Dysfunction</w>": 19251,
  "Dysregulation</w>": 34009,
  "E": 343,
  "E-</w>": 27979,
  "E.": 12664,
  "E.</w>": 13428,
  "E1</w>": 5053,
  "E1A</w>": 23450,
  "E2": 16900,
  "E2</w>": 3092,
  "E2F1</w>": 31971,
  "E2F</w>": 20347,
  "E3</w>": 8787,
  "E4</w>": 15766,
  "E6</w>": 15413,
  "E7</w>": 15116,
  "E</w>": 316,
  "EA": 16114,
  "EA</w>": 6338,
  "EAC</w>": 25853,
  "EAE</w>": 13787,
  "EAT</w>": 28021,
  "EB": 5331,
  "EB1</w>": 31318,
  "EB</w>": 10107,
  "EBM</w>": 33551,
  "EBNA</w>": 33699,
  "EBP": 21086,
  "EBP</w>": 16056,
  "EBRT</w>": 29175,
  "EBUS</w>": 34023,
  "EBV</w>": 5113,
  "EC": 3083,
  "EC50</w>": 12821,
  "EC</w>": 2061,
  "ECA</w>": 22507,
  "ECC</w>": 22247,
  "ECD</w>": 14515,
  "ECF</w>": 29920,
  "ECG</w>": 4281,
  "ECGs</w>": 27774,
  "ECL</w>": 25983,
  "ECM</w>": 6723,
  "ECMO</w>": 11688,
  "ECP</w>": 20537,
  "ECS</w>": 19949,
  "ECT</w>": 9239,
  "ECTION</w>": 38643,
  "ECV</w>": 33226,
  "ECs</w>": 6214,
  "ED": 5427,
  "ED50</w>": 16765,
  "ED</w>": 2448,
  "EDA</w>": 33813,
  "EDL</w>": 29972,
  "EDS</w>": 18344,
  "EDSS</w>": 29388,
  "EDTA</w>": 7677,
  "EDs</w>": 16997,
  "EE": 6484,
  "EE</w>": 9232,
  "EEG</w>": 2860,
  "EF": 14145,
  "EF</w>": 4395,
  "EFS</w>": 20611,
  "EG": 10974,
  "EG</w>": 14293,
  "EGCG</w>": 17754,
  "EGF": 26875,
  "EGF</w>": 4152,
  "EGFP</w>": 17604,
  "EGFR</w>": 3709,
  "EGG</w>": 37416,
  "EGTA</w>": 18454,
  "EH": 21091,
  "EH</w>": 17827,
  "EHR</w>": 17401,
  "EI": 20547,
  "EI</w>": 13999,
  "EIA</w>": 14602,
  "EJ</w>": 29532,
  "EK</w>": 23518,
  "EL": 9971,
  "EL</w>": 10932,
  "ELF</w>": 34296,
  "ELI": 24184,
  "ELISA</w>": 2423,
  "ELISAs</w>": 32982,
  "EM": 4809,
  "EM</w>": 6122,
  "EMA</w>": 20947,
  "EMBASE</w>": 9741,
  "EMD</w>": 28792,
  "EMENT</w>": 37235,
  "EMF</w>": 28942,
  "EMG</w>": 5856,
  "EMI</w>": 37236,
  "EMR</w>": 19814,
  "EMS</w>": 12376,
  "EMT</w>": 7305,
  "EN": 4359,
  "EN</w>": 11049,
  "ENT</w>": 17772,
  "ENaC</w>": 26090,
  "EO": 19111,
  "EO</w>": 18065,
  "EOC</w>": 22281,
  "EOR": 39697,
  "EORTC</w>": 25575,
  "EP": 10717,
  "EP</w>": 5860,
  "EPA</w>": 11636,
  "EPC</w>": 23555,
  "EPCs</w>": 22630,
  "EPI</w>": 15944,
  "EPO</w>": 9489,
  "EPR</w>": 11255,
  "EPS</w>": 14206,
  "EPSP</w>": 31747,
  "EPSPs</w>": 29790,
  "EPs</w>": 33161,
  "EQ</w>": 14918,
  "ER": 2952,
  "ER</w>": 1832,
  "ERAS</w>": 33614,
  "ERB": 32616,
  "ERCP</w>": 13963,
  "ERD</w>": 34387,
  "ERG</w>": 12029,
  "ERI": 22135,
  "ERIA</w>": 39262,
  "ERK1</w>": 9588,
  "ERK</w>": 5481,
  "ERM</w>": 31219,
  "ERO</w>": 38436,
  "ERP</w>": 12211,
  "ERPs</w>": 20580,
  "ERS</w>": 16399,
  "ERT</w>": 17104,
  "ERalpha</w>": 23819,
  "ERs</w>": 28255,
  "ERα</w>": 20427,
  "ES": 9332,
  "ES</w>": 2940,
  "ESBL</w>": 16567,
  "ESC</w>": 18781,
  "ESCC</w>": 13707,
  "ESCs</w>": 20770,
  "ESD</w>": 19967,
  "ESI</w>": 11633,
  "ESR": 26328,
  "ESR</w>": 12068,
  "ESRD</w>": 10634,
  "ESS</w>": 18846,
  "EST</w>": 17406,
  "ESTs</w>": 32205,
  "ESW": 35982,
  "ESWL</w>": 27645,
  "ET": 8234,
  "ET</w>": 2677,
  "ETA</w>": 26086,
  "ETB</w>": 34494,
  "ETH": 22095,
  "ETS</w>": 19527,
  "ETT</w>": 34621,
  "EU": 25493,
  "EU</w>": 12852,
  "EUS</w>": 10751,
  "EV": 8575,
  "EV</w>": 9531,
  "EVAR</w>": 23705,
  "EVD</w>": 33271,
  "EVI": 37697,
  "EVIDENCE</w>": 10019,
  "EVs</w>": 14299,
  "EW": 26007,
  "EW</w>": 31123,
  "EX": 10452,
  "EX</w>": 18992,
  "EXP": 35892,
  "EXPERI": 38430,
  "EXPERIMENTAL</w>": 24036,
  "EXTR": 39435,
  "EXTRACTION</w>": 32063,
  "EZ": 37106,
  "EZH2</w>": 23523,
  "Each</w>": 2819,
  "Ear": 37099,
  "Earlier</w>": 20876,
  "Early</w>": 2689,
  "Earth</w>": 15675,
  "East</w>": 6793,
  "Eastern</w>": 10065,
  "Eating</w>": 18878,
  "Eb": 32786,
  "Ebola</w>": 16971,
  "Ec": 11173,
  "Ech": 17477,
  "Echinococcus</w>": 33076,
  "Echocardi": 38116,
  "Echocardiographic</w>": 29733,
  "Echocardiography</w>": 21238,
  "Eco": 30950,
  "EcoRI</w>": 22609,
  "Ecological</w>": 28371,
  "Econ": 35997,
  "Economic</w>": 17555,
  "Ectopic</w>": 21860,
  "Ecu": 31566,
  "Ed": 9088,
  "Edi": 35905,
  "Edin": 40354,
  "Edinburgh</w>": 34330,
  "Edition</w>": 34656,
  "Educ": 36094,
  "Education</w>": 8697,
  "Educational</w>": 22164,
  "Eff": 23242,
  "Effec": 35947,
  "Effect</w>": 1667,
  "Effective</w>": 10032,
  "Effectiveness</w>": 11231,
  "Effects</w>": 1620,
  "Efficacy</w>": 6244,
  "Effici": 38998,
  "Efficiency</w>": 22947,
  "Efficient</w>": 12041,
  "Efforts</w>": 18858,
  "Eg": 22674,
  "Egg": 32008,
  "Egr</w>": 33927,
  "Egyp": 39195,
  "Egypt</w>": 19467,
  "Egyptian</w>": 23974,
  "Eh": 28133,
  "Ehr": 35650,
  "Ehrlich</w>": 26470,
  "Eigh": 39132,
  "Eight</w>": 4538,
  "Eighteen</w>": 9748,
  "Eighty</w>": 6778,
  "Eim": 39658,
  "Eimeria</w>": 29011,
  "Either</w>": 25741,
  "El": 6217,
  "El</w>": 21515,
  "Elderly</w>": 14464,
  "Elec": 31452,
  "Electr": 25561,
  "Electric</w>": 34236,
  "Electrical</w>": 14899,
  "Electro": 6098,
  "Electrocardi": 28456,
  "Electrochemical</w>": 21787,
  "Electromy": 32259,
  "Electron</w>": 7352,
  "Electronic</w>": 11625,
  "Electroph": 34696,
  "Electrophoretic</w>": 30896,
  "Electrophysiological</w>": 22713,
  "Elev": 37142,
  "Elevated</w>": 8867,
  "Elevation</w>": 26697,
  "Eleven</w>": 7495,
  "Elig": 36978,
  "Eligible</w>": 21592,
  "Elim": 37624,
  "Elimination</w>": 27609,
  "Ell": 30203,
  "Elucid": 27348,
  "Em": 9536,
  "Embase</w>": 10349,
  "Embol": 27671,
  "Embry": 19913,
  "Embryonic</w>": 28461,
  "Emer": 26991,
  "Emerg": 36360,
  "Emergency</w>": 7642,
  "Emerging</w>": 12811,
  "Emission</w>": 26261,
  "Emotion</w>": 34014,
  "Emotional</w>": 18101,
  "Emp": 29692,
  "Emph": 39322,
  "Emphasis</w>": 29927,
  "Empir": 37642,
  "Empirical</w>": 26214,
  "Emplo": 24066,
  "Employing</w>": 29744,
  "En": 2797,
  "En</w>": 28284,
  "Enanti": 27489,
  "Encephal": 25277,
  "End": 9007,
  "End</w>": 11607,
  "Endo": 16098,
  "Endoc": 26567,
  "Endocrine</w>": 24863,
  "Endogenous</w>": 17298,
  "Endom": 36761,
  "Endome": 41397,
  "Endometri": 33312,
  "Endometrial</w>": 24465,
  "Endos": 32535,
  "Endoscopic</w>": 8852,
  "Endoscopy</w>": 30047,
  "Endoth": 35122,
  "Endothelial</w>": 11723,
  "Endothelin</w>": 28764,
  "Endovascular</w>": 20019,
  "Energy</w>": 10087,
  "Eng": 29462,
  "Engagement</w>": 33940,
  "Engine": 33748,
  "Engineering</w>": 18552,
  "Engl": 38807,
  "England</w>": 8012,
  "English</w>": 4589,
  "Enh": 19463,
  "Enhanced</w>": 7808,
  "Enhancement</w>": 15881,
  "Enhancing</w>": 23452,
  "Enrich": 36809,
  "Enrichment</w>": 33207,
  "Entam": 40639,
  "Entamoeba</w>": 28588,
  "Enter": 10579,
  "Enterobacter</w>": 21779,
  "Enterobacteriaceae</w>": 15025,
  "Enterococcus</w>": 13968,
  "Env</w>": 23542,
  "Environ": 36012,
  "Environment</w>": 19412,
  "Environmental</w>": 9216,
  "Enzym": 37507,
  "Enzymatic</w>": 21805,
  "Enzyme</w>": 11874,
  "Enzymes</w>": 33145,
  "Eo": 29045,
  "Eosin": 21058,
  "Ep": 6724,
  "Eph": 18420,
  "Epi": 22600,
  "Epid": 35714,
  "Epidemi": 37668,
  "Epidemiologic</w>": 19781,
  "Epidemiological</w>": 12895,
  "Epidemiology</w>": 10726,
  "Epidermal</w>": 20966,
  "Epidural</w>": 31209,
  "Epig": 35461,
  "Epigen": 38714,
  "Epigenetic</w>": 22797,
  "Epilep": 35755,
  "Epilepsy</w>": 19935,
  "Epis": 26938,
  "Epit": 33921,
  "Epithelial</w>": 15050,
  "Epo": 29257,
  "Epo</w>": 19970,
  "Epstein</w>": 9152,
  "Equ": 11368,
  "Er": 7853,
  "Er</w>": 20757,
  "Erb": 21159,
  "ErbB</w>": 34203,
  "Erec": 32295,
  "Err": 38854,
  "Erratum</w>": 27843,
  "Erro": 35211,
  "Error</w>": 33894,
  "Ery": 22400,
  "Erythro": 21964,
  "Erythrocyte</w>": 33171,
  "Es": 24882,
  "Es</w>": 7649,
  "Esch": 39304,
  "Escher": 39445,
  "Escherichia</w>": 1804,
  "Esophag": 35130,
  "Esophageal</w>": 18303,
  "Especially</w>": 17846,
  "Ess": 33416,
  "Essential</w>": 17650,
  "Est": 22123,
  "Establ": 35189,
  "Establishing</w>": 29839,
  "Establishment</w>": 24336,
  "Estim": 36449,
  "Estimated</w>": 22540,
  "Estimates</w>": 19011,
  "Estimating</w>": 24421,
  "Estimation</w>": 15504,
  "Estradiol</w>": 28411,
  "Estro": 36704,
  "Estrogen</w>": 16539,
  "Et": 14936,
  "Et</w>": 26171,
  "EtOH</w>": 17218,
  "Eth": 11936,
  "Ethanol</w>": 17289,
  "Ethi": 34995,
  "Ethical</w>": 23678,
  "Ethics</w>": 21260,
  "Ethiopia</w>": 12502,
  "Ethnic</w>": 29428,
  "Eti": 21941,
  "Ets</w>": 34443,
  "Eu": 11637,
  "Eu</w>": 22521,
  "Euc": 22989,
  "Eud": 34365,
  "Euk": 34737,
  "Eur": 19725,
  "Euro": 16797,
  "Europe": 34893,
  "Europe</w>": 4586,
  "European</w>": 2446,
  "Ev": 21207,
  "Evalu": 19306,
  "Evaluating</w>": 15573,
  "Evaluation</w>": 2422,
  "Evans</w>": 16759,
  "Even</w>": 5629,
  "Event</w>": 21021,
  "Events</w>": 19523,
  "Ever": 31301,
  "Every</w>": 20143,
  "Evid": 36398,
  "Evidence</w>": 3169,
  "Evolution": 39468,
  "Evolution</w>": 13421,
  "Evolutionary</w>": 24438,
  "Ewing</w>": 18942,
  "Ex": 2628,
  "Ex</w>": 16871,
  "Exam": 38094,
  "Examin": 31108,
  "Examination</w>": 6448,
  "Examining</w>": 25857,
  "Examples</w>": 19271,
  "Exc": 13889,
  "Excellent</w>": 27511,
  "Except</w>": 15263,
  "Excess</w>": 29183,
  "Excessive</w>": 22716,
  "Exchange</w>": 28865,
  "Excit": 31768,
  "Exclud": 33885,
  "Exclusion</w>": 29579,
  "Exec": 38779,
  "Executive</w>": 29406,
  "Exerc": 37688,
  "Exercise</w>": 8830,
  "Existing</w>": 19909,
  "Exogenous</w>": 19784,
  "Exp": 20145,
  "Exp</w>": 20607,
  "Expan": 33032,
  "Expanded</w>": 27323,
  "Expansion</w>": 31739,
  "Expec": 32589,
  "Experi": 35559,
  "Experience</w>": 10092,
  "Experiences</w>": 19242,
  "Experim": 35404,
  "Experiment</w>": 6141,
  "Experimental</w>": 4622,
  "Experiments</w>": 7215,
  "Expert</w>": 18835,
  "Expl": 30090,
  "Explo": 34132,
  "Exploration</w>": 32787,
  "Exploratory</w>": 23028,
  "Exploring</w>": 15995,
  "Expos": 31384,
  "Exposure</w>": 5580,
  "Expression</w>": 2590,
  "Extended</w>": 18900,
  "Extension</w>": 33173,
  "Extensive</w>": 12881,
  "External</w>": 16492,
  "Extr": 15501,
  "Extra": 28856,
  "Extra</w>": 32665,
  "Extrac": 26999,
  "Extracellular</w>": 12574,
  "Extracorporeal</w>": 27930,
  "Extract</w>": 29473,
  "Extraction</w>": 19548,
  "Extracts</w>": 25352,
  "Extrem": 18309,
  "Eye</w>": 13021,
  "Eyes</w>": 31112,
  "F": 278,
  "F-</w>": 31060,
  "F.</w>": 27158,
  "F0</w>": 23253,
  "F10</w>": 24635,
  "F1</w>": 3337,
  "F2</w>": 6160,
  "F344</w>": 20664,
  "F3</w>": 10883,
  "F4</w>": 10760,
  "F5</w>": 20424,
  "F6</w>": 21903,
  "F8</w>": 30912,
  "F9</w>": 29604,
  "F</w>": 526,
  "FA": 9665,
  "FA</w>": 3015,
  "FAB": 28905,
  "FAB</w>": 28733,
  "FABP</w>": 24701,
  "FACS</w>": 21769,
  "FAD</w>": 18038,
  "FAI</w>": 34081,
  "FAK</w>": 15707,
  "FAM": 31567,
  "FAP</w>": 20765,
  "FAS</w>": 16191,
  "FAs</w>": 17039,
  "FB": 15569,
  "FB</w>": 15902,
  "FBG</w>": 30472,
  "FBP</w>": 32626,
  "FBS</w>": 22254,
  "FC</w>": 7021,
  "FCM</w>": 23222,
  "FCR</w>": 32488,
  "FCS</w>": 24356,
  "FD": 25243,
  "FD</w>": 9956,
  "FDA</w>": 8773,
  "FDC</w>": 34774,
  "FDG</w>": 5767,
  "FDP</w>": 32217,
  "FDR</w>": 32819,
  "FE": 10449,
  "FE</w>": 12155,
  "FES</w>": 26238,
  "FET</w>": 31879,
  "FEV": 36810,
  "FEV1</w>": 8770,
  "FEV</w>": 20886,
  "FF": 6370,
  "FF</w>": 10415,
  "FFA</w>": 13870,
  "FFM</w>": 26733,
  "FFR</w>": 23143,
  "FG": 33663,
  "FG</w>": 16321,
  "FGF": 11935,
  "FGF21</w>": 34785,
  "FGF23</w>": 31375,
  "FGF2</w>": 33709,
  "FGF</w>": 7723,
  "FGFR1</w>": 32876,
  "FGFR</w>": 30477,
  "FH": 33360,
  "FH</w>": 9745,
  "FHR</w>": 34394,
  "FI": 6156,
  "FI</w>": 10217,
  "FIB</w>": 32630,
  "FID</w>": 32729,
  "FIGO</w>": 25772,
  "FIM</w>": 29819,
  "FIN": 35444,
  "FINDIN": 39645,
  "FINDINGS</w>": 5098,
  "FISH</w>": 8520,
  "FIT</w>": 30964,
  "FITC</w>": 15045,
  "FIV</w>": 31649,
  "FK": 20603,
  "FK506</w>": 20100,
  "FK</w>": 27908,
  "FKBP": 31237,
  "FL": 7130,
  "FL</w>": 10312,
  "FLAIR</w>": 30473,
  "FLC</w>": 32814,
  "FLI": 22289,
  "FLT3</w>": 26191,
  "FM</w>": 8173,
  "FMD</w>": 16102,
  "FMDV</w>": 32603,
  "FMF</w>": 31324,
  "FMLP</w>": 32796,
  "FMR": 26247,
  "FMS</w>": 25033,
  "FMT</w>": 32086,
  "FN": 24111,
  "FN</w>": 10353,
  "FNA</w>": 12731,
  "FNAB</w>": 34206,
  "FNAC</w>": 28920,
  "FO": 9330,
  "FO</w>": 19475,
  "FOL": 22136,
  "FOR": 21575,
  "FOR</w>": 13635,
  "FOS</w>": 32231,
  "FOX": 9274,
  "FP</w>": 6623,
  "FPG</w>": 25926,
  "FQ</w>": 30261,
  "FR": 10252,
  "FR</w>": 8571,
  "FRA": 30117,
  "FRC</w>": 30303,
  "FRET</w>": 17456,
  "FS": 24427,
  "FS</w>": 7091,
  "FSGS</w>": 31899,
  "FSH</w>": 4817,
  "FSS</w>": 30073,
  "FST</w>": 30567,
  "FT": 29161,
  "FT4</w>": 30486,
  "FT</w>": 5611,
  "FTC</w>": 33139,
  "FTD</w>": 21141,
  "FTIR</w>": 10603,
  "FU": 17582,
  "FU</w>": 6209,
  "FUN": 39493,
  "FUNDING</w>": 22553,
  "FUS</w>": 29077,
  "FV": 13534,
  "FV</w>": 9678,
  "FVC</w>": 14138,
  "FVIII</w>": 17899,
  "FVIIa</w>": 31339,
  "FW</w>": 30527,
  "FX": 14951,
  "FX</w>": 30649,
  "Fa": 14652,
  "Fab": 33371,
  "Fab</w>": 14229,
  "Fabr": 33195,
  "Fabrication</w>": 27431,
  "Fabry</w>": 24121,
  "Fac": 13580,
  "Face</w>": 28772,
  "Facebook</w>": 29779,
  "Facial</w>": 19330,
  "Facil": 19214,
  "Factor</w>": 5916,
  "Factors</w>": 4266,
  "Faculty</w>": 20844,
  "Fail": 35535,
  "Failure</w>": 8729,
  "Fal": 26174,
  "Fallot</w>": 24929,
  "False</w>": 29029,
  "Fam": 35160,
  "Famil": 39893,
  "Familial</w>": 16178,
  "Families</w>": 26228,
  "Family</w>": 6827,
  "Fan": 38837,
  "Fanconi</w>": 30827,
  "Far": 18545,
  "Far</w>": 32056,
  "Fas": 26120,
  "Fas</w>": 7304,
  "FasL</w>": 17409,
  "Fasci": 29554,
  "Fast</w>": 14008,
  "Fasting</w>": 18286,
  "Fat": 36970,
  "Fat</w>": 17121,
  "Fatal</w>": 30183,
  "Fatigue</w>": 17485,
  "Fatty</w>": 14876,
  "Fav": 34984,
  "Fc": 12384,
  "Fc</w>": 6424,
  "Fcgamma": 32685,
  "Fe": 4475,
  "Fe2</w>": 28057,
  "Fe3O4</w>": 33300,
  "Fe</w>": 2632,
  "Fear</w>": 29278,
  "Feasibility</w>": 18033,
  "Features</w>": 17230,
  "Feb": 39486,
  "February</w>": 5930,
  "Fecal</w>": 22965,
  "Feder": 38147,
  "Federal</w>": 17778,
  "Federation</w>": 22093,
  "Feed": 38925,
  "Feedback</w>": 30199,
  "Feeding</w>": 18794,
  "Fel": 25618,
  "Fem": 30481,
  "Female</w>": 8573,
  "Females</w>": 18609,
  "Femoral</w>": 24745,
  "Fenton</w>": 25065,
  "Fer": 11498,
  "Fermi</w>": 27405,
  "Fertility</w>": 30323,
  "Fetal</w>": 11079,
  "Fever</w>": 23172,
  "Few</w>": 8684,
  "Fewer</w>": 27068,
  "Fg": 25360,
  "Fi": 12889,
  "Fib": 13356,
  "Fiber</w>": 24930,
  "Fibr": 14818,
  "Fibrillation</w>": 29205,
  "Fibro": 27416,
  "Fibroblast</w>": 27708,
  "Fibroblasts</w>": 34951,
  "Fibrosis</w>": 21222,
  "Field</w>": 11924,
  "Fif": 36933,
  "Fifteen</w>": 7759,
  "Fifty</w>": 4100,
  "Fig": 36172,
  "Fig</w>": 23193,
  "Figure</w>": 33541,
  "Fil": 9720,
  "Films</w>": 31816,
  "Fin": 12794,
  "Final</w>": 18812,
  "Finally</w>": 1609,
  "Finding</w>": 31643,
  "Findings</w>": 5188,
  "Fine</w>": 15681,
  "Finite</w>": 32857,
  "Finland</w>": 13040,
  "Finnish</w>": 15609,
  "Fir": 37430,
  "Firmicutes</w>": 34444,
  "First</w>": 3247,
  "Firstly</w>": 20375,
  "Fischer</w>": 17681,
  "Fish</w>": 21188,
  "Fisher</w>": 10085,
  "Fist": 34553,
  "Fit": 21463,
  "Five</w>": 2656,
  "Fixation</w>": 28661,
  "Fixed</w>": 32468,
  "Fl": 7228,
  "Flav": 17143,
  "Flex": 23410,
  "Flexible</w>": 24843,
  "Flo": 20044,
  "Flor": 36508,
  "Florida</w>": 15689,
  "Flow</w>": 7722,
  "Flt</w>": 32575,
  "Flu": 8384,
  "Fluid</w>": 17814,
  "Fluoresc": 35417,
  "Fluorescence</w>": 10935,
  "Fluorescent</w>": 19331,
  "Fluoro": 17342,
  "Fn</w>": 31243,
  "Fo": 11072,
  "Foc": 29322,
  "Focal</w>": 19275,
  "Focus</w>": 19694,
  "Focusing</w>": 34704,
  "Fol": 12982,
  "Foll": 36212,
  "Follicular</w>": 33410,
  "Follow</w>": 6845,
  "Following</w>": 2856,
  "Font": 39288,
  "Fontan</w>": 21624,
  "Food</w>": 5882,
  "Foot</w>": 22138,
  "For": 6226,
  "For</w>": 551,
  "Force</w>": 13013,
  "Forces</w>": 32726,
  "Fore": 19621,
  "Forensic</w>": 32504,
  "Forest</w>": 20783,
  "Form": 24687,
  "Form</w>": 11352,
  "Formal": 32367,
  "Formation</w>": 10176,
  "Formul": 35494,
  "Formula</w>": 9863,
  "Fort</w>": 34162,
  "Forty</w>": 3356,
  "Fos": 30089,
  "Fos</w>": 10258,
  "Foun": 38822,
  "Foundation</w>": 15907,
  "Four": 35832,
  "Four</w>": 2114,
  "Fourier</w>": 7049,
  "Fourteen</w>": 8553,
  "Fourth</w>": 31921,
  "Fox": 13282,
  "Foxp3</w>": 26101,
  "Fr": 7362,
  "Fr</w>": 27553,
  "Fra": 32014,
  "Frac": 37333,
  "Fraction": 34622,
  "Fraction</w>": 34697,
  "Fractional</w>": 33734,
  "Fracture</w>": 18066,
  "Fractures</w>": 20841,
  "Frag": 15547,
  "Frailty</w>": 30478,
  "Fram": 38283,
  "Frame": 37287,
  "Framework</w>": 17398,
  "Framingham</w>": 25634,
  "Fran": 20363,
  "Franc": 28397,
  "France</w>": 7453,
  "Francisco</w>": 26900,
  "Fre": 8845,
  "Free</w>": 8342,
  "French</w>": 6477,
  "Frequ": 25947,
  "Frequency</w>": 10871,
  "Frequent</w>": 26068,
  "Fresh</w>": 27519,
  "Freund</w>": 25283,
  "Fri": 17975,
  "Fried": 25084,
  "Friend</w>": 34090,
  "Fro": 25829,
  "From</w>": 1461,
  "Fruc": 29899,
  "Fs</w>": 4331,
  "Fts": 27871,
  "Fu": 12709,
  "Fuc": 31328,
  "Fuk": 28779,
  "Ful": 19720,
  "Full</w>": 13119,
  "Fun": 27055,
  "Func": 29341,
  "Function": 27747,
  "Function</w>": 8249,
  "Functional</w>": 3664,
  "Functioning</w>": 24240,
  "Functions</w>": 27649,
  "Fund": 21063,
  "Fung": 35670,
  "Fungal</w>": 22327,
  "Fur": 30699,
  "Further</w>": 1360,
  "Furthermore</w>": 731,
  "Fus": 27758,
  "Fusarium</w>": 13516,
  "Fusion</w>": 18844,
  "Future</w>": 4730,
  "Fv</w>": 26613,
  "G": 273,
  "G.": 25591,
  "G.</w>": 24758,
  "G0</w>": 17936,
  "G1</w>": 3645,
  "G2</w>": 5028,
  "G3": 33534,
  "G3</w>": 13128,
  "G4</w>": 15478,
  "G5</w>": 34485,
  "G6": 24316,
  "G6PD</w>": 19388,
  "G</w>": 413,
  "GA": 18164,
  "GA</w>": 3879,
  "GAB": 25968,
  "GABA": 37005,
  "GABA</w>": 3307,
  "GABAA</w>": 15716,
  "GABAB</w>": 33484,
  "GABAergic</w>": 10672,
  "GAD": 19668,
  "GAD</w>": 14024,
  "GAG</w>": 17911,
  "GAGs</w>": 30982,
  "GAL": 19129,
  "GAL</w>": 32124,
  "GAP": 36215,
  "GAP</w>": 15216,
  "GAPDH</w>": 23770,
  "GAS</w>": 19690,
  "GAT": 17893,
  "GAT</w>": 28752,
  "GATA</w>": 18195,
  "GB": 19112,
  "GB</w>": 9233,
  "GBM</w>": 8303,
  "GBS</w>": 12118,
  "GC": 27938,
  "GC</w>": 2218,
  "GCA</w>": 25747,
  "GCF</w>": 32525,
  "GCS</w>": 16455,
  "GCT</w>": 22331,
  "GCs</w>": 19113,
  "GD": 12552,
  "GD</w>": 7198,
  "GDF": 34894,
  "GDH</w>": 32713,
  "GDM</w>": 11158,
  "GDNF</w>": 20543,
  "GDP</w>": 13407,
  "GDS</w>": 32545,
  "GE": 13151,
  "GE</w>": 6278,
  "GEM</w>": 29384,
  "GEN": 21914,
  "GER</w>": 29711,
  "GERD</w>": 14581,
  "GF": 8443,
  "GF</w>": 8294,
  "GFAP</w>": 12316,
  "GFP</w>": 6398,
  "GFR</w>": 7331,
  "GG": 14842,
  "GG</w>": 7202,
  "GGT</w>": 17678,
  "GH": 12825,
  "GH</w>": 2647,
  "GHD</w>": 29903,
  "GHR</w>": 33328,
  "GHRH</w>": 18766,
  "GHz</w>": 23390,
  "GI": 6844,
  "GI</w>": 4918,
  "GIC</w>": 30979,
  "GIP</w>": 24495,
  "GIS</w>": 25397,
  "GIST": 40025,
  "GIST</w>": 21135,
  "GISTs</w>": 28688,
  "GIT</w>": 25756,
  "GJ": 20491,
  "GK": 33972,
  "GK</w>": 24847,
  "GL": 6432,
  "GL</w>": 15211,
  "GLP</w>": 9154,
  "GLS</w>": 31116,
  "GLU": 36595,
  "GLUT": 32637,
  "GLUT1</w>": 25814,
  "GLUT4</w>": 20872,
  "GLUT</w>": 26253,
  "GM": 24955,
  "GM1</w>": 16682,
  "GM</w>": 3849,
  "GMP</w>": 10774,
  "GN": 17417,
  "GN</w>": 17473,
  "GO": 13566,
  "GO</w>": 5766,
  "GOS</w>": 34091,
  "GP": 9018,
  "GP</w>": 4811,
  "GPA</w>": 25558,
  "GPC": 36195,
  "GPC</w>": 31521,
  "GPCR</w>": 21286,
  "GPCRs</w>": 21742,
  "GPI": 30474,
  "GPI</w>": 13591,
  "GPIIb</w>": 34754,
  "GPR": 16530,
  "GPS</w>": 21504,
  "GPa</w>": 29668,
  "GPs</w>": 8851,
  "GPx</w>": 22272,
  "GR": 4695,
  "GR</w>": 6030,
  "GRADE</w>": 27188,
  "GRF</w>": 22659,
  "GRP": 37124,
  "GRP78</w>": 30240,
  "GRP</w>": 24588,
  "GS": 34482,
  "GS</w>": 4954,
  "GSE": 28019,
  "GSH</w>": 4517,
  "GSK": 23998,
  "GSK3β</w>": 30957,
  "GSK</w>": 16857,
  "GSSG</w>": 24291,
  "GST": 14459,
  "GST</w>": 8638,
  "GSTM1</w>": 27268,
  "GSTP1</w>": 33664,
  "GT": 8023,
  "GT</w>": 6767,
  "GTN</w>": 32862,
  "GTP": 35692,
  "GTP</w>": 5924,
  "GTPase</w>": 12030,
  "GTPases</w>": 20789,
  "GTT</w>": 35277,
  "GU": 31514,
  "GU</w>": 31653,
  "GUS</w>": 24496,
  "GV": 14985,
  "GV</w>": 24202,
  "GVHD</w>": 8627,
  "GW": 15252,
  "GW</w>": 34451,
  "GWAS</w>": 15532,
  "GY": 29797,
  "Ga": 11028,
  "Ga</w>": 12586,
  "GaAs</w>": 28014,
  "GaN</w>": 24981,
  "Gab": 22362,
  "Gad": 31093,
  "Gag</w>": 21840,
  "Gait</w>": 25872,
  "Gal": 6204,
  "Gal</w>": 9785,
  "GalNAc</w>": 22880,
  "Gall": 18019,
  "Gam": 15687,
  "Gamma</w>": 17275,
  "Gangli": 29998,
  "Gap</w>": 31453,
  "Gar": 23199,
  "Gas</w>": 16320,
  "Gastric</w>": 9740,
  "Gastro": 14745,
  "Gastrointestinal</w>": 14243,
  "Gau": 38499,
  "Gaucher</w>": 27016,
  "Gaussian</w>": 11960,
  "Gd": 29772,
  "Gd</w>": 12056,
  "Ge": 7887,
  "Ge</w>": 20282,
  "Gel": 19938,
  "Gel</w>": 14381,
  "Gem": 26168,
  "Gen": 7661,
  "GenBank</w>": 19420,
  "Gender</w>": 11847,
  "Gene": 25463,
  "Gene</w>": 4241,
  "Gener": 19925,
  "General</w>": 5792,
  "Generalized</w>": 19417,
  "Generally</w>": 15114,
  "Generation</w>": 12953,
  "Genes</w>": 10580,
  "Genetic</w>": 3870,
  "Genetically</w>": 34331,
  "Genetics</w>": 21264,
  "Genome</w>": 6262,
  "Genomes</w>": 29353,
  "Genomic</w>": 11155,
  "Genomics</w>": 34861,
  "Genotype</w>": 24497,
  "Genotyping</w>": 25082,
  "Geographic</w>": 33537,
  "Georg": 37407,
  "George</w>": 31700,
  "Georgia</w>": 26458,
  "Ger": 10560,
  "Geriatric</w>": 24837,
  "German</w>": 6460,
  "Germany</w>": 5854,
  "Gest": 36161,
  "Gestational</w>": 26510,
  "Gh": 21776,
  "Ghana</w>": 17137,
  "Gi": 18451,
  "Gi</w>": 23317,
  "Giant</w>": 18436,
  "Giardia</w>": 20761,
  "Gib": 35973,
  "Gibbs</w>": 33717,
  "Giemsa</w>": 31737,
  "Gil": 30983,
  "Gin": 20400,
  "Gir": 23783,
  "Given</w>": 4522,
  "Gl": 7342,
  "Gla": 39162,
  "Glas": 39609,
  "Glasgow</w>": 15521,
  "Glass</w>": 33739,
  "Glauc": 38978,
  "Glaucoma</w>": 26601,
  "Glc": 18464,
  "Glc</w>": 21835,
  "GlcNAc": 29477,
  "GlcNAc</w>": 12935,
  "Gle": 38315,
  "Gleason</w>": 14444,
  "Gli": 13947,
  "Glioblastoma</w>": 27888,
  "Gln": 26696,
  "Gln</w>": 13373,
  "Glob": 24769,
  "Global</w>": 6548,
  "Glomerular</w>": 30913,
  "Glu": 7414,
  "Glu</w>": 7391,
  "Gluc": 12858,
  "Glucagon</w>": 33629,
  "Glucose</w>": 9517,
  "Glut": 16902,
  "Glutamate</w>": 23878,
  "Glutathione</w>": 22315,
  "Gly": 9686,
  "Gly</w>": 7251,
  "Glyc": 10050,
  "Glycine</w>": 25509,
  "Glyco": 22709,
  "Gm": 28242,
  "Gn": 25644,
  "GnR": 28967,
  "GnRH</w>": 5495,
  "Go": 10700,
  "Go</w>": 17690,
  "Gol": 22213,
  "Gold": 21931,
  "Gold</w>": 16059,
  "Golgi</w>": 6110,
  "Gonad": 29709,
  "Good</w>": 11706,
  "Goog": 39777,
  "Google</w>": 13958,
  "Gor": 32461,
  "Gover": 37492,
  "Govern": 36875,
  "Government</w>": 22223,
  "Gp": 27662,
  "Gpp</w>": 31982,
  "Gr": 6423,
  "Gra": 12412,
  "Grad": 25506,
  "Grade</w>": 8603,
  "Graft</w>": 17810,
  "Gram</w>": 4769,
  "Gran": 16324,
  "Granul": 17892,
  "Graph": 32435,
  "Graphene</w>": 17890,
  "Graphical</w>": 33319,
  "Graves</w>": 12625,
  "Gray</w>": 29162,
  "Gre": 23194,
  "Great</w>": 15305,
  "Greater</w>": 12715,
  "Greece</w>": 18852,
  "Greek</w>": 19870,
  "Green": 22118,
  "Green</w>": 12894,
  "Gri": 25128,
  "Gro": 19074,
  "GroEL</w>": 34927,
  "Gross</w>": 21398,
  "Grou": 35843,
  "Group</w>": 1125,
  "Groups</w>": 8504,
  "Growing</w>": 24049,
  "Growth</w>": 5156,
  "Gs</w>": 4564,
  "Gu": 5505,
  "Guang": 20701,
  "Guid": 35585,
  "Guide</w>": 30262,
  "Guided</w>": 22637,
  "Guideline</w>": 30555,
  "Guidelines</w>": 10973,
  "Guill": 39394,
  "Guillain</w>": 24346,
  "Guinea</w>": 18128,
  "Gulf</w>": 18702,
  "Gut</w>": 22560,
  "Gv": 38038,
  "GvHD</w>": 34582,
  "Gy</w>": 3756,
  "Gyn": 19213,
  "Gynecology</w>": 28643,
  "H": 313,
  "H-</w>": 20417,
  "H.": 23451,
  "H.</w>": 20227,
  "H1": 31397,
  "H19</w>": 26302,
  "H1</w>": 5176,
  "H1N1</w>": 14516,
  "H2": 8546,
  "H2</w>": 4644,
  "H2A</w>": 31688,
  "H2AX</w>": 25547,
  "H2B</w>": 34497,
  "H2O2</w>": 6176,
  "H2O</w>": 7442,
  "H2S</w>": 22611,
  "H3": 19564,
  "H3</w>": 6588,
  "H3K": 16164,
  "H3K27": 34526,
  "H3N2</w>": 26046,
  "H3T3</w>": 40522,
  "H4": 17293,
  "H4</w>": 11888,
  "H5": 27493,
  "H5</w>": 21698,
  "H5N1</w>": 26224,
  "H7": 26637,
  "H7</w>": 13242,
  "H9": 20723,
  "H9</w>": 34465,
  "H</w>": 354,
  "HA": 9293,
  "HA</w>": 2439,
  "HAART</w>": 13302,
  "HADS</w>": 28954,
  "HAI</w>": 26933,
  "HAM</w>": 22404,
  "HAP</w>": 25317,
  "HAT</w>": 26970,
  "HAV</w>": 19562,
  "HB": 4212,
  "HB</w>": 7788,
  "HBG</w>": 39567,
  "HBO</w>": 27214,
  "HBP</w>": 31819,
  "HBV</w>": 3291,
  "HBc</w>": 24615,
  "HBe": 39524,
  "HBeAg</w>": 16930,
  "HBs": 37951,
  "HBs</w>": 17044,
  "HBsAg</w>": 8092,
  "HC": 3921,
  "HC</w>": 4037,
  "HCA</w>": 21448,
  "HCB</w>": 34790,
  "HCC</w>": 2260,
  "HCCs</w>": 25932,
  "HCG</w>": 19765,
  "HCH</w>": 32797,
  "HCM</w>": 16931,
  "HCMV</w>": 14442,
  "HCN</w>": 33033,
  "HCO": 37698,
  "HCO3-</w>": 21531,
  "HCO3</w>": 21967,
  "HCO</w>": 24373,
  "HCP</w>": 27922,
  "HCPs</w>": 28448,
  "HCT1": 40291,
  "HCT116</w>": 28405,
  "HCT</w>": 12877,
  "HCV</w>": 2160,
  "HCWs</w>": 27205,
  "HCl</w>": 8758,
  "HCs</w>": 12945,
  "HD": 7085,
  "HD</w>": 3038,
  "HDAC": 12723,
  "HDAC</w>": 18428,
  "HDL": 16840,
  "HDL</w>": 3308,
  "HDM</w>": 32277,
  "HDR</w>": 25671,
  "HDV</w>": 24001,
  "HE": 4703,
  "HE</w>": 8721,
  "HEK": 37074,
  "HEK293</w>": 25801,
  "HEK</w>": 24487,
  "HEL</w>": 32649,
  "HEMA</w>": 34260,
  "HER": 15073,
  "HER2</w>": 6693,
  "HER</w>": 14671,
  "HES</w>": 23556,
  "HETE</w>": 22027,
  "HEV</w>": 14565,
  "HF": 6165,
  "HF</w>": 2927,
  "HFD</w>": 11137,
  "HFR</w>": 39100,
  "HFS</w>": 31756,
  "HFpEF</w>": 29479,
  "HG": 10998,
  "HG</w>": 10999,
  "HGF</w>": 10231,
  "HH</w>": 12076,
  "HHV</w>": 15171,
  "HI": 5641,
  "HI</w>": 6635,
  "HIAA</w>": 23439,
  "HIE</w>": 31197,
  "HIF": 24453,
  "HIF</w>": 7151,
  "HIFU</w>": 31382,
  "HII": 34617,
  "HIP</w>": 22444,
  "HIPEC</w>": 34908,
  "HIS</w>": 33478,
  "HIT</w>": 15923,
  "HIV": 28891,
  "HIV</w>": 463,
  "HK": 25361,
  "HK</w>": 18016,
  "HL": 12318,
  "HL60</w>": 32642,
  "HL</w>": 5136,
  "HLA</w>": 1892,
  "HLH</w>": 28246,
  "HM": 4889,
  "HM</w>": 12494,
  "HMB</w>": 33295,
  "HMG": 23325,
  "HMG</w>": 13235,
  "HMGB1</w>": 14994,
  "HMO</w>": 30299,
  "HMW</w>": 29537,
  "HN": 13388,
  "HN</w>": 15646,
  "HNC</w>": 28386,
  "HNE</w>": 24085,
  "HNF": 27957,
  "HNF</w>": 31748,
  "HNSCC</w>": 13791,
  "HO": 5515,
  "HO</w>": 6263,
  "HOMA</w>": 14382,
  "HOX": 21442,
  "HP": 11684,
  "HP</w>": 5917,
  "HPA</w>": 11391,
  "HPC</w>": 22420,
  "HPLC</w>": 3296,
  "HPMC</w>": 34088,
  "HPS</w>": 23696,
  "HPT</w>": 29362,
  "HPV": 19502,
  "HPV16</w>": 22162,
  "HPV</w>": 2704,
  "HQ</w>": 25710,
  "HR": 4667,
  "HR</w>": 1455,
  "HRCT</w>": 25353,
  "HRH</w>": 39002,
  "HRP</w>": 10459,
  "HRQL</w>": 27260,
  "HRQOL</w>": 15054,
  "HRQoL</w>": 10944,
  "HRS</w>": 30696,
  "HRT</w>": 12602,
  "HRV</w>": 10112,
  "HRs</w>": 14391,
  "HS": 7360,
  "HS</w>": 3118,
  "HSA</w>": 12169,
  "HSC</w>": 14764,
  "HSCT</w>": 11543,
  "HSCs</w>": 16452,
  "HSD</w>": 16648,
  "HSP": 10369,
  "HSP70</w>": 16541,
  "HSP90</w>": 29279,
  "HSP</w>": 15302,
  "HSPs</w>": 33673,
  "HSS</w>": 35516,
  "HSV</w>": 5047,
  "HT": 5652,
  "HT1A</w>": 16960,
  "HT29</w>": 30763,
  "HT2</w>": 23239,
  "HT2A</w>": 31343,
  "HT3</w>": 25048,
  "HT</w>": 2138,
  "HTA</w>": 33465,
  "HTLV</w>": 8168,
  "HTN</w>": 24029,
  "HTP</w>": 32314,
  "HTS</w>": 27679,
  "HTT</w>": 32340,
  "HU": 17563,
  "HU</w>": 12695,
  "HUS</w>": 24321,
  "HUV": 38846,
  "HUVEC</w>": 18390,
  "HUVECs</w>": 16473,
  "HV": 15411,
  "HV</w>": 9722,
  "HVA</w>": 23885,
  "HY": 15769,
  "HYPO": 38553,
  "HYPOTHESIS</w>": 16625,
  "HZ</w>": 33310,
  "Ha": 9601,
  "Ha</w>": 15407,
  "HaCaT</w>": 30083,
  "Hab": 23679,
  "Haem": 10197,
  "Haemophilus</w>": 12610,
  "Hair</w>": 28973,
  "Hal": 9918,
  "Half</w>": 13380,
  "Hall</w>": 25377,
  "Ham": 16170,
  "Hamil": 38819,
  "Hamilton</w>": 18335,
  "Hamiltonian</w>": 31637,
  "Han": 15938,
  "Han</w>": 14340,
  "Hand": 24358,
  "Hand</w>": 16180,
  "Hapl": 28793,
  "Har": 8396,
  "Hard": 25392,
  "Harr": 37650,
  "Harris</w>": 24281,
  "Hart": 29745,
  "Hash": 39407,
  "Hashimoto</w>": 26556,
  "Have</w>": 30985,
  "Having</w>": 18555,
  "Haw": 36821,
  "Hawai": 35734,
  "Hawaii</w>": 34106,
  "Haz": 36122,
  "Hazard</w>": 28892,
  "Hb": 9681,
  "Hb</w>": 5006,
  "HbA1c</w>": 6837,
  "HbA</w>": 23256,
  "Hcy</w>": 19197,
  "He": 5804,
  "He</w>": 4201,
  "HeLa</w>": 6944,
  "Head": 36216,
  "Head</w>": 12101,
  "Headache</w>": 26650,
  "Heal": 37588,
  "Healing</w>": 25066,
  "Health": 36301,
  "Health</w>": 959,
  "Healthcare</w>": 11015,
  "Healthy</w>": 10103,
  "Hear": 25645,
  "Hearing</w>": 18282,
  "Heart</w>": 4596,
  "Heat</w>": 13050,
  "Heavy</w>": 23013,
  "Hed": 37215,
  "Hedgehog</w>": 28979,
  "Height</w>": 33029,
  "Hel": 10106,
  "Heli": 21344,
  "Helic": 34376,
  "Helicobacter</w>": 7297,
  "Hem": 6628,
  "Hemat": 14720,
  "Hematopoietic</w>": 28006,
  "Hemip": 34230,
  "Hemis": 33490,
  "Hemodialysis</w>": 33732,
  "Hemodynamic</w>": 19304,
  "Hemoglobin</w>": 26902,
  "Hemorrh": 35183,
  "Hemorrhage</w>": 28676,
  "Hen": 13693,
  "Hence</w>": 5034,
  "Hep": 12533,
  "Hep</w>": 24667,
  "HepG2</w>": 9136,
  "Heparin</w>": 21566,
  "Hepat": 13827,
  "Hepati": 39803,
  "Hepatic</w>": 9641,
  "Hepatitis</w>": 8767,
  "Hepatocellular</w>": 16998,
  "Her": 7824,
  "Her</w>": 13093,
  "Herb": 32813,
  "Here": 33818,
  "Here</w>": 556,
  "Hereditary</w>": 22919,
  "Herein</w>": 4381,
  "Herpes</w>": 21675,
  "Hes": 30516,
  "Heter": 10446,
  "Hetero": 32190,
  "Heterogene": 39927,
  "Heterogeneity</w>": 19952,
  "Heterogeneous</w>": 34800,
  "Hex": 20399,
  "Hg": 15850,
  "Hg</w>": 2569,
  "Hh</w>": 29007,
  "Hi": 17413,
  "Hib</w>": 29118,
  "Hierarch": 37970,
  "Hierarchical</w>": 22137,
  "High": 18904,
  "High</w>": 1606,
  "Higher</w>": 6049,
  "Highly</w>": 10154,
  "Hil": 34122,
  "Hill</w>": 18851,
  "Him": 33329,
  "Hind": 35456,
  "HindIII</w>": 32419,
  "Hip": 26169,
  "Hip</w>": 14468,
  "Hippo</w>": 31174,
  "Hippocamp": 37108,
  "Hippocampal</w>": 26281,
  "Hir": 28811,
  "Hirsch": 38488,
  "Hirschsprung</w>": 32057,
  "His": 12891,
  "His</w>": 5678,
  "Hispan": 39570,
  "Hispanic</w>": 6776,
  "Hispanics</w>": 19091,
  "Hist": 12795,
  "Histamine</w>": 25421,
  "Histochemical</w>": 33852,
  "Histologic</w>": 15193,
  "Histological</w>": 8521,
  "Histologically</w>": 16407,
  "Histology</w>": 23746,
  "Histone</w>": 22826,
  "Histopathologic</w>": 26785,
  "Histopathological</w>": 14791,
  "Histopathology</w>": 26020,
  "Histor": 40185,
  "Historical</w>": 32902,
  "Historically</w>": 28099,
  "History</w>": 17246,
  "Ho": 11252,
  "Ho</w>": 26787,
  "Hodg": 38564,
  "Hodgkin</w>": 4972,
  "Hoech": 40018,
  "Hoechst</w>": 28332,
  "Hol": 11118,
  "Holstein</w>": 16847,
  "Holter</w>": 21252,
  "Hom": 7996,
  "Home": 25327,
  "Home</w>": 14407,
  "Hong</w>": 12955,
  "Hop": 19900,
  "Hor": 12352,
  "Horiz": 27660,
  "Hormon": 37147,
  "Hormonal</w>": 27130,
  "Hormone</w>": 20336,
  "Hosp": 37134,
  "Hospit": 18820,
  "Hospital</w>": 1794,
  "Hospitals</w>": 17570,
  "Host</w>": 15486,
  "Hous": 39050,
  "House": 38106,
  "House</w>": 32425,
  "Household</w>": 34562,
  "How</w>": 5419,
  "However</w>": 158,
  "Hox": 27617,
  "Hox</w>": 25578,
  "Hp</w>": 20320,
  "Hs": 30536,
  "Hs</w>": 9728,
  "Hsp": 14753,
  "Hsp70</w>": 19075,
  "Hsp90</w>": 20233,
  "Hu": 6864,
  "Hu</w>": 34351,
  "Hum": 13545,
  "Human</w>": 1969,
  "Humans</w>": 27077,
  "Hun": 24141,
  "Hung": 34065,
  "Hungary</w>": 27139,
  "Hunting": 38783,
  "Huntington</w>": 14479,
  "Hur": 30364,
  "Hy": 7039,
  "Hyal": 22981,
  "Hybri": 39189,
  "Hybrid</w>": 14894,
  "Hybridization</w>": 31269,
  "Hydr": 24499,
  "Hydro": 6527,
  "Hydrogen</w>": 15673,
  "Hydrox": 30192,
  "Hydroxy": 15184,
  "Hym": 36465,
  "Hymenoptera</w>": 30742,
  "Hyp": 8630,
  "Hyper": 4190,
  "Hypertension</w>": 10428,
  "Hypertensive</w>": 33713,
  "Hypo": 7054,
  "Hypoxia</w>": 16012,
  "Hz</w>": 3252,
  "I": 453,
  "I-</w>": 27785,
  "I.": 15539,
  "I.</w>": 8160,
  "I1</w>": 20686,
  "I2</w>": 16420,
  "I</w>": 174,
  "IA</w>": 6849,
  "IAA</w>": 17599,
  "IAP</w>": 14677,
  "IAV</w>": 32567,
  "IB": 16569,
  "IB</w>": 12880,
  "IBD</w>": 6104,
  "IBM": 34402,
  "IBM</w>": 27113,
  "IBS</w>": 10450,
  "IC": 3340,
  "IC50</w>": 6011,
  "IC</w>": 3420,
  "ICA": 18326,
  "ICA</w>": 8298,
  "ICAL</w>": 36868,
  "ICAM</w>": 7969,
  "ICC</w>": 7421,
  "ICCs</w>": 28516,
  "ICD</w>": 6749,
  "ICE</w>": 15175,
  "ICER</w>": 33238,
  "ICF</w>": 27657,
  "ICG</w>": 16340,
  "ICH</w>": 10412,
  "ICI</w>": 18205,
  "ICM</w>": 26530,
  "ICP</w>": 8228,
  "ICR</w>": 18233,
  "ICS</w>": 11654,
  "ICSI</w>": 16196,
  "ICT</w>": 24829,
  "ICU</w>": 3747,
  "ICUs</w>": 16772,
  "ICV</w>": 29534,
  "ICa</w>": 29651,
  "ICs</w>": 19312,
  "ID": 6092,
  "ID</w>": 6112,
  "IDA</w>": 25333,
  "IDC</w>": 30635,
  "IDDM</w>": 14346,
  "IDE": 28689,
  "IDH</w>": 29928,
  "IDO</w>": 30027,
  "IDUs</w>": 31931,
  "IE": 26310,
  "IE</w>": 12242,
  "IEC</w>": 32655,
  "IF": 4758,
  "IF</w>": 7871,
  "IFA</w>": 22912,
  "IFG</w>": 30482,
  "IFICA": 39981,
  "IFN": 17561,
  "IFN</w>": 1611,
  "IFNgamma</w>": 33528,
  "IFNs</w>": 30721,
  "IFNγ</w>": 30104,
  "IFT</w>": 29983,
  "IG": 13676,
  "IG</w>": 19263,
  "IGF": 11133,
  "IGF1</w>": 32348,
  "IGF</w>": 2510,
  "IGFBP</w>": 8847,
  "IGT</w>": 24074,
  "IH</w>": 15469,
  "IHC</w>": 10848,
  "IHD</w>": 18985,
  "II": 4047,
  "II</w>": 272,
  "IIA</w>": 13533,
  "IIB</w>": 17660,
  "III": 24957,
  "III</w>": 784,
  "IIIA</w>": 20981,
  "IIIB</w>": 21225,
  "IIIa</w>": 11857,
  "IIa</w>": 12973,
  "IIb</w>": 12385,
  "IK": 13732,
  "IK</w>": 27044,
  "IKK": 31470,
  "IKV</w>": 35139,
  "IL": 4480,
  "IL2</w>": 26645,
  "IL6</w>": 23959,
  "IL</w>": 355,
  "ILD</w>": 18410,
  "ILs</w>": 31117,
  "IM": 4263,
  "IM</w>": 7325,
  "IMA</w>": 22185,
  "IMP</w>": 19709,
  "IMPACT</w>": 25219,
  "IMPLICATIONS</w>": 9781,
  "IMPORT": 40011,
  "IMPORTANCE</w>": 21704,
  "IMRT</w>": 14187,
  "IMS</w>": 28308,
  "IMT</w>": 12863,
  "IN": 3190,
  "IN</w>": 5829,
  "INE</w>": 21080,
  "INF</w>": 34048,
  "INFO</w>": 37654,
  "ING</w>": 14622,
  "INH</w>": 19335,
  "INK": 22421,
  "INR</w>": 16815,
  "INS</w>": 18524,
  "INT": 24582,
  "INT</w>": 30521,
  "INTER": 35304,
  "INTERPRE": 39932,
  "INTERPRETATION</w>": 12534,
  "INTERVEN": 40362,
  "INTERVENTION</w>": 12137,
  "INTERVENTIONS</w>": 9804,
  "INTRODUC": 39425,
  "INTRODUCTION</w>": 2275,
  "IO": 12430,
  "IO</w>": 18151,
  "IOL</w>": 12081,
  "IOLs</w>": 30488,
  "ION": 30037,
  "ION</w>": 23720,
  "IOP</w>": 6414,
  "IP": 9936,
  "IP3</w>": 20120,
  "IP</w>": 4361,
  "IPA</w>": 26721,
  "IPC</w>": 20791,
  "IPD</w>": 25429,
  "IPF</w>": 15447,
  "IPL</w>": 31014,
  "IPP</w>": 31348,
  "IPS</w>": 26304,
  "IPSS</w>": 28088,
  "IPV</w>": 13648,
  "IQ": 21349,
  "IQ</w>": 9858,
  "IQR</w>": 6912,
  "IR": 4969,
  "IR</w>": 2393,
  "IRB</w>": 34822,
  "IRE</w>": 31752,
  "IRES</w>": 32315,
  "IRF</w>": 22865,
  "IRI</w>": 19446,
  "IRR</w>": 20628,
  "IRS</w>": 15533,
  "IRT</w>": 30286,
  "IS": 7337,
  "IS</w>": 5417,
  "ISH</w>": 24973,
  "ISI</w>": 22718,
  "ISO</w>": 14542,
  "ISR": 37454,
  "ISR</w>": 28556,
  "ISRCT": 37000,
  "ISRCTN": 32627,
  "ISS</w>": 16101,
  "IST</w>": 33321,
  "IT": 7043,
  "IT</w>": 7381,
  "ITC</w>": 29555,
  "ITD</w>": 33278,
  "ITO</w>": 34583,
  "ITP</w>": 16481,
  "ITS</w>": 16175,
  "ITT</w>": 31655,
  "ITY</w>": 32721,
  "IU": 15667,
  "IU</w>": 5626,
  "IUD</w>": 23381,
  "IUGR</w>": 18331,
  "IV": 5303,
  "IV</w>": 1224,
  "IVA</w>": 29425,
  "IVC</w>": 15790,
  "IVD</w>": 32268,
  "IVF</w>": 8068,
  "IVH</w>": 31659,
  "IVI": 36099,
  "IVIG</w>": 19768,
  "IVIg</w>": 34531,
  "IVM</w>": 29090,
  "IVUS</w>": 25445,
  "IX</w>": 8479,
  "Ia</w>": 10490,
  "Ib": 18389,
  "Ib</w>": 14657,
  "Icel": 30167,
  "Id</w>": 25893,
  "Ide": 28041,
  "Identi": 12288,
  "Identification</w>": 3655,
  "Identifying</w>": 12360,
  "Idi": 38042,
  "Idiopathic</w>": 16590,
  "If</w>": 2875,
  "Ig": 8734,
  "Ig</w>": 6762,
  "IgA</w>": 3986,
  "IgAN</w>": 26888,
  "IgD</w>": 29621,
  "IgE</w>": 3637,
  "IgG": 27894,
  "IgG1</w>": 11961,
  "IgG2</w>": 27338,
  "IgG2a</w>": 26983,
  "IgG3</w>": 28875,
  "IgG4</w>": 12896,
  "IgG</w>": 1836,
  "IgM</w>": 3759,
  "IkappaB</w>": 34678,
  "Il": 23279,
  "Ile": 20719,
  "Ile</w>": 15942,
  "Ill": 35026,
  "Illin": 40626,
  "Illinois</w>": 33573,
  "Illness</w>": 22703,
  "Illumina</w>": 18332,
  "Im": 4186,
  "Image</w>": 12771,
  "Images</w>": 19378,
  "Imaging</w>": 5382,
  "Immediate</w>": 17480,
  "Immediately</w>": 21462,
  "Immun": 5182,
  "Immune</w>": 9267,
  "Immunity</w>": 31794,
  "Immunization</w>": 19943,
  "Immuno": 10054,
  "Immunob": 31307,
  "Immunocyto": 36006,
  "Immunocytochemical</w>": 27378,
  "Immunodeficiency</w>": 33705,
  "Immunofluorescence</w>": 20472,
  "Immunoglobulin</w>": 24532,
  "Immunohistochemical</w>": 8547,
  "Immunohistochemistry</w>": 13575,
  "Immunological</w>": 21664,
  "Immunop": 29922,
  "Immunost": 39562,
  "Immunostaining</w>": 32475,
  "Immunotherapy</w>": 26023,
  "Imp": 17939,
  "Impact</w>": 4865,
  "Impair": 37314,
  "Impaired</w>": 14627,
  "Impairment</w>": 16394,
  "Impl": 37071,
  "Implant</w>": 21353,
  "Implantation</w>": 25280,
  "Implementation</w>": 13181,
  "Implementing</w>": 31526,
  "Implications</w>": 7273,
  "Import": 40168,
  "Importance</w>": 14561,
  "Important</w>": 17167,
  "Importantly</w>": 6822,
  "Impro": 39480,
  "Improve</w>": 24650,
  "Improved</w>": 9479,
  "Improvement</w>": 9286,
  "Improvements</w>": 20338,
  "Improves</w>": 29475,
  "Improving</w>": 11338,
  "Impul": 34133,
  "In": 1223,
  "In</w>": 37,
  "Inactivation</w>": 21721,
  "Inc": 22181,
  "Inc</w>": 8768,
  "Incid": 29904,
  "Incidence</w>": 8560,
  "Incident</w>": 34192,
  "Includ": 39768,
  "Included</w>": 24895,
  "Including</w>": 31795,
  "Inclusion</w>": 15626,
  "Income</w>": 33786,
  "Incorpor": 38703,
  "Incorporating</w>": 34082,
  "Incorporation</w>": 20328,
  "Incre": 25134,
  "Increase</w>": 16570,
  "Increased</w>": 3678,
  "Increases</w>": 15053,
  "Increasing</w>": 6568,
  "Incub": 37989,
  "Incubation</w>": 12634,
  "Ind": 32469,
  "Indeed</w>": 8455,
  "Independent</w>": 11563,
  "Index</w>": 3736,
  "Indi": 30091,
  "India</w>": 3815,
  "Indian</w>": 5724,
  "Indians</w>": 19944,
  "Indic": 14706,
  "Indications</w>": 17368,
  "Indigenous</w>": 18055,
  "Indirect</w>": 20181,
  "Individ": 31909,
  "Individual</w>": 8790,
  "Individuals</w>": 8800,
  "Indomethacin</w>": 29981,
  "Indon": 35524,
  "Indonesia</w>": 18738,
  "Indu": 31985,
  "Induc": 19199,
  "Induced</w>": 6653,
  "Induces</w>": 31976,
  "Induction</w>": 8350,
  "Industry</w>": 31169,
  "Inf": 11090,
  "Infant</w>": 16920,
  "Infants</w>": 12983,
  "Infarction</w>": 21755,
  "Infec": 38032,
  "Infected</w>": 21993,
  "Infection</w>": 6938,
  "Infections</w>": 14623,
  "Infectious</w>": 15714,
  "Inflam": 36999,
  "Inflammation</w>": 13424,
  "Inflammatory</w>": 9598,
  "Influ": 35647,
  "Influence</w>": 5407,
  "Influences</w>": 34871,
  "Influenza</w>": 15182,
  "Information</w>": 5151,
  "Infra": 33615,
  "Infrared</w>": 20638,
  "Infusion</w>": 22226,
  "Inher": 32089,
  "Inhib": 35446,
  "Inhibiting</w>": 33259,
  "Inhibition</w>": 4159,
  "Inhibitor</w>": 19923,
  "Inhibitors</w>": 14707,
  "Inhibitory</w>": 16704,
  "Inhibits</w>": 31573,
  "Initi": 35046,
  "Initial</w>": 7397,
  "Initially</w>": 14722,
  "Initiation</w>": 29200,
  "Initiative</w>": 17005,
  "Injec": 35543,
  "Injection</w>": 13856,
  "Injections</w>": 34184,
  "Injur": 39855,
  "Injuries</w>": 21457,
  "Injury</w>": 7418,
  "Inner</w>": 34705,
  "Innov": 37107,
  "Innovative</w>": 33318,
  "Inpatient</w>": 20938,
  "Ins": 16369,
  "Ins</w>": 20856,
  "Insec": 21906,
  "Inser": 36843,
  "Insertion</w>": 30046,
  "Insi": 39044,
  "Insight</w>": 31066,
  "Insights</w>": 16142,
  "Insp": 28540,
  "Instead</w>": 10167,
  "Institu": 35280,
  "Institute</w>": 4930,
  "Institutes</w>": 19171,
  "Institutional</w>": 24983,
  "Instrum": 24676,
  "Instrument</w>": 29786,
  "Insul": 36468,
  "Insulin</w>": 6660,
  "Insurance</w>": 16632,
  "Int": 35539,
  "Int</w>": 30419,
  "Intact</w>": 28988,
  "Intake</w>": 25619,
  "Inte": 35565,
  "Integr": 17425,
  "Integrated</w>": 13686,
  "Integrating</w>": 25209,
  "Integration</w>": 18294,
  "Integrative</w>": 33552,
  "Intell": 33190,
  "Intelligence</w>": 26706,
  "Inten": 35079,
  "Intensity</w>": 23244,
  "Intensive</w>": 11982,
  "Inter": 3590,
  "Inter</w>": 19014,
  "Interaction</w>": 8789,
  "Interactions</w>": 10829,
  "Interest</w>": 28898,
  "Interestingly</w>": 3856,
  "Interface</w>": 30457,
  "Interfer": 36495,
  "Interference</w>": 30691,
  "Interferon</w>": 16354,
  "Interleukin</w>": 9711,
  "Intermediate</w>": 28146,
  "Intermittent</w>": 27194,
  "Intern": 24864,
  "Internal</w>": 11299,
  "International</w>": 3642,
  "Internet</w>": 7755,
  "Interpre": 35582,
  "Interpretation</w>": 26152,
  "Intersti": 40307,
  "Interstitial</w>": 26147,
  "Interval</w>": 28834,
  "Intervention</w>": 9746,
  "Interventional</w>": 31378,
  "Interventions</w>": 11412,
  "Interview</w>": 13554,
  "Interviews</w>": 20767,
  "Intestinal</w>": 12116,
  "Intim": 31732,
  "Intr": 10082,
  "Intra": 8213,
  "Intra</w>": 12991,
  "Intrac": 12387,
  "Intracellular</w>": 11388,
  "Intracranial</w>": 19226,
  "Intral": 29813,
  "Intram": 19565,
  "Intran": 32388,
  "Intraocular</w>": 30310,
  "Intraoperative</w>": 12568,
  "Intraperitoneal</w>": 27853,
  "Intrav": 17145,
  "Intravenous</w>": 10613,
  "Intrig": 39673,
  "Intrigu": 41398,
  "Intriguingly</w>": 30860,
  "Intrinsic</w>": 27826,
  "Intro": 29934,
  "Introduction</w>": 6510,
  "Inv": 32784,
  "Invasion</w>": 32871,
  "Invasive</w>": 15031,
  "Inventory</w>": 6954,
  "Investig": 20421,
  "Investigating</w>": 23384,
  "Investigation</w>": 9457,
  "Investigations</w>": 18113,
  "Invol": 24335,
  "Involvement</w>": 13132,
  "Iodine</w>": 31989,
  "Ion": 20629,
  "Ion</w>": 14889,
  "Ionic</w>": 29780,
  "Iowa</w>": 28499,
  "Ir": 8609,
  "Ir</w>": 20432,
  "Ira": 26631,
  "Iran": 38167,
  "Iran</w>": 6977,
  "Iranian</w>": 12039,
  "Ireland</w>": 15143,
  "Iris": 38662,
  "Irish</w>": 26687,
  "Iron</w>": 11044,
  "Irradiation</w>": 26977,
  "Is": 6956,
  "Is</w>": 2882,
  "Ischem": 40436,
  "Ischemia</w>": 21266,
  "Ischemic</w>": 15636,
  "Isl": 27544,
  "Island</w>": 13725,
  "Islands</w>": 21731,
  "Isle": 33188,
  "Iso": 11234,
  "Isol": 35329,
  "Isolated</w>": 8655,
  "Isolates</w>": 22827,
  "Isolation</w>": 8311,
  "Isra": 39146,
  "Israel</w>": 14016,
  "Israeli</w>": 24322,
  "Issu": 40089,
  "Issue</w>": 25369,
  "Issues</w>": 24374,
  "It</w>": 212,
  "Ital": 37378,
  "Italian</w>": 7667,
  "Italy</w>": 6713,
  "Item</w>": 28206,
  "Items</w>": 25363,
  "Its</w>": 3290,
  "Ix": 36165,
  "Ixodes</w>": 30184,
  "J": 964,
  "J.": 24789,
  "J.</w>": 17628,
  "J2</w>": 29342,
  "J</w>": 1260,
  "JA</w>": 16582,
  "JAK": 28939,
  "JAK2</w>": 18659,
  "JAK</w>": 20205,
  "JC</w>": 25044,
  "JD</w>": 35068,
  "JE</w>": 29151,
  "JEC": 38597,
  "JH</w>": 24551,
  "JIA</w>": 23564,
  "JNK</w>": 8051,
  "JP</w>": 30256,
  "JV</w>": 31790,
  "Jac": 30225,
  "Jak": 35115,
  "Jakob</w>": 32730,
  "Jam": 20924,
  "Jan</w>": 31925,
  "Jane": 40169,
  "Janeiro</w>": 34255,
  "January</w>": 1941,
  "Janus</w>": 24108,
  "Jap": 38285,
  "Japan</w>": 3711,
  "Japanese</w>": 3049,
  "Jer": 36114,
  "Jersey</w>": 26684,
  "Jew": 35951,
  "Jewish</w>": 24338,
  "Ji": 21962,
  "Jo": 23249,
  "Job</w>": 32074,
  "Joh": 28112,
  "John": 37835,
  "John</w>": 15736,
  "Johnson</w>": 24211,
  "Joint</w>": 11511,
  "Jones</w>": 26235,
  "Jord": 36757,
  "Jordan</w>": 30313,
  "Jour": 36709,
  "Journal</w>": 14342,
  "Js</w>": 29020,
  "Ju": 23160,
  "July</w>": 4346,
  "Jun</w>": 10457,
  "June</w>": 3754,
  "Jur": 37425,
  "Jurkat</w>": 17967,
  "Just</w>": 30743,
  "Juven": 39530,
  "Juvenile</w>": 23839,
  "K": 458,
  "K.</w>": 20269,
  "K12</w>": 34716,
  "K1</w>": 3948,
  "K2</w>": 7636,
  "K3": 37164,
  "K3</w>": 19210,
  "K4</w>": 20438,
  "K562</w>": 13188,
  "K5</w>": 25446,
  "K8</w>": 32769,
  "K</w>": 473,
  "KA</w>": 9787,
  "KATP</w>": 29660,
  "KB</w>": 15077,
  "KC</w>": 14808,
  "KCN": 17789,
  "KCl</w>": 10031,
  "KD</w>": 8817,
  "KE": 34100,
  "KE</w>": 32772,
  "KEGG</w>": 25164,
  "KEY</w>": 12405,
  "KG": 17785,
  "KG</w>": 26746,
  "KI": 21579,
  "KI</w>": 14343,
  "KIF": 32310,
  "KIT</w>": 22264,
  "KK</w>": 27191,
  "KL": 13185,
  "KL</w>": 16661,
  "KLH</w>": 33574,
  "KM</w>": 22529,
  "KO": 32039,
  "KO</w>": 6511,
  "KP</w>": 21150,
  "KRAS</w>": 13854,
  "KS</w>": 9990,
  "KSHV</w>": 27919,
  "KT</w>": 14648,
  "KY": 25577,
  "KY</w>": 34563,
  "Ka": 15671,
  "Ka</w>": 30200,
  "Kal": 24526,
  "Kan": 24168,
  "Kaplan</w>": 7023,
  "Kaposi</w>": 15969,
  "Kappa</w>": 22544,
  "Kar": 17643,
  "Karno": 40439,
  "Karnofsky</w>": 34915,
  "Kat": 28739,
  "Kaw": 38801,
  "Kawasaki</w>": 23238,
  "Kaz": 32650,
  "Kb</w>": 30759,
  "Kd</w>": 10152,
  "Ke": 14531,
  "Kel": 32906,
  "Ken": 21440,
  "Kenya</w>": 13755,
  "Ker": 11286,
  "Ket": 17761,
  "Key</w>": 10260,
  "Kg</w>": 27161,
  "Ki": 23825,
  "Ki67</w>": 18629,
  "Ki</w>": 5695,
  "Kidne": 37638,
  "Kidney</w>": 9966,
  "Kin": 13318,
  "Kinase</w>": 17969,
  "Kine": 37014,
  "Kinetic</w>": 11870,
  "Kinetics</w>": 19040,
  "King</w>": 21320,
  "Kingdom</w>": 10036,
  "Kip1</w>": 33575,
  "Kir": 13886,
  "Kit</w>": 17448,
  "Kleb": 39597,
  "Klebsiella</w>": 10540,
  "Km</w>": 6922,
  "Kn": 14910,
  "Kne": 39093,
  "Knee</w>": 12988,
  "Knock": 37082,
  "Knockdown</w>": 19942,
  "Know": 38910,
  "Knowledge</w>": 6989,
  "Ko": 20055,
  "Kol": 30687,
  "Kong</w>": 13198,
  "Kor": 34635,
  "Kore": 35626,
  "Korea</w>": 7088,
  "Korean</w>": 6399,
  "Kr": 24379,
  "Kre": 37488,
  "Krebs</w>": 20138,
  "Krus": 39278,
  "Kruskal</w>": 21511,
  "Ks</w>": 13669,
  "Ku": 14349,
  "Kun": 31142,
  "Kup": 38875,
  "Kupffer</w>": 18079,
  "Kur": 30442,
  "Kv": 14749,
  "Kyo": 40071,
  "Kyoto</w>": 16736,
  "L": 237,
  "L-</w>": 16798,
  "L.": 21687,
  "L.</w>": 4797,
  "L1210</w>": 23828,
  "L1</w>": 2943,
  "L2</w>": 7597,
  "L3</w>": 11763,
  "L4</w>": 11190,
  "L5</w>": 12713,
  "L6</w>": 25157,
  "L929</w>": 34356,
  "L</w>": 213,
  "LA": 8981,
  "LA</w>": 3479,
  "LAA</w>": 26166,
  "LAB</w>": 20654,
  "LAC</w>": 27766,
  "LAD</w>": 13864,
  "LAK</w>": 20717,
  "LAM": 32155,
  "LAM</w>": 25536,
  "LAMP</w>": 23385,
  "LAP</w>": 24434,
  "LAR</w>": 27294,
  "LAS</w>": 26103,
  "LASIK</w>": 21422,
  "LAT</w>": 31527,
  "LATION</w>": 37871,
  "LB": 28787,
  "LB</w>": 15618,
  "LBP</w>": 11824,
  "LBW</w>": 24387,
  "LC": 14093,
  "LC3</w>": 20057,
  "LC50</w>": 34123,
  "LC</w>": 2648,
  "LCA</w>": 21767,
  "LCAT</w>": 34829,
  "LCs</w>": 31021,
  "LD": 9926,
  "LD50</w>": 20571,
  "LD</w>": 4424,
  "LDA</w>": 28396,
  "LDH</w>": 7234,
  "LDL": 26889,
  "LDL</w>": 2403,
  "LDLR</w>": 31638,
  "LDLT</w>": 33941,
  "LE": 4731,
  "LE</w>": 7044,
  "LED</w>": 17496,
  "LEDs</w>": 25653,
  "LEM</w>": 38284,
  "LEP</w>": 34032,
  "LES</w>": 22640,
  "LET</w>": 26586,
  "LEV": 39714,
  "LEVEL</w>": 11462,
  "LF": 20365,
  "LF</w>": 7599,
  "LFA</w>": 17553,
  "LG": 11619,
  "LG</w>": 17864,
  "LGN</w>": 34837,
  "LH": 21342,
  "LH</w>": 2993,
  "LHRH</w>": 13524,
  "LI": 4074,
  "LI</w>": 7315,
  "LIC</w>": 33109,
  "LIF</w>": 13068,
  "LIM</w>": 33401,
  "LIMI": 38772,
  "LIMITATIONS</w>": 15709,
  "LIN": 23898,
  "LINC": 36811,
  "LINC00": 31684,
  "LITY</w>": 38057,
  "LK": 28529,
  "LL": 7219,
  "LL</w>": 8417,
  "LLC</w>": 24661,
  "LLED</w>": 39975,
  "LM": 9360,
  "LM</w>": 7698,
  "LMA</w>": 27953,
  "LMICs</w>": 29306,
  "LMP</w>": 32565,
  "LMW</w>": 32568,
  "LMWH</w>": 23104,
  "LN": 13469,
  "LN</w>": 7979,
  "LNCaP</w>": 20058,
  "LNs</w>": 25494,
  "LO": 5783,
  "LO</w>": 17283,
  "LOC</w>": 33542,
  "LOD</w>": 17621,
  "LOG": 39305,
  "LOGICAL</w>": 30052,
  "LOGY</w>": 37554,
  "LOH</w>": 16417,
  "LOS</w>": 9417,
  "LOX</w>": 18000,
  "LP</w>": 5311,
  "LPA</w>": 17228,
  "LPC</w>": 28760,
  "LPD</w>": 32748,
  "LPL</w>": 15372,
  "LPO</w>": 25447,
  "LPS</w>": 2011,
  "LPs</w>": 33636,
  "LQ": 25620,
  "LQ</w>": 36558,
  "LR": 10193,
  "LR</w>": 7194,
  "LRP</w>": 25230,
  "LRR</w>": 32064,
  "LRRK2</w>": 33282,
  "LS": 14827,
  "LS</w>": 5236,
  "LSD</w>": 27962,
  "LSG</w>": 34200,
  "LT": 8872,
  "LT</w>": 5066,
  "LTA</w>": 28795,
  "LTB": 38507,
  "LTB4</w>": 19930,
  "LTC4</w>": 30574,
  "LTC</w>": 26796,
  "LTD</w>": 26557,
  "LTP</w>": 11634,
  "LTR</w>": 16546,
  "LU": 14387,
  "LUTS</w>": 25692,
  "LV": 5884,
  "LV</w>": 2782,
  "LVAD</w>": 20280,
  "LVE": 19804,
  "LVEF</w>": 12119,
  "LVH</w>": 17815,
  "LW</w>": 34399,
  "LY": 12564,
  "LY294002</w>": 28947,
  "LY</w>": 21568,
  "LYP</w>": 38798,
  "La": 9141,
  "La</w>": 11154,
  "Lab": 11974,
  "Lab</w>": 31951,
  "Label</w>": 14012,
  "Labeling</w>": 33364,
  "Labor": 39198,
  "Laboratories</w>": 30869,
  "Laboratory</w>": 7221,
  "Lac": 12755,
  "Lack</w>": 11840,
  "Lact": 22698,
  "Lactate</w>": 27982,
  "Lactob": 37600,
  "Lactobacillus</w>": 9596,
  "Lactococcus</w>": 32447,
  "Lag": 21845,
  "Lake</w>": 13098,
  "Lam": 17590,
  "Lamb": 29058,
  "Lamin": 27156,
  "Lan": 35953,
  "Land": 14839,
  "Lang": 34359,
  "Langen": 33863,
  "Langerhans</w>": 13713,
  "Langmu": 40292,
  "Langmuir</w>": 22393,
  "Langu": 39558,
  "Language</w>": 18542,
  "Lank": 37776,
  "Lanka</w>": 29615,
  "Lap": 35970,
  "Laparo": 26978,
  "Laparoscopic</w>": 9348,
  "Lar": 17799,
  "Larg": 38078,
  "Large</w>": 6417,
  "Larger</w>": 19874,
  "Las": 35152,
  "Laser</w>": 10642,
  "Last</w>": 30760,
  "Lastly</w>": 16635,
  "Lat": 17729,
  "Late</w>": 9981,
  "Latent</w>": 26409,
  "Later</w>": 19802,
  "Lateral</w>": 16290,
  "Lati": 38323,
  "Latin": 32350,
  "Latin</w>": 12770,
  "Latino</w>": 18836,
  "Latinos</w>": 34388,
  "Law": 31465,
  "Law</w>": 28482,
  "Layer</w>": 26136,
  "Le": 4068,
  "Le</w>": 20466,
  "Lead": 31582,
  "Lead</w>": 19069,
  "Leaf</w>": 24827,
  "Lear": 35018,
  "Learning</w>": 9260,
  "Leb": 20818,
  "Lec": 26204,
  "Left</w>": 8123,
  "Leg": 16695,
  "Legion": 36417,
  "Legionella</w>": 18052,
  "Lei": 35272,
  "Leiden</w>": 26973,
  "Leishman": 36258,
  "Leishmania</w>": 9437,
  "Lem": 27106,
  "Len": 23641,
  "Length</w>": 20579,
  "Lens</w>": 31628,
  "Lep": 18249,
  "Lepid": 38047,
  "Lepidoptera</w>": 28761,
  "Leptin</w>": 21798,
  "Leptosp": 37291,
  "Leptospira</w>": 30447,
  "Lesion</w>": 29243,
  "Lesions</w>": 15087,
  "Less": 37471,
  "Less</w>": 12873,
  "Lessons</w>": 26000,
  "Let": 18526,
  "Leu": 11695,
  "Leu</w>": 7073,
  "Leuc": 21532,
  "Leuk": 20139,
  "Leukemia</w>": 19662,
  "Leukocyte</w>": 31398,
  "Lev": 14405,
  "Level</w>": 6915,
  "Levels</w>": 7011,
  "Lew": 37842,
  "Lewis</w>": 9203,
  "Lewy</w>": 21033,
  "Ley": 39369,
  "Leydig</w>": 13011,
  "Li": 6355,
  "Li</w>": 7590,
  "LiCl</w>": 30165,
  "Lib": 22773,
  "Libr": 37954,
  "Library</w>": 10059,
  "Lich": 33576,
  "Lid": 34895,
  "Lif": 32907,
  "Life": 30304,
  "Life</w>": 5709,
  "Lifestyle</w>": 26532,
  "Lig": 13454,
  "Ligand</w>": 21190,
  "Light</w>": 8275,
  "Like</w>": 9750,
  "Likert</w>": 20176,
  "Likewise</w>": 12550,
  "Lim": 10830,
  "Limb</w>": 26231,
  "Limitations</w>": 22208,
  "Limited</w>": 13314,
  "Lin": 9082,
  "Lind": 25755,
  "Line": 29055,
  "Line</w>": 21144,
  "Linear</w>": 10189,
  "Link</w>": 34706,
  "Linkage</w>": 25406,
  "Linked</w>": 31223,
  "Lip": 11333,
  "Lipid</w>": 10072,
  "Lipo": 20091,
  "Lipopolysaccharide</w>": 32514,
  "Lipoprotein</w>": 29385,
  "Lipos": 22438,
  "Liqu": 36846,
  "Liquid</w>": 14041,
  "Lis": 31393,
  "List": 35141,
  "Listeria</w>": 11641,
  "Lit": 28298,
  "Liter": 35916,
  "Literature</w>": 9338,
  "Lith": 24718,
  "Lithium</w>": 21290,
  "Little</w>": 7907,
  "Live</w>": 25505,
  "Liver</w>": 5522,
  "Living</w>": 13833,
  "Ln</w>": 27576,
  "Lo": 6598,
  "Loc": 12052,
  "Local</w>": 7268,
  "Localization</w>": 15190,
  "Localized</w>": 28264,
  "Location</w>": 32820,
  "Log": 22767,
  "Log</w>": 28227,
  "Logistic</w>": 9115,
  "Lond": 39623,
  "London</w>": 13000,
  "Long": 25948,
  "Long</w>": 3018,
  "Longer</w>": 26081,
  "Longitudinal</w>": 8581,
  "Los</w>": 20986,
  "Loss</w>": 8087,
  "Lou": 19921,
  "Low": 18639,
  "Low</w>": 3244,
  "Lower</w>": 8413,
  "Lp</w>": 10870,
  "Ls</w>": 7027,
  "Lt": 37053,
  "Ltd</w>": 20407,
  "Lu": 11958,
  "Lu</w>": 26544,
  "Luc": 16850,
  "Lumbar</w>": 20479,
  "Lung</w>": 5970,
  "Lup": 37541,
  "Lupus</w>": 27374,
  "Lute": 34256,
  "Ly": 7927,
  "Ly</w>": 26654,
  "Lym": 35217,
  "Lyme</w>": 14955,
  "Lymph": 10584,
  "Lymph</w>": 20934,
  "Lymphocyte</w>": 24302,
  "Lymphocytes</w>": 29935,
  "Lymphoma</w>": 21818,
  "Lyn": 29129,
  "Lys": 9143,
  "Lys</w>": 8028,
  "Lyt</w>": 28589,
  "M": 286,
  "M.": 15749,
  "M.</w>": 11496,
  "M0</w>": 18777,
  "M1</w>": 4274,
  "M2</w>": 5690,
  "M3</w>": 12422,
  "M4</w>": 22613,
  "M5</w>": 31825,
  "M</w>": 326,
  "MA": 6533,
  "MA</w>": 3466,
  "MAA</w>": 33003,
  "MAC": 15974,
  "MAC</w>": 11162,
  "MACE</w>": 17531,
  "MAD": 25995,
  "MAG": 22569,
  "MAG</w>": 32659,
  "MAGE</w>": 31543,
  "MAIN</w>": 3806,
  "MAL": 19706,
  "MALDI</w>": 11460,
  "MALT</w>": 26390,
  "MAM</w>": 25806,
  "MAN": 31797,
  "MAO</w>": 12406,
  "MAP": 9808,
  "MAP</w>": 4693,
  "MAPK</w>": 4704,
  "MAPKs</w>": 26638,
  "MAR": 20642,
  "MAR</w>": 27520,
  "MAS</w>": 16722,
  "MAT": 16074,
  "MAT</w>": 23257,
  "MATERI": 40370,
  "MATERIAL</w>": 5069,
  "MATERIALS</w>": 1858,
  "MAb</w>": 12433,
  "MAbs</w>": 15862,
  "MB": 5490,
  "MB</w>": 5081,
  "MBC</w>": 20834,
  "MBF</w>": 28915,
  "MBL</w>": 23301,
  "MBP</w>": 11832,
  "MBq</w>": 25344,
  "MC": 9558,
  "MC3": 38824,
  "MC3T3</w>": 30408,
  "MC</w>": 4508,
  "MCA": 35672,
  "MCA</w>": 10684,
  "MCAO</w>": 22012,
  "MCC</w>": 19141,
  "MCD</w>": 23473,
  "MCF": 36038,
  "MCF7</w>": 27006,
  "MCF</w>": 7165,
  "MCH</w>": 25159,
  "MCI</w>": 8612,
  "MCL</w>": 18800,
  "MCM</w>": 31598,
  "MCP</w>": 8045,
  "MCR</w>": 34734,
  "MCS</w>": 19399,
  "MCT": 32316,
  "MCT</w>": 18103,
  "MCV</w>": 27484,
  "MCs</w>": 17819,
  "MD": 4386,
  "MD</w>": 3818,
  "MDA</w>": 4982,
  "MDC</w>": 34564,
  "MDCK</w>": 20982,
  "MDCT</w>": 21677,
  "MDD</w>": 8434,
  "MDI</w>": 22704,
  "MDM2</w>": 18762,
  "MDMA</w>": 20506,
  "MDP</w>": 20162,
  "MDR1</w>": 20991,
  "MDR</w>": 7890,
  "MDS</w>": 9812,
  "MDSCs</w>": 30870,
  "MDT</w>": 34527,
  "MDV</w>": 35638,
  "MDs</w>": 21482,
  "ME": 2493,
  "ME</w>": 5147,
  "MEA</w>": 29975,
  "MEASU": 40339,
  "MEASURE": 37999,
  "MEASURE</w>": 16980,
  "MEASUREMENTS</w>": 8356,
  "MEASURES</w>": 6051,
  "MEC</w>": 18041,
  "MECs</w>": 33422,
  "MED</w>": 16584,
  "MEDL": 39872,
  "MEDLINE</w>": 7069,
  "MEG</w>": 19336,
  "MEK1</w>": 33686,
  "MEK</w>": 12914,
  "MEL</w>": 24744,
  "MELD</w>": 25435,
  "MEM</w>": 20865,
  "MEN": 27061,
  "MEN</w>": 25190,
  "MENT": 36446,
  "MENT</w>": 19191,
  "MENTAL</w>": 39377,
  "MENTS</w>": 37485,
  "MEP</w>": 19135,
  "MERS</w>": 27332,
  "MES</w>": 19589,
  "MET</w>": 10748,
  "METH</w>": 29642,
  "METHO": 38840,
  "METHOD</w>": 2929,
  "METHODO": 39471,
  "METHODOLOGY</w>": 13848,
  "METHODS</w>": 146,
  "MEs</w>": 33659,
  "MF": 9057,
  "MF</w>": 8716,
  "MFC</w>": 32960,
  "MFS</w>": 30940,
  "MG": 10255,
  "MG</w>": 5940,
  "MGMT</w>": 26707,
  "MH": 18067,
  "MH</w>": 10123,
  "MHC</w>": 3750,
  "MHV</w>": 30853,
  "MHz</w>": 10655,
  "MI": 3643,
  "MI</w>": 3208,
  "MIA</w>": 26822,
  "MIB</w>": 28746,
  "MIBG</w>": 25052,
  "MIBI</w>": 27090,
  "MIC": 21111,
  "MIC</w>": 6247,
  "MICs</w>": 13615,
  "MID</w>": 24148,
  "MIF</w>": 16459,
  "MIM</w>": 28620,
  "MIN": 15825,
  "MIP</w>": 10980,
  "MIS</w>": 14766,
  "MIT</w>": 27530,
  "MJ</w>": 26229,
  "MK": 10887,
  "MK</w>": 8095,
  "ML": 5440,
  "ML</w>": 8551,
  "MLC</w>": 17851,
  "MLH1</w>": 25197,
  "MLL</w>": 28685,
  "MLP</w>": 36197,
  "MLR</w>": 20896,
  "MLST</w>": 33341,
  "MM": 4687,
  "MM</w>": 5033,
  "MMA</w>": 20929,
  "MMC</w>": 11313,
  "MMF</w>": 20228,
  "MMN</w>": 28614,
  "MMP2</w>": 34709,
  "MMP9</w>": 29859,
  "MMP</w>": 3170,
  "MMPI</w>": 26581,
  "MMPs</w>": 14254,
  "MMR</w>": 16163,
  "MMS</w>": 28509,
  "MMSE</w>": 15815,
  "MMT</w>": 27062,
  "MMTV</w>": 30923,
  "MN": 9589,
  "MN</w>": 8803,
  "MNC</w>": 26702,
  "MO": 4254,
  "MO</w>": 7873,
  "MOF</w>": 17912,
  "MOFs</w>": 25886,
  "MOG</w>": 33634,
  "MON": 33050,
  "MOR</w>": 28427,
  "MP": 12549,
  "MP2</w>": 29831,
  "MP</w>": 4146,
  "MPA</w>": 13745,
  "MPC</w>": 27636,
  "MPD</w>": 32714,
  "MPH</w>": 28806,
  "MPI</w>": 23220,
  "MPM</w>": 26979,
  "MPN</w>": 31071,
  "MPO</w>": 12391,
  "MPP</w>": 20897,
  "MPR</w>": 33752,
  "MPS</w>": 14659,
  "MPT</w>": 33553,
  "MPTP</w>": 16322,
  "MPV</w>": 22738,
  "MPa</w>": 10789,
  "MPs</w>": 12707,
  "MR": 4012,
  "MR</w>": 1702,
  "MRA</w>": 14508,
  "MRC</w>": 21288,
  "MRD</w>": 23648,
  "MRI</w>": 1068,
  "MRL</w>": 21885,
  "MRM</w>": 34903,
  "MRP</w>": 19126,
  "MRS</w>": 13291,
  "MRSA</w>": 7068,
  "MRT</w>": 22644,
  "MRs</w>": 22578,
  "MS": 6018,
  "MS</w>": 851,
  "MSA</w>": 17260,
  "MSC</w>": 7924,
  "MSCs</w>": 4931,
  "MSD</w>": 34262,
  "MSG</w>": 32243,
  "MSH2</w>": 31015,
  "MSH</w>": 16072,
  "MSI</w>": 14209,
  "MSM</w>": 11272,
  "MSP</w>": 26093,
  "MST</w>": 23351,
  "MT": 3886,
  "MT1</w>": 15265,
  "MT</w>": 3809,
  "MTA</w>": 18827,
  "MTB</w>": 23315,
  "MTC</w>": 20113,
  "MTCT</w>": 34301,
  "MTD</w>": 25116,
  "MTH": 36419,
  "MTHFR</w>": 19698,
  "MTP</w>": 27456,
  "MTS</w>": 27287,
  "MTT</w>": 8270,
  "MTX</w>": 7842,
  "MTs</w>": 16273,
  "MU": 11578,
  "MU</w>": 21345,
  "MUC": 16409,
  "MUC1</w>": 21192,
  "MV": 9242,
  "MV</w>": 6505,
  "MVA</w>": 27750,
  "MVC</w>": 22405,
  "MVD</w>": 20364,
  "MVP</w>": 34965,
  "MVPA</w>": 22073,
  "MVs</w>": 30861,
  "MW": 13196,
  "MW</w>": 13825,
  "MWCNTs</w>": 29683,
  "MWT</w>": 27916,
  "MX</w>": 32414,
  "MY": 8357,
  "MYC</w>": 15851,
  "MZ": 34549,
  "MZ</w>": 24738,
  "Ma": 7237,
  "Ma</w>": 30401,
  "Mac": 11020,
  "Mac</w>": 28037,
  "Macaca</w>": 21557,
  "Mach": 35201,
  "Machine</w>": 21607,
  "Macro": 14181,
  "Macroph": 39241,
  "Macrophage</w>": 22833,
  "Macrophages</w>": 19630,
  "Macular</w>": 31602,
  "Mad": 12774,
  "Mag": 11509,
  "Magne": 35605,
  "Magnesium</w>": 25991,
  "Magnetic</w>": 5742,
  "Main": 20423,
  "Main</w>": 11175,
  "Maintenance</w>": 20066,
  "Maj": 36621,
  "Major</w>": 7728,
  "Majority</w>": 24976,
  "Making</w>": 18938,
  "Mal": 5946,
  "Malaria</w>": 19822,
  "Malaw": 38442,
  "Malawi</w>": 24194,
  "Malay": 38071,
  "Malaysia</w>": 15979,
  "Malaysian</w>": 31815,
  "Male</w>": 6213,
  "Males</w>": 18929,
  "Malign": 31296,
  "Malignant</w>": 11283,
  "Mam": 16395,
  "Mammalian</w>": 22954,
  "Man": 6311,
  "Man</w>": 16267,
  "Management</w>": 4394,
  "Managing</w>": 27159,
  "Mand": 30576,
  "Mandibular</w>": 33660,
  "Mang": 23681,
  "Manif": 32341,
  "Manip": 26177,
  "Mann": 23031,
  "Mann</w>": 12228,
  "Manual</w>": 17927,
  "Many</w>": 2621,
  "Map</w>": 29273,
  "Mapping</w>": 14972,
  "Mar": 5772,
  "March</w>": 4108,
  "Marfan</w>": 26215,
  "Marg": 29581,
  "Mari": 21548,
  "Marine</w>": 24126,
  "Marked</w>": 23260,
  "Marker</w>": 33345,
  "Markers</w>": 21605,
  "Markov</w>": 15106,
  "Marrow</w>": 27288,
  "Marti": 30958,
  "Maryland</w>": 29827,
  "Mas": 18432,
  "Mass": 24773,
  "Mass</w>": 8945,
  "Massachusetts</w>": 22029,
  "Massive</w>": 27394,
  "Mast</w>": 30610,
  "Master</w>": 25452,
  "Mat": 9166,
  "Mater": 35732,
  "Material</w>": 14240,
  "Materials</w>": 6531,
  "Maternal</w>": 7438,
  "Math": 36240,
  "Mathematical</w>": 27577,
  "Matr": 35943,
  "Matrigel</w>": 26752,
  "Matrix</w>": 13576,
  "Matter</w>": 32191,
  "Mature</w>": 31769,
  "Max": 18847,
  "Max</w>": 31070,
  "Maxim": 36438,
  "Maximal</w>": 15611,
  "Maximum</w>": 11467,
  "May": 34738,
  "May</w>": 4352,
  "Mayo</w>": 21965,
  "Mb</w>": 13005,
  "Mc": 6869,
  "Mcl</w>": 33131,
  "Md": 22720,
  "Me": 3366,
  "Me</w>": 10505,
  "MeHg</w>": 23646,
  "MeV</w>": 22070,
  "Mean": 37162,
  "Mean</w>": 2204,
  "Meanwhile</w>": 9633,
  "Meas": 35526,
  "Measure": 40348,
  "Measure</w>": 20819,
  "Measured</w>": 29450,
  "Measurement</w>": 7801,
  "Measurements</w>": 7820,
  "Measures</w>": 10641,
  "Measuring</w>": 16501,
  "Mec": 35766,
  "Mech": 37020,
  "Mechan": 31260,
  "Mechanical</w>": 10615,
  "Mechanis": 40483,
  "Mechanism</w>": 11944,
  "Mechanisms</w>": 9434,
  "Mechanistic</w>": 22729,
  "Mechanistically</w>": 21240,
  "Meckel</w>": 32788,
  "Med": 11360,
  "Med</w>": 16208,
  "Medi": 12518,
  "Media</w>": 25654,
  "Medial</w>": 30368,
  "Median</w>": 4945,
  "Mediated</w>": 15336,
  "Medic": 13169,
  "Medicaid</w>": 9098,
  "Medical</w>": 2221,
  "Medicare</w>": 6999,
  "Medication</w>": 16942,
  "Medicine</w>": 4951,
  "Medicines</w>": 32329,
  "Mediterranean</w>": 9051,
  "Medium</w>": 24962,
  "Medline</w>": 10781,
  "Meeting</w>": 29971,
  "Meg": 21618,
  "Mei": 36052,
  "Meier</w>": 7186,
  "Mel": 11074,
  "Melan": 28718,
  "Melanoma</w>": 21715,
  "Melatonin</w>": 20684,
  "Melbourne</w>": 33853,
  "Mellitus</w>": 26287,
  "Mem": 35886,
  "Memb": 38414,
  "Members</w>": 20177,
  "Membran": 37669,
  "Membrane</w>": 10201,
  "Membranes</w>": 33196,
  "Memorial</w>": 27319,
  "Memory</w>": 12593,
  "Men": 12233,
  "Men</w>": 10078,
  "Mend": 38321,
  "Mendelian</w>": 22384,
  "Meni": 33887,
  "Mening": 23406,
  "Ment": 36109,
  "Mental</w>": 6499,
  "Menten</w>": 27795,
  "Mer": 14034,
  "Mercur": 39309,
  "Mercury</w>": 31674,
  "Merkel</w>": 29367,
  "Mes": 9518,
  "Mesenchymal</w>": 16217,
  "Mess": 29130,
  "Met": 5234,
  "Met</w>": 6466,
  "MetS</w>": 10116,
  "Meta</w>": 7329,
  "Metabol": 14501,
  "Metabolic</w>": 7815,
  "Metabolism</w>": 14624,
  "Metal</w>": 11178,
  "Metallo": 34791,
  "Metast": 38457,
  "Metastases</w>": 30463,
  "Metastasis</w>": 20845,
  "Metastatic</w>": 15462,
  "Metformin</w>": 24719,
  "Meth": 7311,
  "Methan": 27096,
  "Method": 36325,
  "Method</w>": 6882,
  "Methodological</w>": 29355,
  "Methodology</w>": 27536,
  "Methods</w>": 1379,
  "Methyl": 14555,
  "Methyl</w>": 20270,
  "Methylation</w>": 21929,
  "Metr": 31039,
  "Mex": 35758,
  "Mexican</w>": 11096,
  "Mexico</w>": 8556,
  "Mg": 9961,
  "Mg2</w>": 7070,
  "Mg</w>": 4901,
  "MgCl2</w>": 31407,
  "Mi": 9103,
  "MiR</w>": 21305,
  "Mic": 13090,
  "Mice</w>": 6314,
  "Mich": 38835,
  "Micha": 39252,
  "Michael</w>": 27746,
  "Michaelis</w>": 19440,
  "Michigan</w>": 20630,
  "Micro": 2736,
  "Micro</w>": 19584,
  "MicroRNA</w>": 18129,
  "MicroRNAs</w>": 17881,
  "Microarray</w>": 25672,
  "Microbi": 28813,
  "Microbial</w>": 14215,
  "Microbiota</w>": 32192,
  "Micros": 16464,
  "Microscopic</w>": 20401,
  "Microscopy</w>": 22534,
  "Microvascular</w>": 34175,
  "Microwave</w>": 33922,
  "Mid": 10878,
  "Mid</w>": 29351,
  "Middle</w>": 11105,
  "Mig": 31631,
  "Migraine</w>": 31038,
  "Migration</w>": 20679,
  "Mil": 12629,
  "Mild</w>": 13930,
  "Military</w>": 29371,
  "Milk</w>": 18885,
  "Mill": 29399,
  "Miller</w>": 32530,
  "Mim": 26258,
  "Min": 8198,
  "Mind": 31716,
  "Mineral</w>": 33084,
  "Mini": 31379,
  "Mini</w>": 13797,
  "Minim": 35989,
  "Minimal</w>": 20833,
  "Minimally</w>": 21861,
  "Minimum</w>": 23391,
  "Ministry</w>": 17452,
  "Minnesota</w>": 18276,
  "Minor</w>": 22536,
  "Mir": 24451,
  "Mis": 9496,
  "Mit": 10235,
  "Mitochond": 39758,
  "Mitochondria</w>": 24022,
  "Mitochondrial</w>": 10637,
  "Mitral</w>": 27691,
  "Mix": 23295,
  "Mixed</w>": 13131,
  "Mn": 10479,
  "Mn2</w>": 17466,
  "Mn</w>": 5337,
  "MnSOD</w>": 28207,
  "Mo": 4408,
  "Mo</w>": 11518,
  "MoAb</w>": 26722,
  "MoS2</w>": 30600,
  "MoS</w>": 32308,
  "Mob": 32676,
  "Mobile</w>": 21041,
  "Mobility</w>": 28598,
  "Mod": 8986,
  "Mode</w>": 27410,
  "Model</w>": 4484,
  "Modeling</w>": 12080,
  "Modelling</w>": 27789,
  "Models</w>": 11211,
  "Moder": 31770,
  "Moderate</w>": 15199,
  "Modern</w>": 18581,
  "Modi": 35073,
  "Modification</w>": 15076,
  "Modifications</w>": 30363,
  "Modified</w>": 11063,
  "Modulation</w>": 11323,
  "Mol": 17382,
  "Mol</w>": 24162,
  "Molecular</w>": 3072,
  "Molecule</w>": 33219,
  "Molecules</w>": 31876,
  "Mon": 4227,
  "Mong": 32865,
  "Mongolian</w>": 33905,
  "Monitoring</w>": 9107,
  "Mono": 24380,
  "Monoclonal</w>": 14946,
  "Mont": 22436,
  "Monte</w>": 8901,
  "Montre": 40331,
  "Montreal</w>": 29213,
  "Mood</w>": 28365,
  "Mor": 9789,
  "Morbidity</w>": 23526,
  "More": 37456,
  "More</w>": 2609,
  "Moreover</w>": 967,
  "Moroc": 25270,
  "Morph": 18728,
  "Morphine</w>": 26723,
  "Morphologic</w>": 34862,
  "Morphological</w>": 11933,
  "Morphology</w>": 22982,
  "Morphometric</w>": 29267,
  "Morris</w>": 20877,
  "Mortality</w>": 7230,
  "Mos": 16032,
  "Most</w>": 1485,
  "Mot": 28719,
  "Mother</w>": 33562,
  "Mothers</w>": 17755,
  "Motion</w>": 24865,
  "Motiv": 30241,
  "Motor</w>": 11165,
  "Moun": 21667,
  "Mountain</w>": 34445,
  "Mouse</w>": 10504,
  "Movement</w>": 19603,
  "Moz": 34377,
  "Mr": 27623,
  "Mr</w>": 8284,
  "Ms": 33335,
  "Ms</w>": 4746,
  "Mt": 23392,
  "Mtb</w>": 28219,
  "Mu": 10200,
  "Mu</w>": 28803,
  "MuLV</w>": 26685,
  "Muc": 11892,
  "Much</w>": 14375,
  "Mucosal</w>": 26605,
  "Mul": 12012,
  "Multi": 5138,
  "Multi</w>": 9868,
  "Multic": 31678,
  "Multicenter</w>": 20148,
  "Multidisciplinary</w>": 32694,
  "Multidrug</w>": 29506,
  "Multilevel</w>": 32490,
  "Multimodal</w>": 34723,
  "Multiple</w>": 3234,
  "Multivariable</w>": 14066,
  "Multivariate</w>": 5835,
  "Mun": 26646,
  "Mur": 16968,
  "Murine</w>": 20029,
  "Mus": 14462,
  "Mus</w>": 33808,
  "Muscle</w>": 8759,
  "Muscul": 38908,
  "Musculoskeletal</w>": 29389,
  "Mut": 12952,
  "Mutant</w>": 22305,
  "Mutants</w>": 28366,
  "Mutation</w>": 12576,
  "Mutational</w>": 29613,
  "Mutations</w>": 7665,
  "My": 4673,
  "My</w>": 33020,
  "MyD88</w>": 25246,
  "Myc": 30885,
  "Myc</w>": 12489,
  "Myco": 20498,
  "Mycobacterium</w>": 5131,
  "Mycoplasma</w>": 12884,
  "Myel": 16028,
  "Myeloid</w>": 28402,
  "Myo": 21064,
  "MyoD</w>": 34244,
  "Myocardial</w>": 9623,
  "Myx": 27786,
  "Mé": 25475,
  "Müll": 40340,
  "Müller</w>": 21750,
  "Müllerian</w>": 34216,
  "N": 299,
  "N-</w>": 6577,
  "N.": 26317,
  "N.</w>": 31081,
  "N0": 30470,
  "N0</w>": 17220,
  "N1</w>": 6271,
  "N2": 30959,
  "N2</w>": 6302,
  "N2O</w>": 19342,
  "N3</w>": 15606,
  "N4</w>": 24523,
  "N6</w>": 23706,
  "N9</w>": 30099,
  "N</w>": 190,
  "NA": 8482,
  "NA</w>": 3272,
  "NAA</w>": 20830,
  "NAC</w>": 9429,
  "NAD": 30768,
  "NAD</w>": 7153,
  "NADH</w>": 8557,
  "NADP</w>": 16029,
  "NADPH</w>": 6195,
  "NAF": 38005,
  "NAFLD</w>": 7805,
  "NAG</w>": 28027,
  "NAME</w>": 10903,
  "NAN": 31385,
  "NASH</w>": 15322,
  "NAT</w>": 23707,
  "NAc": 33854,
  "NAc</w>": 20507,
  "NB": 13194,
  "NB</w>": 8334,
  "NBD</w>": 32233,
  "NBS</w>": 30828,
  "NC": 4739,
  "NC</w>": 4907,
  "NCAM</w>": 27183,
  "NCC</w>": 29635,
  "NCE</w>": 37050,
  "NCI</w>": 18116,
  "NCS</w>": 23834,
  "NCT": 34640,
  "NCT0": 8310,
  "NCT00": 24033,
  "NCs</w>": 17847,
  "ND": 9064,
  "ND</w>": 5699,
  "NDI</w>": 33563,
  "NDV</w>": 26233,
  "NE": 5265,
  "NE</w>": 4833,
  "NEC</w>": 19043,
  "NEFA</w>": 32531,
  "NEL</w>": 39125,
  "NEP</w>": 28324,
  "NER</w>": 32385,
  "NET</w>": 15988,
  "NETs</w>": 17686,
  "NF": 5676,
  "NF1</w>": 16858,
  "NF</w>": 2014,
  "NFAT": 34251,
  "NFkappaB</w>": 33519,
  "NFκB</w>": 30508,
  "NG": 18029,
  "NG</w>": 7489,
  "NGAL</w>": 26660,
  "NGF</w>": 7053,
  "NGS</w>": 13741,
  "NH": 5933,
  "NH2</w>": 9882,
  "NH3</w>": 19650,
  "NH4": 30329,
  "NH4</w>": 19842,
  "NH</w>": 6479,
  "NHANES</w>": 25598,
  "NHE</w>": 33841,
  "NHL</w>": 10918,
  "NHS</w>": 10780,
  "NI": 4941,
  "NI</w>": 13263,
  "NICU</w>": 17408,
  "NIDDM</w>": 14702,
  "NIH3T3</w>": 34698,
  "NIH</w>": 11780,
  "NIHSS</w>": 27286,
  "NIR</w>": 11941,
  "NIRS</w>": 19291,
  "NIS</w>": 26346,
  "NIV</w>": 26907,
  "NJ</w>": 30642,
  "NK": 9032,
  "NK1</w>": 21864,
  "NK</w>": 3055,
  "NKG": 30823,
  "NKT</w>": 20726,
  "NL": 9919,
  "NL</w>": 16384,
  "NLR": 35774,
  "NLR</w>": 12698,
  "NLRP3</w>": 15376,
  "NLS</w>": 29558,
  "NM": 16449,
  "NM</w>": 16075,
  "NMD": 27755,
  "NMDA</w>": 4621,
  "NMDAR</w>": 23087,
  "NMMA</w>": 29511,
  "NMR</w>": 2563,
  "NMS</w>": 31329,
  "NN": 15155,
  "NN</w>": 19789,
  "NO": 3379,
  "NO2</w>": 17180,
  "NO3</w>": 17800,
  "NO</w>": 1515,
  "NOD</w>": 15245,
  "NON": 34068,
  "NOR</w>": 20551,
  "NOS</w>": 6880,
  "NOT": 30854,
  "NOx</w>": 29623,
  "NP": 10591,
  "NP</w>": 3758,
  "NPC</w>": 8857,
  "NPCs</w>": 31264,
  "NPH</w>": 29382,
  "NPS</w>": 26318,
  "NPV</w>": 15507,
  "NPY</w>": 8707,
  "NPs</w>": 4207,
  "NQ": 21412,
  "NR": 5274,
  "NR1</w>": 33957,
  "NR</w>": 10645,
  "NREM</w>": 31594,
  "NRS</w>": 23531,
  "NRT</w>": 29050,
  "NRs</w>": 33336,
  "NS": 4676,
  "NS1</w>": 24158,
  "NS3</w>": 25123,
  "NS</w>": 3819,
  "NSAI": 40050,
  "NSAID</w>": 15510,
  "NSAIDs</w>": 10686,
  "NSC</w>": 23215,
  "NSCLC</w>": 4023,
  "NSCs</w>": 23053,
  "NSE</w>": 20639,
  "NT": 7606,
  "NT</w>": 4476,
  "NTA</w>": 32638,
  "NTD</w>": 32244,
  "NTG</w>": 25398,
  "NTM</w>": 28651,
  "NTP</w>": 24583,
  "NTR</w>": 29628,
  "NTS</w>": 17726,
  "NTs</w>": 25179,
  "NU": 19604,
  "NU</w>": 33106,
  "NUMB": 39901,
  "NUMBER</w>": 24651,
  "NV": 23405,
  "NV</w>": 18320,
  "NVP</w>": 33872,
  "NW</w>": 21749,
  "NWs</w>": 28084,
  "NY": 27881,
  "NY</w>": 26935,
  "NYHA</w>": 18343,
  "NZ": 26232,
  "NZB</w>": 32462,
  "Na": 4601,
  "Na</w>": 1491,
  "NaCl</w>": 4992,
  "NaF</w>": 23057,
  "NaOCl</w>": 32125,
  "NaOH</w>": 23426,
  "Nag": 27869,
  "Nal": 23534,
  "Nan": 7126,
  "Nano": 13367,
  "Nano</w>": 26331,
  "Nanoc": 29655,
  "Nanop": 36890,
  "Nanoparticle</w>": 33162,
  "Nanoparticles</w>": 14305,
  "Nanos": 29339,
  "Nar": 19511,
  "Nas": 23999,
  "Nasal</w>": 17395,
  "Nat": 21926,
  "National</w>": 1872,
  "Nations</w>": 29535,
  "Nationwide</w>": 26984,
  "Native</w>": 14502,
  "Natl</w>": 28999,
  "Natural</w>": 8786,
  "Nature</w>": 19878,
  "Nav": 25101,
  "Nb": 27873,
  "Nb</w>": 27237,
  "Nd</w>": 14082,
  "Ne": 4457,
  "Near</w>": 17215,
  "Nearly</w>": 14072,
  "Nec": 12714,
  "Neck</w>": 17482,
  "Need</w>": 31639,
  "Needle</w>": 32651,
  "Needs</w>": 30011,
  "Nef</w>": 28359,
  "Negative</w>": 9712,
  "Neigh": 29992,
  "Neisser": 39843,
  "Neisseria</w>": 13643,
  "Neither</w>": 5637,
  "Nem": 31881,
  "Nemat": 30162,
  "Neo": 17440,
  "Neoadjuvant</w>": 32023,
  "Neon": 31531,
  "Neonatal</w>": 10782,
  "Nep": 35503,
  "Nepal</w>": 19181,
  "Neph": 27939,
  "Nephro": 20445,
  "Nerv": 30028,
  "Nerve</w>": 13553,
  "Net": 35594,
  "Net</w>": 16048,
  "Nether": 39412,
  "Netherlands</w>": 8552,
  "Network</w>": 7247,
  "Networks</w>": 19015,
  "Neu": 11766,
  "Neur": 19868,
  "Neural</w>": 10869,
  "Neuro": 2918,
  "Neuro</w>": 34942,
  "Neuroendocrine</w>": 31855,
  "Neuroimaging</w>": 28483,
  "Neurologic</w>": 31618,
  "Neurological</w>": 15406,
  "Neurom": 27289,
  "Neuronal</w>": 16197,
  "Neurons</w>": 18238,
  "Neuropsychological</w>": 28238,
  "Neurospora</w>": 26457,
  "Neutr": 28515,
  "Neutroph": 39043,
  "Neutrophil</w>": 22080,
  "Neutrophils</w>": 32253,
  "Nevertheless</w>": 4664,
  "New": 15274,
  "New</w>": 1586,
  "Newborn</w>": 30176,
  "Newcastle</w>": 20768,
  "Newer</w>": 32362,
  "Newly</w>": 25001,
  "Next</w>": 9153,
  "Ni": 6717,
  "Ni</w>": 5399,
  "Nic": 26692,
  "Nickel</w>": 33620,
  "Nico": 35244,
  "Nicoti": 40275,
  "Nicotiana</w>": 22995,
  "Nicotine</w>": 24060,
  "Nif": 29329,
  "Nig": 26467,
  "Nigeria</w>": 9353,
  "Nigerian</w>": 24093,
  "Nile</w>": 19613,
  "Nin": 35630,
  "Nine</w>": 5599,
  "Nineteen</w>": 12138,
  "Ninety</w>": 7578,
  "Niss": 26047,
  "Nit": 17652,
  "Nitr": 27503,
  "Nitric</w>": 14665,
  "Nitro": 22277,
  "Nitrogen</w>": 19893,
  "Nl": 37315,
  "Nlm": 41535,
  "NlmCategory</w>": 19623,
  "Nm</w>": 33307,
  "No": 11431,
  "No.</w>": 17170,
  "No</w>": 668,
  "Noc": 23288,
  "Nocardi": 38264,
  "Nocardia</w>": 31421,
  "Nod": 28655,
  "Noise</w>": 28093,
  "Non": 4261,
  "Non</w>": 3393,
  "None</w>": 4419,
  "Nonetheless</w>": 14193,
  "Noninvasive</w>": 22216,
  "Nonlinear</w>": 31415,
  "Nor": 7344,
  "Nordic</w>": 28536,
  "Normal": 26139,
  "Normal</w>": 7832,
  "North</w>": 4022,
  "Northeast</w>": 27058,
  "Northern</w>": 4989,
  "Northwest</w>": 31644,
  "Norway</w>": 11046,
  "Norwe": 39428,
  "Norwegian</w>": 15436,
  "Nos": 27457,
  "Not": 13470,
  "Not</w>": 8544,
  "Notably</w>": 9599,
  "Notch": 36107,
  "Notch1</w>": 27833,
  "Notch</w>": 9994,
  "Nov": 15838,
  "Novel</w>": 4935,
  "November</w>": 5941,
  "Now</w>": 22758,
  "Nowadays</w>": 24143,
  "Nox": 29201,
  "Nr": 22717,
  "Nrf2</w>": 9857,
  "Ns</w>": 6868,
  "Nt": 34114,
  "Nu": 18714,
  "Nucle": 12563,
  "Nuclear</w>": 9033,
  "Nucleic</w>": 33577,
  "Nucleotide</w>": 17584,
  "Number</w>": 17688,
  "Numer": 37033,
  "Numerical</w>": 18409,
  "Numerous</w>": 9960,
  "Nur": 32884,
  "Nurse</w>": 19541,
  "Nurses</w>": 10737,
  "Nursing</w>": 8788,
  "Nutri": 37544,
  "Nutrient</w>": 30636,
  "Nutrition</w>": 9962,
  "Nutritional</w>": 15239,
  "O": 403,
  "O-</w>": 13836,
  "O.": 33501,
  "O157</w>": 13895,
  "O1</w>": 9747,
  "O2": 29631,
  "O2-</w>": 19468,
  "O2</w>": 2607,
  "O3</w>": 9909,
  "O4</w>": 13365,
  "O6</w>": 19563,
  "O</w>": 452,
  "OA</w>": 3260,
  "OAB</w>": 26842,
  "OB": 6748,
  "OB</w>": 12979,
  "OBJEC": 35178,
  "OBJECTIV": 39404,
  "OBJECTIVE</w>": 561,
  "OBJECTIVES</w>": 1352,
  "OC</w>": 6109,
  "OCD</w>": 10922,
  "OCT": 22500,
  "OCT</w>": 6308,
  "OCTA</w>": 33230,
  "OCl</w>": 38592,
  "OCs</w>": 25959,
  "OD</w>": 10097,
  "ODC</w>": 17997,
  "ODI</w>": 25386,
  "ODN</w>": 19319,
  "OE</w>": 25673,
  "OF": 22520,
  "OF</w>": 2568,
  "OFC</w>": 32296,
  "OFF</w>": 25680,
  "OG": 33953,
  "OG</w>": 11752,
  "OGD</w>": 28250,
  "OGTT</w>": 20065,
  "OH": 13846,
  "OH</w>": 2038,
  "OHCA</w>": 29567,
  "OHD</w>": 27127,
  "OHDA</w>": 19151,
  "OHP</w>": 31022,
  "OHdG</w>": 32734,
  "OI</w>": 18102,
  "OK": 13272,
  "OK</w>": 23480,
  "OKT3</w>": 31029,
  "OL": 28003,
  "OL</w>": 11771,
  "OLP</w>": 32075,
  "OLT</w>": 23429,
  "OM</w>": 8748,
  "OMe</w>": 33583,
  "ON": 5222,
  "ON</w>": 6101,
  "ONS</w>": 22160,
  "OO</w>": 28378,
  "OOH</w>": 31162,
  "OP": 12208,
  "OP</w>": 5762,
  "OPC</w>": 29138,
  "OPD</w>": 28372,
  "OPG</w>": 18841,
  "OPN</w>": 17371,
  "OR": 4024,
  "OR</w>": 780,
  "ORE</w>": 27485,
  "ORF": 25721,
  "ORF</w>": 13630,
  "ORFs</w>": 19808,
  "ORR</w>": 21890,
  "ORS</w>": 24004,
  "ORs</w>": 10352,
  "OS": 25646,
  "OS</w>": 1929,
  "OSA</w>": 7602,
  "OSAS</w>": 21011,
  "OSCC</w>": 14018,
  "OT": 19838,
  "OT</w>": 5978,
  "OTA</w>": 25301,
  "OTC</w>": 22972,
  "OTUs</w>": 34679,
  "OUT": 39531,
  "OUTCO": 40778,
  "OUTCOME</w>": 5114,
  "OUTCOMES</w>": 19702,
  "OV": 11808,
  "OV</w>": 16731,
  "OVA</w>": 12553,
  "OVX</w>": 14458,
  "OX": 12238,
  "OX</w>": 16111,
  "OXA</w>": 27624,
  "Ob": 8442,
  "Obese</w>": 22675,
  "Obesity</w>": 8929,
  "Objec": 29987,
  "Objective</w>": 4163,
  "Objectives</w>": 9167,
  "Observ": 38107,
  "Observation</w>": 21291,
  "Observational</w>": 15863,
  "Observations</w>": 18438,
  "Observed</w>": 29093,
  "Obste": 35537,
  "Obstetr": 36223,
  "Obstetrics</w>": 24474,
  "Obstructive</w>": 18507,
  "Oc": 9497,
  "Occa": 31345,
  "Occlusion</w>": 34896,
  "Occu": 39279,
  "Occupational</w>": 13832,
  "Occurrence</w>": 19513,
  "Ocean</w>": 22214,
  "Oct": 28094,
  "Oct</w>": 27554,
  "October</w>": 4884,
  "Ocular</w>": 16213,
  "Od": 21079,
  "Odds</w>": 16816,
  "Of": 38976,
  "Of</w>": 916,
  "Off": 17074,
  "Off</w>": 29463,
  "Office</w>": 20801,
  "Often</w>": 27356,
  "Ohio</w>": 29081,
  "Oil</w>": 21103,
  "Ok": 23021,
  "Ol": 17271,
  "Old</w>": 16403,
  "Older</w>": 8659,
  "Ole": 28804,
  "Olfactory</w>": 33700,
  "Olig": 13069,
  "Olym": 33833,
  "Om": 19597,
  "Omega</w>": 31964,
  "Omp": 21625,
  "On": 10701,
  "On</w>": 943,
  "Onc": 19081,
  "Once</w>": 10188,
  "Oncology</w>": 10677,
  "Oncor": 40147,
  "Oncorhynchus</w>": 30242,
  "One</w>": 810,
  "Ongoing</w>": 27310,
  "Online</w>": 18789,
  "Only</w>": 2016,
  "Onset</w>": 22510,
  "Ont": 35608,
  "Ontario</w>": 11115,
  "Ontology</w>": 27534,
  "Op": 7963,
  "Open</w>": 10494,
  "Oper": 19969,
  "Operating</w>": 32005,
  "Operation</w>": 31251,
  "Operative</w>": 16598,
  "Ophthal": 35074,
  "Ophthalm": 24654,
  "Opi": 35088,
  "Opioid</w>": 20725,
  "Opportun": 36377,
  "Opportunities</w>": 32373,
  "Optic</w>": 30324,
  "Optical</w>": 11266,
  "Optim": 16837,
  "Optimal</w>": 11419,
  "Optimization</w>": 15522,
  "Optimizing</w>": 30992,
  "Or": 6530,
  "Oral</w>": 5089,
  "Orb": 38299,
  "Orbital</w>": 30402,
  "Order</w>": 34748,
  "Oreg": 39729,
  "Oregon</w>": 30915,
  "Org": 36899,
  "Organ": 13065,
  "Organ</w>": 16579,
  "Organic</w>": 13304,
  "Organis": 35171,
  "Organisation</w>": 33337,
  "Organization</w>": 6570,
  "Ori": 20927,
  "Orientation</w>": 33218,
  "Orig": 21009,
  "Origin</w>": 28420,
  "Orth": 11523,
  "Orthop": 29359,
  "Orthopaedic</w>": 23929,
  "Ory": 36934,
  "Oryza</w>": 27001,
  "Os": 7542,
  "Os</w>": 9295,
  "Osc": 37516,
  "Oscill": 33710,
  "Oste": 8126,
  "Osteo": 36637,
  "Osteoarthritis</w>": 19726,
  "Osteopo": 37725,
  "Osteoporosis</w>": 23771,
  "Oswe": 40554,
  "Oswestry</w>": 34935,
  "Ot": 23588,
  "Other": 40341,
  "Other</w>": 3302,
  "Others</w>": 31744,
  "Otherwise</w>": 34073,
  "Otta": 40523,
  "Ottawa</w>": 34749,
  "Ou": 30631,
  "Our</w>": 339,
  "Out": 11021,
  "Out</w>": 7518,
  "Outcome</w>": 6632,
  "Outcomes</w>": 4642,
  "Outpatient</w>": 22471,
  "Ov": 22128,
  "Ovari": 36462,
  "Ovarian</w>": 13802,
  "Ove": 39129,
  "Over": 9482,
  "Over</w>": 3732,
  "Overall</w>": 1830,
  "Overex": 37408,
  "Overexpression</w>": 9122,
  "Overview</w>": 29280,
  "Overweight</w>": 29206,
  "Ovid</w>": 26468,
  "Owing</w>": 18351,
  "Ox": 8718,
  "Ox</w>": 21735,
  "Oxford</w>": 22363,
  "Oxid": 36943,
  "Oxidation</w>": 21022,
  "Oxidative</w>": 10477,
  "Oxide</w>": 20049,
  "Oxy": 19504,
  "Oxygen</w>": 11701,
  "P": 321,
  "P-</w>": 18253,
  "P.": 16670,
  "P.</w>": 18096,
  "P0</w>": 23377,
  "P1": 34501,
  "P1</w>": 2527,
  "P2": 10753,
  "P22</w>": 34389,
  "P2</w>": 3550,
  "P2X": 25725,
  "P2X</w>": 27709,
  "P2Y": 33428,
  "P2Y</w>": 29207,
  "P3": 14495,
  "P300</w>": 18991,
  "P3</w>": 4651,
  "P450": 12874,
  "P450</w>": 5811,
  "P4</w>": 6593,
  "P50</w>": 33529,
  "P53</w>": 27135,
  "P5</w>": 17520,
  "P6</w>": 20198,
  "P7</w>": 21828,
  "P8</w>": 26125,
  "P9</w>": 31919,
  "P</w>": 68,
  "PA": 2046,
  "PA1</w>": 21729,
  "PA</w>": 1771,
  "PAA</w>": 16097,
  "PAC": 12960,
  "PAC</w>": 12212,
  "PACAP</w>": 18047,
  "PACS</w>": 33140,
  "PACT</w>": 36911,
  "PAD</w>": 12124,
  "PAE</w>": 31709,
  "PAF</w>": 7361,
  "PAG</w>": 19324,
  "PAGE</w>": 8171,
  "PAH</w>": 7096,
  "PAHs</w>": 10826,
  "PAI</w>": 7690,
  "PAL</w>": 21459,
  "PAM</w>": 15268,
  "PAN": 35979,
  "PAN</w>": 21743,
  "PANSS</w>": 33775,
  "PAO</w>": 21968,
  "PAP</w>": 9766,
  "PAR": 9764,
  "PAR</w>": 11032,
  "PARP</w>": 12691,
  "PARTI": 39688,
  "PARTICIPA": 39841,
  "PARTICIPANTS</w>": 5452,
  "PAS</w>": 12103,
  "PAT</w>": 20434,
  "PATI": 39317,
  "PATIEN": 40288,
  "PATIENT</w>": 18250,
  "PATIENTS</w>": 3355,
  "PAX": 32260,
  "PAs</w>": 21434,
  "PB": 3901,
  "PB</w>": 6082,
  "PBC</w>": 17469,
  "PBDEs</w>": 31685,
  "PBL</w>": 13995,
  "PBM": 35375,
  "PBM</w>": 33283,
  "PBMC</w>": 9698,
  "PBMCs</w>": 13009,
  "PBS</w>": 12261,
  "PC": 2793,
  "PC12</w>": 12162,
  "PC1</w>": 23809,
  "PC2</w>": 33132,
  "PC3</w>": 22595,
  "PC</w>": 1914,
  "PCA</w>": 7383,
  "PCB</w>": 12468,
  "PCBs</w>": 13839,
  "PCC</w>": 11978,
  "PCD": 24790,
  "PCD</w>": 17928,
  "PCDD</w>": 34157,
  "PCE</w>": 24403,
  "PCI</w>": 6543,
  "PCK</w>": 32536,
  "PCL</w>": 11487,
  "PCM</w>": 23058,
  "PCNA</w>": 11208,
  "PCNL</w>": 34413,
  "PCO2</w>": 20093,
  "PCO</w>": 26431,
  "PCOS</w>": 8610,
  "PCP</w>": 9760,
  "PCPs</w>": 25339,
  "PCR</w>": 808,
  "PCS</w>": 15978,
  "PCSK": 39379,
  "PCSK9</w>": 26474,
  "PCT</w>": 13245,
  "PCV": 28004,
  "PCV</w>": 19757,
  "PCa</w>": 8532,
  "PCr</w>": 29582,
  "PCs</w>": 7998,
  "PD": 3150,
  "PD98059</w>": 31454,
  "PD</w>": 1216,
  "PDA</w>": 12089,
  "PDAC</w>": 14592,
  "PDB</w>": 28530,
  "PDC</w>": 24543,
  "PDD</w>": 29295,
  "PDE": 12113,
  "PDE</w>": 13076,
  "PDF</w>": 32436,
  "PDGF": 22776,
  "PDGF</w>": 7618,
  "PDH</w>": 21160,
  "PDI</w>": 21703,
  "PDL</w>": 24179,
  "PDMS</w>": 20277,
  "PDR</w>": 21236,
  "PDS</w>": 26255,
  "PDT</w>": 9304,
  "PDZ</w>": 28893,
  "PDs</w>": 19436,
  "PE": 2954,
  "PE</w>": 2337,
  "PEA</w>": 25105,
  "PEC": 26734,
  "PEC</w>": 15098,
  "PED</w>": 28319,
  "PEEP</w>": 18449,
  "PEF</w>": 21873,
  "PEG": 24739,
  "PEG</w>": 4903,
  "PEGylated</w>": 32211,
  "PEI</w>": 15739,
  "PEM</w>": 29900,
  "PEO</w>": 25249,
  "PEP</w>": 14433,
  "PER": 16755,
  "PER</w>": 19371,
  "PES</w>": 18735,
  "PET</w>": 2345,
  "PEs</w>": 27359,
  "PF": 3682,
  "PF</w>": 5124,
  "PFC</w>": 10351,
  "PFGE</w>": 20452,
  "PFO</w>": 29047,
  "PFOA</w>": 34407,
  "PFOS</w>": 31829,
  "PFS</w>": 7278,
  "PG": 3403,
  "PG</w>": 4034,
  "PGA</w>": 20015,
  "PGC</w>": 18681,
  "PGD</w>": 26728,
  "PGE1</w>": 18064,
  "PGE2</w>": 6358,
  "PGE</w>": 13896,
  "PGF": 34395,
  "PGF1</w>": 28471,
  "PGF2</w>": 17421,
  "PGF2alpha</w>": 34972,
  "PGF</w>": 24378,
  "PGI2</w>": 15957,
  "PGS</w>": 30836,
  "PGs</w>": 15908,
  "PH": 4079,
  "PH</w>": 5101,
  "PHA</w>": 9297,
  "PHB</w>": 28638,
  "PHC</w>": 23899,
  "PHI</w>": 34124,
  "PHN</w>": 33390,
  "PHQ</w>": 28451,
  "PHT</w>": 29781,
  "PI": 3597,
  "PI3": 33372,
  "PI3</w>": 26401,
  "PI3K</w>": 5806,
  "PI</w>": 2674,
  "PIA</w>": 25786,
  "PIC</w>": 19337,
  "PICU</w>": 24668,
  "PID</w>": 19492,
  "PIH</w>": 32632,
  "PIK3": 37730,
  "PIK3CA</w>": 30196,
  "PIN": 17989,
  "PIN</w>": 26015,
  "PIP</w>": 18525,
  "PIs</w>": 21510,
  "PJ": 19495,
  "PK": 5920,
  "PK1</w>": 25542,
  "PK</w>": 6234,
  "PKA</w>": 9702,
  "PKB</w>": 31481,
  "PKC": 13740,
  "PKC</w>": 4133,
  "PKD</w>": 33189,
  "PKR</w>": 29723,
  "PKU</w>": 29139,
  "PL": 2817,
  "PL</w>": 4660,
  "PLA2</w>": 12258,
  "PLA</w>": 9792,
  "PLC": 34276,
  "PLC</w>": 9923,
  "PLD</w>": 17281,
  "PLE": 30914,
  "PLE</w>": 34597,
  "PLGA</w>": 13655,
  "PLICA": 37182,
  "PLICATIONS</w>": 38370,
  "PLL</w>": 23177,
  "PLLA</w>": 31228,
  "PLP</w>": 18756,
  "PLR</w>": 23476,
  "PLS</w>": 17637,
  "PLT</w>": 26512,
  "PLs</w>": 32126,
  "PM": 3569,
  "PM10</w>": 31183,
  "PM2.5</w>": 20104,
  "PM</w>": 3417,
  "PMA</w>": 7263,
  "PMC</w>": 29187,
  "PMI</w>": 32127,
  "PML</w>": 16861,
  "PMMA</w>": 16145,
  "PMN</w>": 7650,
  "PMNs</w>": 15209,
  "PMR</w>": 32153,
  "PMS</w>": 23120,
  "PMT</w>": 26370,
  "PMs</w>": 30039,
  "PN": 5863,
  "PN</w>": 5950,
  "PNA</w>": 18778,
  "PND</w>": 25585,
  "PNH</w>": 32686,
  "PNI</w>": 31473,
  "PNP</w>": 25458,
  "PNS</w>": 22382,
  "PO": 2818,
  "PO2</w>": 15738,
  "PO4</w>": 19207,
  "PO</w>": 6885,
  "POA</w>": 25715,
  "POAG</w>": 23435,
  "POC</w>": 21848,
  "POD</w>": 18147,
  "POIN": 39357,
  "POINTS</w>": 27219,
  "POMC</w>": 22574,
  "PON": 37595,
  "PON1</w>": 29657,
  "PONV</w>": 34487,
  "POP</w>": 20839,
  "POPU": 39745,
  "POPULATION</w>": 29015,
  "PORT": 37990,
  "PORT</w>": 36365,
  "PP": 6102,
  "PP1</w>": 25593,
  "PP2A</w>": 22596,
  "PP</w>": 3180,
  "PPA</w>": 22380,
  "PPAR": 15317,
  "PPAR</w>": 13502,
  "PPARgamma</w>": 22476,
  "PPARα</w>": 33116,
  "PPARγ</w>": 16992,
  "PPC</w>": 27395,
  "PPD</w>": 14277,
  "PPE</w>": 25742,
  "PPG</w>": 26502,
  "PPH</w>": 27293,
  "PPI</w>": 9765,
  "PPIs</w>": 23797,
  "PPO</w>": 34593,
  "PPP</w>": 22857,
  "PPS</w>": 20253,
  "PPT</w>": 26830,
  "PPV</w>": 10488,
  "PQ": 34057,
  "PQ</w>": 20660,
  "PR": 2873,
  "PR1</w>": 31595,
  "PR</w>": 2787,
  "PRA</w>": 14389,
  "PRACTI": 36241,
  "PRACTICE</w>": 19131,
  "PRE": 11415,
  "PRE</w>": 30825,
  "PRESEN": 39844,
  "PRESENTATION</w>": 12662,
  "PRF</w>": 23044,
  "PRIM": 33342,
  "PRIN": 38885,
  "PRINCIPA": 40721,
  "PRINCIPAL</w>": 28870,
  "PRIS": 39991,
  "PRISMA</w>": 22575,
  "PRK</w>": 29842,
  "PRL</w>": 6007,
  "PRO": 7781,
  "PRO</w>": 18046,
  "PROB": 39577,
  "PROBLEM</w>": 32610,
  "PROCE": 38567,
  "PROCEDURE</w>": 33680,
  "PROCEDURES</w>": 32380,
  "PROM</w>": 26043,
  "PROSP": 39620,
  "PROSPERO</w>": 27391,
  "PRP</w>": 10706,
  "PRRSV</w>": 24776,
  "PRS</w>": 21133,
  "PRT</w>": 34267,
  "PRV</w>": 28974,
  "PRs</w>": 26742,
  "PS": 4425,
  "PS1</w>": 21035,
  "PS</w>": 2264,
  "PSA</w>": 4442,
  "PSC</w>": 13028,
  "PSCs</w>": 19869,
  "PSD</w>": 17757,
  "PSE</w>": 34336,
  "PSF</w>": 30136,
  "PSG</w>": 23373,
  "PSI</w>": 17828,
  "PSII</w>": 21208,
  "PSM</w>": 30177,
  "PSMA</w>": 26307,
  "PSP</w>": 16790,
  "PSPs</w>": 35538,
  "PSS</w>": 15679,
  "PST</w>": 31841,
  "PSV</w>": 31955,
  "PSs</w>": 29571,
  "PT": 2522,
  "PT</w>": 3523,
  "PTA</w>": 14892,
  "PTB</w>": 15465,
  "PTC</w>": 11145,
  "PTCA</w>": 14884,
  "PTE</w>": 31138,
  "PTEN</w>": 9775,
  "PTFE</w>": 18954,
  "PTG</w>": 30388,
  "PTH": 28968,
  "PTH</w>": 5307,
  "PTHrP</w>": 19327,
  "PTP": 24762,
  "PTP</w>": 18336,
  "PTS</w>": 22450,
  "PTSD</w>": 4996,
  "PTT</w>": 20340,
  "PTU</w>": 34320,
  "PTV</w>": 25510,
  "PTX</w>": 12175,
  "PTZ</w>": 27685,
  "PTs</w>": 26356,
  "PU": 9587,
  "PU</w>": 20070,
  "PUFA</w>": 13405,
  "PUFAs</w>": 23051,
  "PUR": 38361,
  "PURPO": 37089,
  "PURPOSE</w>": 1197,
  "PUVA</w>": 32825,
  "PV": 5757,
  "PV</w>": 4350,
  "PVA</w>": 16580,
  "PVC</w>": 21070,
  "PVD</w>": 33373,
  "PVI</w>": 24937,
  "PVL</w>": 29023,
  "PVN</w>": 17027,
  "PVP</w>": 17302,
  "PVR</w>": 17536,
  "PVT</w>": 30278,
  "PVs</w>": 27560,
  "PW": 11394,
  "PW</w>": 25113,
  "PWID</w>": 33695,
  "PWM</w>": 32311,
  "PWS</w>": 25621,
  "PWV</w>": 16647,
  "PX": 29724,
  "PX</w>": 27375,
  "PY": 15584,
  "PY</w>": 21628,
  "PYY</w>": 31522,
  "PZ": 24922,
  "Pa": 7761,
  "Pa</w>": 16671,
  "PaCO2</w>": 21800,
  "PaO2</w>": 18084,
  "Pac": 12864,
  "Pacific</w>": 9666,
  "Paclitaxel</w>": 32660,
  "Paediatric</w>": 25080,
  "Pag": 37998,
  "Paget</w>": 22217,
  "Pain</w>": 5353,
  "Paired</w>": 22344,
  "Pak": 37382,
  "Pakist": 34643,
  "Pakistan</w>": 14115,
  "Pal": 8116,
  "Pall": 32114,
  "Palli": 38443,
  "Palliative</w>": 22539,
  "Pan": 9526,
  "Pan</w>": 29689,
  "Pancre": 20650,
  "Pancreatic</w>": 11203,
  "Panel</w>": 18006,
  "Pap": 11827,
  "Pap</w>": 18051,
  "Papanicol": 40034,
  "Papanicolaou</w>": 30625,
  "Papill": 34452,
  "Papillary</w>": 33881,
  "Par": 3587,
  "Para": 31515,
  "Parac": 28562,
  "Paradox": 30273,
  "Parallel</w>": 21932,
  "Parameters</w>": 16516,
  "Paras": 21277,
  "Parathyro": 39210,
  "Parathyroid</w>": 34512,
  "Paren": 21445,
  "Parent</w>": 23417,
  "Parental</w>": 19067,
  "Parents</w>": 12302,
  "Paris</w>": 24258,
  "Park</w>": 22077,
  "Parkin": 40013,
  "Parkinson": 27991,
  "Parkinson</w>": 3438,
  "Paro": 30908,
  "Part": 20244,
  "Part</w>": 7150,
  "Parti": 27822,
  "Partial</w>": 10128,
  "Partic": 34219,
  "Particip": 30716,
  "Participants</w>": 2675,
  "Participation</w>": 21595,
  "Particle</w>": 24757,
  "Particular</w>": 25686,
  "Particularly</w>": 19553,
  "Pase</w>": 13427,
  "Passive</w>": 24585,
  "Past</w>": 25060,
  "Paste": 35930,
  "Pasteurella</w>": 28213,
  "Pat": 13570,
  "Patch</w>": 34408,
  "Path": 9559,
  "Path</w>": 34866,
  "Pathogenesis</w>": 24906,
  "Pathogenic</w>": 29712,
  "Pathologic</w>": 24993,
  "Pathological</w>": 15030,
  "Pathology</w>": 15018,
  "Pathway</w>": 13665,
  "Pathways</w>": 21119,
  "Pati": 37788,
  "Patient</w>": 2974,
  "Patients</w>": 565,
  "Pattern": 37308,
  "Pattern</w>": 18752,
  "Patterns</w>": 11359,
  "Pau": 33248,
  "Paulo</w>": 20429,
  "Pav": 31660,
  "Pax": 23355,
  "Pb": 12622,
  "Pb</w>": 5432,
  "Pc": 25635,
  "Pc</w>": 20697,
  "Pd": 19712,
  "Pd</w>": 9438,
  "Pe": 7960,
  "Peak</w>": 12292,
  "Pear": 36044,
  "Pearson</w>": 9132,
  "Pec": 29135,
  "Ped": 28916,
  "Pedi": 28925,
  "Pediatric</w>": 6702,
  "Pediatrics</w>": 32237,
  "Peer</w>": 27606,
  "Pel": 22545,
  "Pelvic</w>": 20237,
  "Pen": 11977,
  "Pene": 27940,
  "Penicil": 39265,
  "Penicillium</w>": 21132,
  "Peninsula</w>": 33641,
  "Penn": 38243,
  "Pennsylvan": 40201,
  "Pennsylvania</w>": 27837,
  "Pent": 17550,
  "People</w>": 9254,
  "Pep": 20396,
  "Peptide</w>": 13649,
  "Peptides</w>": 23868,
  "Per": 3246,
  "Per</w>": 34049,
  "Perc": 23790,
  "Perceived</w>": 15202,
  "Percent": 37560,
  "Percentage</w>": 31848,
  "Percep": 35332,
  "Perception</w>": 21209,
  "Perceptions</w>": 22999,
  "Percoll</w>": 31429,
  "Percutaneous</w>": 10567,
  "Perfor": 30219,
  "Perform": 38059,
  "Performance</w>": 6367,
  "Perfusion</w>": 23066,
  "Peri": 11459,
  "Perin": 36504,
  "Perinatal</w>": 22576,
  "Period": 39248,
  "Period</w>": 30433,
  "Periodic": 39216,
  "Periodic</w>": 32076,
  "Periodicals</w>": 17314,
  "Periodontal</w>": 27844,
  "Perioperative</w>": 17444,
  "Periph": 38593,
  "Peripheral</w>": 8359,
  "Peritoneal</w>": 21809,
  "Perman": 37045,
  "Permanent</w>": 34227,
  "Perme": 31234,
  "Perox": 28224,
  "Pers": 39744,
  "Persian</w>": 29538,
  "Persistence</w>": 30412,
  "Persistent</w>": 14778,
  "Person": 27912,
  "Personal</w>": 18758,
  "Personality</w>": 16095,
  "Persons</w>": 22541,
  "Perspective</w>": 21329,
  "Perspectives</w>": 22676,
  "Peru</w>": 24086,
  "Pes": 32322,
  "Pet": 30880,
  "Peyer</w>": 32652,
  "Pf": 13639,
  "Pg": 23835,
  "Pgp</w>": 27532,
  "Ph": 3601,
  "Ph</w>": 14385,
  "Pha": 25525,
  "Phag": 32177,
  "Pharmac": 7737,
  "Pharmaceutical</w>": 25574,
  "Pharmaco": 37649,
  "Pharmacokinetic</w>": 17805,
  "Pharmacokinetics</w>": 16916,
  "Pharmacological</w>": 14029,
  "Pharmacy</w>": 27270,
  "Phase": 39916,
  "Phase</w>": 5212,
  "Phaseolus</w>": 32452,
  "Phe": 14158,
  "Phe</w>": 7720,
  "Phen": 9440,
  "Phenotype</w>": 32232,
  "Phenotypic</w>": 20045,
  "Phenyl": 31635,
  "Phil": 25998,
  "Philadelphia</w>": 21631,
  "Philipp": 37923,
  "Philippines</w>": 28281,
  "Pho": 17497,
  "Phosph": 7063,
  "Phosphate</w>": 28408,
  "Phosphorylation</w>": 16445,
  "Phot": 6788,
  "Photo": 11124,
  "Photodynamic</w>": 30353,
  "Phy": 12038,
  "Phyl": 26985,
  "Phylogenetic</w>": 11417,
  "Phys</w>": 21716,
  "Physi": 11897,
  "Physical</w>": 5380,
  "Physician</w>": 18915,
  "Physicians</w>": 10587,
  "Physiol</w>": 31856,
  "Physiological</w>": 14438,
  "Physiology</w>": 25974,
  "Phyto": 20182,
  "Phytoph": 40566,
  "Phytophthora</w>": 34380,
  "Pi": 8690,
  "Pi</w>": 8675,
  "Pic": 16572,
  "Pichia</w>": 27682,
  "Pick</w>": 33233,
  "Pig": 20828,
  "Pigs</w>": 31302,
  "Pil": 23109,
  "Pilot</w>": 15852,
  "Pin": 19676,
  "Pinus</w>": 29959,
  "Pip": 27250,
  "Pis": 28493,
  "Pit": 22374,
  "Pitts": 39870,
  "Pittsburgh</w>": 27471,
  "Pituitary</w>": 24439,
  "Pl": 4752,
  "Pla": 37224,
  "Plac": 22108,
  "Placebo</w>": 28414,
  "Placement</w>": 34204,
  "Placental</w>": 27245,
  "Plain</w>": 30938,
  "Plan": 32687,
  "Plan</w>": 23691,
  "Planning</w>": 23784,
  "Plant</w>": 9614,
  "Plants</w>": 16578,
  "Plaque</w>": 30102,
  "Plas": 10861,
  "Plasma</w>": 3145,
  "Plasmid</w>": 31499,
  "Plasmodium</w>": 7077,
  "Plastic</w>": 30140,
  "Plat": 29194,
  "Plateau</w>": 31561,
  "Platel": 39612,
  "Platelet</w>": 9979,
  "Platelets</w>": 30944,
  "Platform</w>": 28989,
  "Ple": 18726,
  "Pleist": 40171,
  "Pleistocene</w>": 32957,
  "Pleural</w>": 34943,
  "Plus</w>": 15292,
  "Pneum": 17352,
  "Pneumocystis</w>": 20866,
  "Pneumonia</w>": 29363,
  "Po": 8306,
  "Po</w>": 27555,
  "Pod": 28756,
  "Point</w>": 16780,
  "Pois": 36103,
  "Poisson</w>": 12194,
  "Pol": 6945,
  "Pol</w>": 17943,
  "Poland</w>": 13187,
  "Polic": 35112,
  "Policy</w>": 20140,
  "Polish</w>": 18382,
  "Poly": 4128,
  "Poly</w>": 12630,
  "Polym": 16762,
  "Polymer</w>": 19936,
  "Polymerase</w>": 19338,
  "Polymorph": 35162,
  "Polymorphism</w>": 26322,
  "Polymorphisms</w>": 23286,
  "Polyp": 34101,
  "Polys": 27599,
  "Pom": 31283,
  "Pon": 32172,
  "Pooled</w>": 21658,
  "Poor</w>": 13632,
  "Pop": 22558,
  "Population</w>": 7173,
  "Populations</w>": 26617,
  "Por": 11887,
  "Porcine</w>": 24476,
  "Porous</w>": 30145,
  "Porph": 37067,
  "Porphyro": 39979,
  "Porphyromonas</w>": 27738,
  "Port</w>": 34163,
  "Portal</w>": 25410,
  "Portu": 40406,
  "Portugal</w>": 23297,
  "Portugu": 40223,
  "Portuguese</w>": 20036,
  "Pos": 16038,
  "Posi": 25738,
  "Position</w>": 32705,
  "Positive</w>": 6698,
  "Positron</w>": 27794,
  "Possible</w>": 8075,
  "Post": 6594,
  "Post</w>": 5517,
  "Posterior</w>": 15445,
  "Postnatal</w>": 25205,
  "Postoperative</w>": 6130,
  "Postoperatively</w>": 20310,
  "Postpartum</w>": 32228,
  "Posttraumatic</w>": 30700,
  "Pot": 14746,
  "Potassium</w>": 25937,
  "Potent</w>": 33495,
  "Potenti": 23367,
  "Potential</w>": 6065,
  "Pow": 21876,
  "Power</w>": 17758,
  "Pp": 26511,
  "Pr": 3903,
  "Pr</w>": 21118,
  "PrEP</w>": 16869,
  "PrP</w>": 14207,
  "Practi": 37037,
  "Practical</w>": 21332,
  "Practice</w>": 9707,
  "Practices</w>": 23906,
  "Practition": 37118,
  "Practitioners</w>": 31679,
  "Pre": 3157,
  "Pre-</w>": 24698,
  "Pre</w>": 7472,
  "Prec": 28567,
  "Precise</w>": 30901,
  "Precision</w>": 25949,
  "Preclinical</w>": 21337,
  "Predic": 14544,
  "Predict</w>": 30316,
  "Predicting</w>": 15425,
  "Prediction</w>": 11801,
  "Predictive</w>": 16034,
  "Predictors</w>": 12355,
  "Preferred</w>": 29214,
  "Pregn": 36774,
  "Pregnancy</w>": 10649,
  "Pregnant</w>": 18244,
  "Preincubation</w>": 30415,
  "Prelim": 40004,
  "Preliminary</w>": 7756,
  "Premature</w>": 29684,
  "Pren": 37377,
  "Prenatal</w>": 14422,
  "Preoperative</w>": 7558,
  "Prepar": 31319,
  "Preparation</w>": 12609,
  "Pres": 8562,
  "Prescrip": 38257,
  "Prescription</w>": 31692,
  "Presence</w>": 13728,
  "Present</w>": 18194,
  "Presentation</w>": 19203,
  "Presenting</w>": 26153,
  "Preservation</w>": 33716,
  "Press": 38805,
  "Press</w>": 27859,
  "Pressure</w>": 10994,
  "Preterm</w>": 24727,
  "Pretreatment</w>": 8792,
  "Prev": 31895,
  "Prevalence</w>": 5290,
  "Preventing</w>": 32065,
  "Prevention</w>": 6493,
  "Preventive</w>": 21247,
  "Previous</w>": 2994,
  "Previously</w>": 8566,
  "Pri": 14242,
  "Prim": 11584,
  "Primary</w>": 2930,
  "Princ": 36989,
  "Princi": 37482,
  "Principal</w>": 19960,
  "Principles</w>": 31008,
  "Prior</w>": 8816,
  "Pro": 1907,
  "Pro</w>": 6968,
  "Prob": 18677,
  "Probe</w>": 30095,
  "Probing</w>": 30945,
  "Probl": 38286,
  "Problem</w>": 25549,
  "Problems</w>": 16122,
  "Proc": 36055,
  "Proc</w>": 26602,
  "Proced": 35415,
  "Procedure</w>": 27730,
  "Procedures</w>": 26541,
  "Process": 37114,
  "Process</w>": 16087,
  "Processes</w>": 32026,
  "Processing</w>": 18152,
  "Produc": 23398,
  "Product</w>": 28831,
  "Production</w>": 9561,
  "Products</w>": 21355,
  "Prof": 30974,
  "Profes": 31491,
  "Professional</w>": 21841,
  "Profil": 37805,
  "Profile</w>": 14332,
  "Profiles</w>": 28546,
  "Profiling</w>": 26943,
  "Prog": 36968,
  "Progesterone</w>": 25370,
  "Prognosis</w>": 19041,
  "Prognostic</w>": 9467,
  "Program": 23082,
  "Program</w>": 5741,
  "Programme</w>": 20807,
  "Programs</w>": 26178,
  "Progress</w>": 18562,
  "Progression</w>": 16092,
  "Progressive</w>": 17573,
  "Project</w>": 9463,
  "Prol": 37470,
  "Prolactin</w>": 34717,
  "Prolifer": 28304,
  "Proliferation</w>": 18211,
  "Prolong": 37184,
  "Prolonged</w>": 13781,
  "Prom": 16879,
  "Promo": 38870,
  "Promoter</w>": 33202,
  "Promotes</w>": 27604,
  "Promoting</w>": 27764,
  "Prompt</w>": 31980,
  "Propen": 40301,
  "Propensity</w>": 31666,
  "Proper": 36739,
  "Proper</w>": 25599,
  "Properties</w>": 10125,
  "Prophyl": 35075,
  "Prophylactic</w>": 23674,
  "Propi": 31192,
  "Propo": 39999,
  "Propofol</w>": 32238,
  "Pros": 18532,
  "Prospective</w>": 5276,
  "Prost": 37766,
  "Prostagland": 36905,
  "Prostaglandin</w>": 25088,
  "Prostate</w>": 10175,
  "Prote": 9761,
  "Protease</w>": 34554,
  "Protec": 23841,
  "Protection</w>": 12700,
  "Protective</w>": 14740,
  "Protein</w>": 3465,
  "Proteins</w>": 11903,
  "Proteobacteria</w>": 28076,
  "Proteomic</w>": 25555,
  "Proteus</w>": 20785,
  "Protoc": 35525,
  "Protocol</w>": 16313,
  "Proton</w>": 20382,
  "Prov": 36730,
  "Provid": 19619,
  "Providers</w>": 28734,
  "Providing</w>": 27643,
  "Province</w>": 10356,
  "Proximal</w>": 24477,
  "Ps": 15084,
  "Ps</w>": 1952,
  "PsA</w>": 22486,
  "Pseud": 12287,
  "Pseudo": 27215,
  "Pseudomonas</w>": 4119,
  "Psori": 37330,
  "Psoriasis</w>": 26076,
  "Psy": 37974,
  "Psyc": 37194,
  "PsycINFO</w>": 14271,
  "Psych": 7483,
  "Psychi": 37180,
  "Psychiatric</w>": 13467,
  "Psychiatry</w>": 30490,
  "Psychological</w>": 12754,
  "Psychometric</w>": 30211,
  "Psychosocial</w>": 20780,
  "Pt": 12477,
  "Pt</w>": 7435,
  "Ptd": 34928,
  "PtdIns</w>": 29153,
  "Pter": 33402,
  "Pu": 19147,
  "Pu</w>": 29559,
  "Pub": 37119,
  "PubMed</w>": 4826,
  "Publ": 22259,
  "Public</w>": 8946,
  "Published</w>": 19840,
  "Pubmed</w>": 29690,
  "Puer": 37243,
  "Puerto</w>": 22345,
  "Pugh</w>": 25461,
  "Pul": 17216,
  "Pulmonary</w>": 5921,
  "Pulse</w>": 20546,
  "Pulsed</w>": 31399,
  "Pun": 33157,
  "Pur": 14724,
  "Pure</w>": 24601,
  "Purification</w>": 11901,
  "Purified</w>": 17372,
  "Purkinje</w>": 10673,
  "Purpose</w>": 6790,
  "Put": 24303,
  "Pv": 25172,
  "Px</w>": 22896,
  "Py": 9188,
  "Py</w>": 30918,
  "Pyr": 15831,
  "Pyro": 25760,
  "Q": 1537,
  "Q10</w>": 19574,
  "Q1</w>": 19097,
  "Q</w>": 1421,
  "QA</w>": 17656,
  "QALY</w>": 19190,
  "QALYs</w>": 26565,
  "QC</w>": 18105,
  "QCT</w>": 32146,
  "QD</w>": 18619,
  "QDs</w>": 13012,
  "QI</w>": 12861,
  "QL</w>": 24294,
  "QLQ</w>": 28208,
  "QM</w>": 24304,
  "QOL</w>": 6437,
  "QRS</w>": 11120,
  "QS</w>": 18695,
  "QSAR</w>": 20754,
  "QT</w>": 8858,
  "QTL</w>": 10843,
  "QTLs</w>": 19286,
  "QTc</w>": 16440,
  "QU": 12265,
  "QUES": 27477,
  "QX</w>": 28729,
  "Qo": 36744,
  "QoL</w>": 6876,
  "Qs</w>": 24622,
  "Qu": 4790,
  "Quad": 29324,
  "Qual": 35487,
  "Qualitative</w>": 10133,
  "Quality</w>": 4002,
  "Quanti": 25316,
  "Quantification</w>": 14684,
  "Quantifying</w>": 32445,
  "Quantitation</w>": 29652,
  "Quantitative</w>": 4677,
  "Quantum</w>": 17759,
  "Que": 38485,
  "Quebec</w>": 24424,
  "Queens": 40437,
  "Queensland</w>": 26651,
  "Questionn": 39929,
  "Questionnaire</w>": 4717,
  "Questionnaires</w>": 24682,
  "Questions</w>": 27116,
  "Quin": 24961,
  "R": 269,
  "R-</w>": 21917,
  "R.": 21167,
  "R.</w>": 19514,
  "R0</w>": 21732,
  "R1": 31067,
  "R1</w>": 4580,
  "R2": 32511,
  "R2</w>": 5320,
  "R3</w>": 11546,
  "R4</w>": 30319,
  "R5</w>": 22932,
  "R</w>": 401,
  "RA": 4761,
  "RA</w>": 1714,
  "RAB": 34761,
  "RAD": 14786,
  "RADS</w>": 22759,
  "RAF</w>": 35462,
  "RAGE</w>": 16938,
  "RAI</w>": 34419,
  "RAM</w>": 31500,
  "RAN": 26205,
  "RANKL</w>": 15658,
  "RANTES</w>": 21183,
  "RAP</w>": 22889,
  "RAPD</w>": 22084,
  "RAR": 20030,
  "RAR</w>": 20870,
  "RAS</w>": 9528,
  "RAST</w>": 28680,
  "RATION": 40067,
  "RATION</w>": 38971,
  "RATIONALE</w>": 15747,
  "RAW": 37976,
  "RAW264.7</w>": 27890,
  "RAW</w>": 24352,
  "RB": 7554,
  "RB</w>": 10475,
  "RBC</w>": 7074,
  "RBCs</w>": 13051,
  "RBD</w>": 28109,
  "RBF</w>": 27103,
  "RBP</w>": 24942,
  "RC</w>": 8688,
  "RCA</w>": 21780,
  "RCC</w>": 7549,
  "RCT</w>": 11334,
  "RCTs</w>": 6648,
  "RD": 16137,
  "RD</w>": 7852,
  "RDS</w>": 23025,
  "RDW</w>": 29215,
  "RE": 2630,
  "RE</w>": 7934,
  "RECENT</w>": 13287,
  "RED</w>": 22585,
  "REE</w>": 21533,
  "REF</w>": 33617,
  "REGIST": 38320,
  "REGISTRATION</w>": 8401,
  "RELEV": 40231,
  "RELEVANCE</w>": 11305,
  "REM</w>": 9320,
  "REPORT</w>": 15269,
  "RER</w>": 34143,
  "RES</w>": 18215,
  "RESEARCH</w>": 16499,
  "REST</w>": 33965,
  "RESUL": 38702,
  "RESULT</w>": 12381,
  "RESULTS</w>": 123,
  "RET</w>": 16602,
  "REVI": 35749,
  "REVIEW</w>": 11002,
  "REs</w>": 30340,
  "RF": 6888,
  "RF</w>": 4572,
  "RFA</w>": 15724,
  "RFLP</w>": 11243,
  "RFS</w>": 16330,
  "RG": 12818,
  "RG</w>": 18727,
  "RGC</w>": 27841,
  "RGCs</w>": 26311,
  "RGD</w>": 16266,
  "RH": 30543,
  "RH</w>": 8854,
  "RHD</w>": 31330,
  "RI": 4628,
  "RI</w>": 5608,
  "RIA</w>": 11878,
  "RIF</w>": 24447,
  "RII</w>": 17499,
  "RING</w>": 32370,
  "RIP": 38379,
  "RIP</w>": 30695,
  "RIS</w>": 27958,
  "RK": 18459,
  "RK2</w>": 37565,
  "RK</w>": 33101,
  "RL": 19272,
  "RL</w>": 14644,
  "RLS</w>": 20130,
  "RM": 14426,
  "RM</w>": 11017,
  "RMS</w>": 18131,
  "RN": 5602,
  "RN</w>": 14395,
  "RNA": 14819,
  "RNA</w>": 544,
  "RNAi</w>": 11819,
  "RNAs</w>": 3526,
  "RNFL</w>": 20469,
  "RNP</w>": 15494,
  "RNS</w>": 32420,
  "RNase</w>": 9256,
  "RNs</w>": 27371,
  "RO": 3916,
  "RO</w>": 14869,
  "ROC</w>": 6286,
  "ROCK</w>": 27733,
  "ROD": 37680,
  "ROD</w>": 32104,
  "RODUC": 39302,
  "ROI</w>": 18198,
  "ROIs</w>": 29459,
  "ROM</w>": 11560,
  "ROP</w>": 16947,
  "ROS</w>": 3149,
  "ROU": 36672,
  "RP": 24019,
  "RP</w>": 4658,
  "RPA</w>": 24690,
  "RPE</w>": 8634,
  "RPMI</w>": 34682,
  "RR": 13497,
  "RR</w>": 2681,
  "RRT</w>": 24889,
  "RRs</w>": 28784,
  "RS": 14801,
  "RS</w>": 3772,
  "RSA</w>": 20080,
  "RSD</w>": 21105,
  "RSV</w>": 8305,
  "RT": 6076,
  "RT</w>": 1430,
  "RTA</w>": 34532,
  "RTI</w>": 19670,
  "RTs</w>": 31943,
  "RU": 17462,
  "RU</w>": 20964,
  "RUN": 22266,
  "RV": 7564,
  "RV</w>": 6150,
  "RXR</w>": 25657,
  "RY": 26486,
  "RYGB</w>": 26776,
  "Ra": 10168,
  "Ra</w>": 16310,
  "Rab": 11413,
  "Rabbit</w>": 25879,
  "Rabbits</w>": 33954,
  "Rac": 28751,
  "Rac1</w>": 19259,
  "Rac</w>": 26867,
  "Race</w>": 33625,
  "Racial</w>": 28836,
  "Rad": 14352,
  "Radi": 7686,
  "Radial</w>": 30960,
  "Radiation</w>": 9079,
  "Radical</w>": 18947,
  "Radio": 15786,
  "Radiofrequency</w>": 32042,
  "Radiographic</w>": 19350,
  "Radiographs</w>": 34429,
  "Radiological</w>": 21134,
  "Radiology</w>": 25495,
  "Radiotherapy</w>": 17739,
  "Radix</w>": 27508,
  "Raf</w>": 16258,
  "Ral": 28048,
  "Ram": 16113,
  "Raman</w>": 5870,
  "Ran": 18509,
  "Rana</w>": 24505,
  "Rand": 37607,
  "Random": 35333,
  "Random</w>": 17114,
  "Randomised</w>": 23810,
  "Randomized</w>": 6914,
  "Range</w>": 26469,
  "Rank": 39138,
  "Rankin</w>": 26858,
  "Rap": 13507,
  "Rapid</w>": 6739,
  "Rare</w>": 14103,
  "Ras": 18018,
  "Ras</w>": 7817,
  "Rat</w>": 9859,
  "Rate</w>": 13675,
  "Rates</w>": 11580,
  "Rather</w>": 15479,
  "Rati": 35362,
  "Rating</w>": 9629,
  "Ratio</w>": 17034,
  "Rats</w>": 5895,
  "Raw</w>": 34718,
  "Ray": 30012,
  "Rayn": 40170,
  "Raynaud</w>": 26958,
  "Rb": 31353,
  "Rb</w>": 10042,
  "Re": 1719,
  "Re</w>": 11854,
  "Reaction</w>": 11881,
  "Reactions</w>": 21302,
  "Reactive</w>": 15448,
  "Reactivity</w>": 29910,
  "Read": 33466,
  "Reading</w>": 29812,
  "Real</w>": 9063,
  "Reas": 36837,
  "Reasons</w>": 24114,
  "Rec": 7433,
  "RecA</w>": 28709,
  "Recei": 35394,
  "Receiver</w>": 19425,
  "Recent</w>": 1904,
  "Recently</w>": 3224,
  "Receptor</w>": 8848,
  "Receptors</w>": 25194,
  "Reci": 32858,
  "Recipients</w>": 34515,
  "Recogn": 30620,
  "Recognition</w>": 13567,
  "Recom": 39707,
  "Recombin": 34598,
  "Recombinant</w>": 10696,
  "Recomm": 36176,
  "Recommend": 37672,
  "Recommendations</w>": 12903,
  "Recon": 18965,
  "Reconstruction</w>": 13908,
  "Recor": 25155,
  "Record</w>": 16645,
  "Records</w>": 23047,
  "Recover": 36264,
  "Recovery</w>": 10660,
  "Recru": 38030,
  "Recruitment</w>": 28510,
  "Rectal</w>": 24454,
  "Recur": 36207,
  "Recurrence</w>": 16430,
[...]
