{
  "version": "1.0",
  "truncation": null,
  "padding": null,
  "added_tokens": [
    {
      "id": 0,
      "content": "[PAD]",
      "single_word": false,
      "lstrip": false,
      "rstrip": false,
      "normalized": false,
      "special": true
    },
    {
      "id": 1,
      "content": "[UNK]",
      "single_word": false,
      "lstrip": false,
      "rstrip": false,
      "normalized": false,
      "special": true
    },
    {
      "id": 2,
      "content": "[CLS]",
      "single_word": false,
      "lstrip": false,
      "rstrip": false,
      "normalized": false,
      "special": true
    },
    {
      "id": 3,
      "content": "[SEP]",
      "single_word": false,
      "lstrip": false,
      "rstrip": false,
      "normalized": false,
      "special": true
    },
    {
      "id": 4,
      "content": "[MASK]",
      "single_word": false,
      "lstrip": false,
      "rstrip": false,
      "normalized": false,
      "special": true
    }
  ],
  "normalizer": {
    "type": "BertNormalizer",
    "clean_text": true,
    "handle_chinese_chars": true,
    "strip_accents": null,
    "lowercase": true
  },
  "pre_tokenizer": {
    "type": "BertPreTokenizer"
  },
  "post_processor": {
    "type": "TemplateProcessing",
    "single": [
      {
        "SpecialToken": {
          "id": "[CLS]",
          "type_id": 0
        }
      },
      {
        "Sequence": {
          "id": "A",
          "type_id": 0
        }
      },
      {
        "SpecialToken": {
          "id": "[SEP]",
          "type_id": 0
        }
      }
    ],
    "pair": [
      {
        "SpecialToken": {
          "id": "[CLS]",
          "type_id": 0
        }
      },
      {
        "Sequence": {
          "id": "A",
          "type_id": 0
        }
      },
      {
        "SpecialToken": {
          "id": "[SEP]",
          "type_id": 0
        }
      },
      {
        "Sequence": {
          "id": "B",
          "type_id": 1
        }
      },
      {
        "SpecialToken": {
          "id": "[SEP]",
          "type_id": 1
        }
      }
    ],
    "special_tokens": {
      "[CLS]": {
        "id": "[CLS]",
        "ids": [
          2
        ],
        "tokens": [
          "[CLS]"
        ]
      },
      "[SEP]": {
        "id": "[SEP]",
        "ids": [
          3
        ],
        "tokens": [
          "[SEP]"
        ]
      }
    }
  },
  "decoder": {
    "type": "WordPiece",
    "prefix": "##",
    "cleanup": true
  },
  "model": {
    "type": "WordPiece",
    "unk_token": "[UNK]",
    "continuing_subword_prefix": "##",
    "max_input_chars_per_word": 100,
    "vocab": {
      "[PAD]": 0,
      "[UNK]": 1,
      "[CLS]": 2,
      "[SEP]": 3,
      "[MASK]": 4,
      "!": 5,
      "\"": 6,
      "#": 7,
      "$": 8,
      "%": 9,
      "&": 10,
      "'": 11,
      "(": 12,
      ")": 13,
      "*": 14,
      "+": 15,
      ",": 16,
      "-": 17,
      ".": 18,
      "/": 19,
      "0": 20,
      "1": 21,
      "2": 22,
      "3": 23,
      "4": 24,
      "5": 25,
      "6": 26,
      "7": 27,
      "8": 28,
      "9": 29,
      ":": 30,
      ";": 31,
      "<": 32,
      "=": 33,
      ">": 34,
      "?": 35,
      "@": 36,
      "[": 37,
      "\\": 38,
      "]": 39,
      "^": 40,
      "_": 41,
      "`": 42,
      "a": 43,
      "b": 44,
      "c": 45,
      "d": 46,
      "e": 47,
      "f": 48,
      "g": 49,
      "h": 50,
      "i": 51,
      "j": 52,
      "k": 53,
      "l": 54,
      "m": 55,
      "n": 56,
      "o": 57,
      "p": 58,
      "q": 59,
      "r": 60,
      "s": 61,
      "t": 62,
      "u": 63,
      "v": 64,
      "w": 65,
      "x": 66,
      "y": 67,
      "z": 68,
      "{": 69,
      "|": 70,
      "}": 71,
      "~": 72,
      "": 73,
      "¡": 74,
      "¢": 75,
      "£": 76,
      "¤": 77,
      "¥": 78,
      "¦": 79,
      "§": 80,
      "¨": 81,
      "©": 82,
      "ª": 83,
      "«": 84,
      "¬": 85,
      "­": 86,
      "®": 87,
      "¯": 88,
      "°": 89,
      "±": 90,
      "²": 91,
      "³": 92,
      "´": 93,
      "µ": 94,
      "¶": 95,
      "·": 96,
      "¸": 97,
      "¹": 98,
      "º": 99,
      "»": 100,
      "¼": 101,
      "½": 102,
      "¾": 103,
      "¿": 104,
      "×": 105,
      "ß": 106,
      "æ": 107,
      "ð": 108,
      "÷": 109,
      "ø": 110,
      "þ": 111,
      "đ": 112,
      "ħ": 113,
      "ı": 114,
      "ĸ": 115,
      "ł": 116,
      "ŋ": 117,
      "œ": 118,
      "ƒ": 119,
      "ƙ": 120,
      "ƞ": 121,
      "ǀ": 122,
      "ǁ": 123,
      "ǂ": 124,
      "ɑ": 125,
      "ɔ": 126,
      "ə": 127,
      "ɛ": 128,
      "ɣ": 129,
      "ɤ": 130,
      "ɪ": 131,
      "ɳ": 132,
      "ɵ": 133,
      "ɸ": 134,
      "ɹ": 135,
      "ʃ": 136,
      "ʊ": 137,
      "ʋ": 138,
      "ʌ": 139,
      "ʟ": 140,
      "ʹ": 141,
      "ʺ": 142,
      "ʻ": 143,
      "ʼ": 144,
      "˂": 145,
      "˃": 146,
      "ˆ": 147,
      "ˇ": 148,
      "ˈ": 149,
      "ˉ": 150,
      "ˊ": 151,
      "ː": 152,
      "˗": 153,
      "˘": 154,
      "˙": 155,
      "˚": 156,
      "˜": 157,
      "˝": 158,
      "΄": 159,
      "α": 160,
      "β": 161,
      "γ": 162,
      "δ": 163,
      "ε": 164,
      "ζ": 165,
      "η": 166,
      "θ": 167,
      "ι": 168,
      "κ": 169,
      "λ": 170,
      "μ": 171,
      "ν": 172,
      "ξ": 173,
      "ο": 174,
      "π": 175,
      "ρ": 176,
      "ς": 177,
      "σ": 178,
      "τ": 179,
      "υ": 180,
      "φ": 181,
      "χ": 182,
      "ψ": 183,
      "ω": 184,
      "ϐ": 185,
      "ϑ": 186,
      "ϒ": 187,
      "ϕ": 188,
      "ϖ": 189,
      "ϰ": 190,
      "ϱ": 191,
      "ϵ": 192,
      "а": 193,
      "б": 194,
      "в": 195,
      "г": 196,
      "д": 197,
      "е": 198,
      "и": 199,
      "к": 200,
      "л": 201,
      "м": 202,
      "н": 203,
      "о": 204,
      "п": 205,
      "р": 206,
      "с": 207,
      "т": 208,
      "у": 209,
      "ф": 210,
      "х": 211,
      "ш": 212,
      "є": 213,
      "і": 214,
      "׳": 215,
      "ا": 216,
      "ل": 217,
      "و": 218,
      "ي": 219,
      "ᄋ": 220,
      "ᅟ": 221,
      "​": 222,
      "‍": 223,
      "‎": 224,
      "‏": 225,
      "‐": 226,
      "‑": 227,
      "‒": 228,
      "–": 229,
      "—": 230,
      "―": 231,
      "‖": 232,
      "‘": 233,
      "’": 234,
      "‚": 235,
      "“": 236,
      "”": 237,
      "„": 238,
      "†": 239,
      "‡": 240,
      "•": 241,
      "․": 242,
      "‥": 243,
      "…": 244,
      "‬": 245,
      "‭": 246,
      "‰": 247,
      "′": 248,
      "″": 249,
      "‴": 250,
      "‵": 251,
      "‹": 252,
      "›": 253,
      "※": 254,
      "‾": 255,
      "⁄": 256,
      "⁎": 257,
      "⁠": 258,
      "⁡": 259,
      "⁢": 260,
      "⁰": 261,
      "⁴": 262,
      "⁵": 263,
      "⁶": 264,
      "⁷": 265,
      "⁸": 266,
      "⁹": 267,
      "⁺": 268,
      "⁻": 269,
      "₀": 270,
      "₁": 271,
      "₂": 272,
      "₃": 273,
      "₄": 274,
      "₅": 275,
      "₆": 276,
      "₇": 277,
      "₈": 278,
      "₉": 279,
      "₋": 280,
      "€": 281,
      "₹": 282,
      "ℂ": 283,
      "℃": 284,
      "ℋ": 285,
      "ℏ": 286,
      "ℐ": 287,
      "ℑ": 288,
      "ℒ": 289,
      "ℓ": 290,
      "ℕ": 291,
      "№": 292,
      "℘": 293,
      "ℙ": 294,
      "ℛ": 295,
      "ℜ": 296,
      "ℝ": 297,
      "™": 298,
      "ℤ": 299,
      "ℬ": 300,
      "ℰ": 301,
      "ℱ": 302,
      "ℳ": 303,
      "ℵ": 304,
      "⅓": 305,
      "⅔": 306,
      "ⅰ": 307,
      "ⅱ": 308,
      "ⅲ": 309,
      "ⅳ": 310,
      "ⅴ": 311,
      "←": 312,
      "↑": 313,
      "→": 314,
      "↓": 315,
      "↔": 316,
      "↗": 317,
      "↦": 318,
      "⇀": 319,
      "⇄": 320,
      "⇆": 321,
      "⇌": 322,
      "⇑": 323,
      "⇒": 324,
      "⇓": 325,
      "⇔": 326,
      "⇝": 327,
      "∀": 328,
      "∂": 329,
      "∃": 330,
      "∅": 331,
      "∆": 332,
      "∇": 333,
      "∈": 334,
      "∊": 335,
      "∎": 336,
      "∏": 337,
      "∑": 338,
      "−": 339,
      "∓": 340,
      "∕": 341,
      "∖": 342,
      "∗": 343,
      "∘": 344,
      "∙": 345,
      "√": 346,
      "∝": 347,
      "∞": 348,
      "∠": 349,
      "∣": 350,
      "∥": 351,
      "∧": 352,
      "∨": 353,
      "∩": 354,
      "∪": 355,
      "∫": 356,
      "∬": 357,
      "∮": 358,
      "∴": 359,
      "∶": 360,
      "∷": 361,
      "∸": 362,
      "∼": 363,
      "∽": 364,
      "≃": 365,
      "≅": 366,
      "≈": 367,
      "≍": 368,
      "≔": 369,
      "≙": 370,
      "≜": 371,
      "≡": 372,
      "≤": 373,
      "≥": 374,
      "≦": 375,
      "≧": 376,
      "≪": 377,
      "≫": 378,
      "≲": 379,
      "≳": 380,
      "≺": 381,
      "≻": 382,
      "⊂": 383,
      "⊃": 384,
      "⊆": 385,
      "⊑": 386,
      "⊓": 387,
      "⊔": 388,
      "⊕": 389,
      "⊖": 390,
      "⊗": 391,
      "⊙": 392,
      "⊠": 393,
      "⊢": 394,
      "⊣": 395,
      "⊤": 396,
      "⊥": 397,
      "⊧": 398,
      "⊨": 399,
      "⊺": 400,
      "⊿": 401,
      "⋀": 402,
      "⋁": 403,
      "⋂": 404,
      "⋃": 405,
      "⋄": 406,
      "⋅": 407,
      "⋆": 408,
      "⋮": 409,
      "⋯": 410,
      "⋱": 411,
      "⌈": 412,
      "⌉": 413,
      "⌊": 414,
      "⌋": 415,
      "⌢": 416,
      "⌣": 417,
      "⍺": 418,
      "⏟": 419,
      "①": 420,
      "②": 421,
      "③": 422,
      "④": 423,
      "⑤": 424,
      "⑥": 425,
      "⑦": 426,
      "ⓡ": 427,
      "─": 428,
      "│": 429,
      "┬": 430,
      "┴": 431,
      "═": 432,
      "║": 433,
      "░": 434,
      "▒": 435,
      "■": 436,
      "□": 437,
      "▪": 438,
      "▬": 439,
      "▲": 440,
      "△": 441,
      "▴": 442,
      "▵": 443,
      "▶": 444,
      "▸": 445,
      "►": 446,
      "▼": 447,
      "▽": 448,
      "▾": 449,
      "▿": 450,
      "◆": 451,
      "◇": 452,
      "◊": 453,
      "○": 454,
      "●": 455,
      "◦": 456,
      "◯": 457,
      "◻": 458,
      "★": 459,
      "☆": 460,
      "☐": 461,
      "☑": 462,
      "♀": 463,
      "♂": 464,
      "♣": 465,
      "♦": 466,
      "♯": 467,
      "✓": 468,
      "❖": 469,
      "➔": 470,
      "➢": 471,
      "⟨": 472,
      "⟩": 473,
      "⟶": 474,
      "⧧": 475,
      "⧫": 476,
      "⨁": 477,
      "⩽": 478,
      "⩾": 479,
      "⪯": 480,
      "⪰": 481,
      "⫫": 482,
      "⿿": 483,
      "、": 484,
      "。": 485,
      "〈": 486,
      "〉": 487,
      "〚": 488,
      "〛": 489,
      "・": 490,
      "一": 491,
      "三": 492,
      "上": 493,
      "下": 494,
      "不": 495,
      "与": 496,
      "且": 497,
      "两": 498,
      "个": 499,
      "中": 500,
      "临": 501,
      "为": 502,
      "主": 503,
      "义": 504,
      "之": 505,
      "也": 506,
      "了": 507,
      "二": 508,
      "于": 509,
      "亚": 510,
      "些": 511,
      "亡": 512,
      "产": 513,
      "人": 514,
      "仅": 515,
      "仍": 516,
      "从": 517,
      "他": 518,
      "代": 519,
      "以": 520,
      "们": 521,
      "件": 522,
      "价": 523,
      "优": 524,
      "会": 525,
      "传": 526,
      "估": 527,
      "似": 528,
      "但": 529,
      "位": 530,
      "低": 531,
      "体": 532,
      "作": 533,
      "使": 534,
      "例": 535,
      "供": 536,
      "依": 537,
      "促": 538,
      "信": 539,
      "值": 540,
      "像": 541,
      "克": 542,
      "免": 543,
      "入": 544,
      "全": 545,
      "公": 546,
      "共": 547,
      "关": 548,
      "其": 549,
      "具": 550,
      "养": 551,
      "内": 552,
      "况": 553,
      "准": 554,
      "凋": 555,
      "减": 556,
      "出": 557,
      "分": 558,
      "切": 559,
      "列": 560,
      "则": 561,
      "初": 562,
      "利": 563,
      "别": 564,
      "到": 565,
      "制": 566,
      "剂": 567,
      "前": 568,
      "力": 569,
      "功": 570,
      "加": 571,
      "动": 572,
      "助": 573,
      "包": 574,
      "化": 575,
      "区": 576,
      "医": 577,
      "单": 578,
      "占": 579,
      "即": 580,
      "厄": 581,
      "原": 582,
      "参": 583,
      "及": 584,
      "双": 585,
      "反": 586,
      "发": 587,
      "取": 588,
      "受": 589,
      "变": 590,
      "口": 591,
      "另": 592,
      "可": 593,
      "号": 594,
      "各": 595,
      "合": 596,
      "吉": 597,
      "同": 598,
      "后": 599,
      "向": 600,
      "否": 601,
      "含": 602,
      "吸": 603,
      "周": 604,
      "和": 605,
      "响": 606,
      "唑": 607,
      "善": 608,
      "回": 609,
      "因": 610,
      "国": 611,
      "图": 612,
      "在": 613,
      "地": 614,
      "均": 615,
      "型": 616,
      "域": 617,
      "培": 618,
      "基": 619,
      "增": 620,
      "处": 621,
      "复": 622,
      "外": 623,
      "多": 624,
      "够": 625,
      "大": 626,
      "天": 627,
      "失": 628,
      "女": 629,
      "好": 630,
      "如": 631,
      "子": 632,
      "存": 633,
      "学": 634,
      "它": 635,
      "安": 636,
      "完": 637,
      "定": 638,
      "实": 639,
      "家": 640,
      "密": 641,
      "察": 642,
      "对": 643,
      "导": 644,
      "射": 645,
      "将": 646,
      "小": 647,
      "少": 648,
      "尚": 649,
      "尼": 650,
      "局": 651,
      "展": 652,
      "山": 653,
      "岁": 654,
      "差": 655,
      "已": 656,
      "巴": 657,
      "带": 658,
      "常": 659,
      "干": 660,
      "平": 661,
      "年": 662,
      "并": 663,
      "广": 664,
      "床": 665,
      "序": 666,
      "应": 667,
      "度": 668,
      "延": 669,
      "开": 670,
      "异": 671,
      "式": 672,
      "引": 673,
      "强": 674,
      "当": 675,
      "录": 676,
      "形": 677,
      "影": 678,
      "往": 679,
      "征": 680,
      "径": 681,
      "很": 682,
      "得": 683,
      "微": 684,
      "心": 685,
      "志": 686,
      "态": 687,
      "性": 688,
      "总": 689,
      "恶": 690,
      "患": 691,
      "情": 692,
      "意": 693,
      "感": 694,
      "成": 695,
      "我": 696,
      "或": 697,
      "所": 698,
      "手": 699,
      "扩": 700,
      "技": 701,
      "抑": 702,
      "抗": 703,
      "报": 704,
      "择": 705,
      "括": 706,
      "持": 707,
      "指": 708,
      "据": 709,
      "排": 710,
      "探": 711,
      "接": 712,
      "控": 713,
      "提": 714,
      "支": 715,
      "改": 716,
      "放": 717,
      "效": 718,
      "敏": 719,
      "数": 720,
      "文": 721,
      "断": 722,
      "新": 723,
      "方": 724,
      "族": 725,
      "无": 726,
      "日": 727,
      "早": 728,
      "时": 729,
      "明": 730,
      "是": 731,
      "显": 732,
      "晚": 733,
      "曲": 734,
      "更": 735,
      "替": 736,
      "最": 737,
      "月": 738,
      "有": 739,
      "服": 740,
      "期": 741,
      "未": 742,
      "本": 743,
      "术": 744,
      "机": 745,
      "来": 746,
      "构": 747,
      "析": 748,
      "果": 749,
      "染": 750,
      "查": 751,
      "标": 752,
      "样": 753,
      "核": 754,
      "根": 755,
      "案": 756,
      "检": 757,
      "模": 758,
      "次": 759,
      "正": 760,
      "此": 761,
      "步": 762,
      "死": 763,
      "殖": 764,
      "段": 765,
      "每": 766,
      "毒": 767,
      "比": 768,
      "氨": 769,
      "水": 770,
      "没": 771,
      "治": 772,
      "法": 773,
      "注": 774,
      "洛": 775,
      "活": 776,
      "测": 777,
      "液": 778,
      "淋": 779,
      "清": 780,
      "游": 781,
      "源": 782,
      "激": 783,
      "灶": 784,
      "点": 785,
      "烟": 786,
      "然": 787,
      "照": 788,
      "片": 789,
      "物": 790,
      "特": 791,
      "状": 792,
      "独": 793,
      "率": 794,
      "环": 795,
      "现": 796,
      "珠": 797,
      "理": 798,
      "生": 799,
      "用": 800,
      "由": 801,
      "甲": 802,
      "疗": 803,
      "疫": 804,
      "疾": 805,
      "病": 806,
      "症": 807,
      "瘤": 808,
      "癌": 809,
      "白": 810,
      "的": 811,
      "皮": 812,
      "益": 813,
      "目": 814,
      "直": 815,
      "相": 816,
      "着": 817,
      "研": 818,
      "确": 819,
      "磷": 820,
      "示": 821,
      "神": 822,
      "种": 823,
      "科": 824,
      "积": 825,
      "移": 826,
      "程": 827,
      "究": 828,
      "突": 829,
      "立": 830,
      "第": 831,
      "等": 832,
      "管": 833,
      "类": 834,
      "系": 835,
      "素": 836,
      "索": 837,
      "约": 838,
      "级": 839,
      "线": 840,
      "组": 841,
      "细": 842,
      "织": 843,
      "经": 844,
      "结": 845,
      "给": 846,
      "统": 847,
      "继": 848,
      "续": 849,
      "维": 850,
      "综": 851,
      "缓": 852,
      "缺": 853,
      "美": 854,
      "群": 855,
      "者": 856,
      "而": 857,
      "耐": 858,
      "联": 859,
      "肝": 860,
      "肺": 861,
      "肿": 862,
      "胞": 863,
      "胸": 864,
      "能": 865,
      "脑": 866,
      "腺": 867,
      "膜": 868,
      "自": 869,
      "至": 870,
      "致": 871,
      "良": 872,
      "色": 873,
      "节": 874,
      "药": 875,
      "获": 876,
      "著": 877,
      "蛋": 878,
      "融": 879,
      "血": 880,
      "行": 881,
      "表": 882,
      "被": 883,
      "西": 884,
      "要": 885,
      "见": 886,
      "观": 887,
      "解": 888,
      "计": 889,
      "认": 890,
      "论": 891,
      "证": 892,
      "评": 893,
      "诊": 894,
      "试": 895,
      "该": 896,
      "诱": 897,
      "调": 898,
      "贝": 899,
      "质": 900,
      "赛": 901,
      "起": 902,
      "越": 903,
      "路": 904,
      "转": 905,
      "较": 906,
      "达": 907,
      "过": 908,
      "近": 909,
      "还": 910,
      "这": 911,
      "进": 912,
      "述": 913,
      "选": 914,
      "通": 915,
      "道": 916,
      "部": 917,
      "都": 918,
      "配": 919,
      "酪": 920,
      "酶": 921,
      "酸": 922,
      "醇": 923,
      "采": 924,
      "重": 925,
      "野": 926,
      "量": 927,
      "针": 928,
      "铂": 929,
      "长": 930,
      "间": 931,
      "阳": 932,
      "阴": 933,
      "阻": 934,
      "降": 935,
      "限": 936,
      "院": 937,
      "除": 938,
      "随": 939,
      "集": 940,
      "需": 941,
      "非": 942,
      "面": 943,
      "靶": 944,
      "项": 945,
      "顺": 946,
      "预": 947,
      "首": 948,
      "驱": 949,
      "验": 950,
      "高": 951,
      "鳞": 952,
      "鼠": 953,
      "龄": 954,
      "ꞌ": 955,
      "": 956,
      "ﬀ": 957,
      "ﬁ": 958,
      "ﬂ": 959,
      "ﬄ": 960,
      "︷": 961,
      "︸": 962,
      "﻿": 963,
      "（": 964,
      "）": 965,
      "＋": 966,
      "，": 967,
      "－": 968,
      "：": 969,
      "；": 970,
      "＜": 971,
      "＝": 972,
      "＞": 973,
      "［": 974,
      "］": 975,
      "～": 976,
      "�": 977,
      "𝐫": 978,
      "𝐱": 979,
      "𝒜": 980,
      "𝒞": 981,
      "𝒟": 982,
      "𝒢": 983,
      "𝒥": 984,
      "𝒦": 985,
      "𝒩": 986,
      "𝒪": 987,
      "𝒫": 988,
      "𝒬": 989,
      "𝒮": 990,
      "𝒯": 991,
      "𝒰": 992,
      "𝒱": 993,
      "𝒲": 994,
      "𝒳": 995,
      "𝒴": 996,
      "𝒵": 997,
      "𝔼": 998,
      "𝕀": 999,
      "𝕊": 1000,
      "𝜀": 1001,
      "𝜃": 1002,
      "𝜖": 1003,
      "𝟙": 1004,
      "##r": 1005,
      "##4": 1006,
      "##d": 1007,
      "##0": 1008,
      "##1": 1009,
      "##3": 1010,
      "##z": 1011,
      "##y": 1012,
      "##j": 1013,
      "##b": 1014,
      "##5": 1015,
      "##6": 1016,
      "##∗": 1017,
      "##w": 1018,
      "##a": 1019,
      "##v": 1020,
      "##e": 1021,
      "##n": 1022,
      "##h": 1023,
      "##l": 1024,
      "##8": 1025,
      "##9": 1026,
      "##7": 1027,
      "##2": 1028,
      "##g": 1029,
      "##c": 1030,
      "##t": 1031,
      "##u": 1032,
      "##i": 1033,
      "##p": 1034,
      "##m": 1035,
      "##s": 1036,
      "##o": 1037,
      "##f": 1038,
      "##x": 1039,
      "##k": 1040,
      "##×": 1041,
      "##μ": 1042,
      "##≪": 1043,
      "##δ": 1044,
      "##⊆": 1045,
      "##γ": 1046,
      "##∑": 1047,
      "##≤": 1048,
      "##∣": 1049,
      "##λ": 1050,
      "##φ": 1051,
      "##⊥": 1052,
      "##⋅": 1053,
      "##∘": 1054,
      "##q": 1055,
      "##˜": 1056,
      "##∼": 1057,
      "##ϕ": 1058,
      "##θ": 1059,
      "##−": 1060,
      "##ß": 1061,
      "##™": 1062,
      "##и": 1063,
      "##а": 1064,
      "##м": 1065,
      "##е": 1066,
      "##т": 1067,
      "##р": 1068,
      "##∙": 1069,
      "##≈": 1070,
      "##α": 1071,
      "##↑": 1072,
      "##∆": 1073,
      "##↓": 1074,
      "##ζ": 1075,
      "##®": 1076,
      "##´": 1077,
      "##⋯": 1078,
      "##⁻": 1079,
      "##°": 1080,
      "##ρ": 1081,
      "##→": 1082,
      "##ø": 1083,
      "##⌣": 1084,
      "##∞": 1085,
      "##的": 1086,
      "##替": 1087,
      "##代": 1088,
      "##或": 1089,
      "##助": 1090,
      "##作": 1091,
      "##用": 1092,
      "##ω": 1093,
      "##∫": 1094,
      "##σ": 1095,
      "##∇": 1096,
      "##ψ": 1097,
      "##∕": 1098,
      "##τ": 1099,
      "##±": 1100,
      "##π": 1101,
      "##⟶": 1102,
      "##∷": 1103,
      "##∈": 1104,
      "##∩": 1105,
      "##≥": 1106,
      "##∶": 1107,
      "##ν": 1108,
      "##­": 1109,
      "##β": 1110,
      "##⊂": 1111,
      "##ℤ": 1112,
      "##κ": 1113,
      "##ا": 1114,
      "##⁡": 1115,
      "##例": 1116,
      "##∏": 1117,
      "##©": 1118,
      "##⪰": 1119,
      "##⇔": 1120,
      "##​": 1121,
      "##⁢": 1122,
      "##ˆ": 1123,
      "##ι": 1124,
      "##₅": 1125,
      "##º": 1126,
      "##内": 1127,
      "##缺": 1128,
      "##失": 1129,
      "##可": 1130,
      "##导": 1131,
      "##致": 1132,
      "##血": 1133,
      "##░": 1134,
      "##∂": 1135,
      "##⊤": 1136,
      "##由": 1137,
      "##减": 1138,
      "##组": 1139,
      "##织": 1140,
      "##所": 1141,
      "##ε": 1142,
      "##¯": 1143,
      "##群": 1144,
      "##细": 1145,
      "##胞": 1146,
      "##具": 1147,
      "##很": 1148,
      "##强": 1149,
      "##自": 1150,
      "##我": 1151,
      "##更": 1152,
      "##新": 1153,
      "##能": 1154,
      "##力": 1155,
      "##过": 1156,
      "##抑": 1157,
      "##制": 1158,
      "##肿": 1159,
      "##瘤": 1160,
      "##免": 1161,
      "##疫": 1162,
      "##和": 1163,
      "##别": 1164,
      "##∥": 1165,
      "##如": 1166,
      "##ℳ": 1167,
      "##▲": 1168,
      "##⋮": 1169,
      "##⩽": 1170,
      "##ı": 1171,
      "##研": 1172,
      "##究": 1173,
      "##通": 1174,
      "##临": 1175,
      "##床": 1176,
      "##观": 1177,
      "##察": 1178,
      "##复": 1179,
      "##治": 1180,
      "##ⅲ": 1181,
      "##期": 1182,
      "##ⅳ": 1183,
      "##肺": 1184,
      "##腺": 1185,
      "##癌": 1186,
      "##患": 1187,
      "##者": 1188,
      "##²": 1189,
      "##ξ": 1190,
      "##≡": 1191,
      "##后": 1192,
      "##化": 1193,
      "##疗": 1194,
      "##及": 1195,
      "##靶": 1196,
      "##向": 1197,
      "##药": 1198,
      "##物": 1199,
      "##⇀": 1200,
      "##ϑ": 1201,
      "##现": 1202,
      "##检": 1203,
      "##测": 1204,
      "##下": 1205,
      "##限": 1206,
      "##是": 1207,
      "##中": 1208,
      "##表": 1209,
      "##达": 1210,
      "##上": 1211,
      "##←": 1212,
      "##½": 1213,
      "##ł": 1214,
      "##χ": 1215,
      "##³": 1216,
      "##¨": 1217,
      "##○": 1218,
      "##υ": 1219,
      "##神": 1220,
      "##经": 1221,
      "##𝒞": 1222,
      "##↦": 1223,
      "##结": 1224,
      "##合": 1225,
      "##阻": 1226,
      "##与": 1227,
      "##其": 1228,
      "##配": 1229,
      "##体": 1230,
      "##ℓ": 1231,
      "##够": 1232,
      "##获": 1233,
      "##得": 1234,
      "##基": 1235,
      "##因": 1236,
      "##突": 1237,
      "##变": 1238,
      "##标": 1239,
      "##本": 1240,
      "##仅": 1241,
      "##约": 1242,
      "##⋆": 1243,
      "##激": 1244,
      "##酶": 1245,
      "##路": 1246,
      "##─": 1247,
      "##η": 1248,
      "##ϵ": 1249,
      "##号": 1250,
      "##外": 1251,
      "##显": 1252,
      "##子": 1253,
      "##型": 1254,
      "##为": 1255,
      "##⏟": 1256,
      "##⩾": 1257,
      "##技": 1258,
      "##术": 1259,
      "##单": 1260,
      "##准": 1261,
      "##确": 1262,
      "##�": 1263,
      "##ʹ": 1264,
      "##⁄": 1265,
      "##к": 1266,
      "##∨": 1267,
      "##⊗": 1268,
      "##段": 1269,
      "##切": 1270,
      "##除": 1271,
      "##被": 1272,
      "##认": 1273,
      "##第": 1274,
      "##一": 1275,
      "##常": 1276,
      "##耐": 1277,
      "##相": 1278,
      "##关": 1279,
      "##↔": 1280,
      "##出": 1281,
      "##于": 1282,
      "##了": 1283,
      "##⿿": 1284,
      "##抗": 1285,
      "##提": 1286,
      "##取": 1287,
      "##注": 1288,
      "##区": 1289,
      "##域": 1290,
      "##⊧": 1291,
      "##学": 1292,
      "##示": 1293,
      "##˙": 1294,
      "##●": 1295,
      "##转": 1296,
      "##录": 1297,
      "##功": 1298,
      "##性": 1299,
      "##特": 1300,
      "##异": 1301,
      "##志": 1302,
      "##₂": 1303,
      "##多": 1304,
      "##数": 1305,
      "##接": 1306,
      "##受": 1307,
      "##线": 1308,
      "##应": 1309,
      "##对": 1310,
      "##重": 1311,
      "##要": 1312,
      "##使": 1313,
      "##∝": 1314,
      "##𝒟": 1315,
      "##‬": 1316,
      "##前": 1317,
      "##最": 1318,
      "##广": 1319,
      "##种": 1320,
      "##原": 1321,
      "##÷": 1322,
      "##⁺": 1323,
      "##非": 1324,
      "##尼": 1325,
      "##有": 1326,
      "##效": 1327,
      "##率": 1328,
      "##西": 1329,
      "##鳞": 1330,
      "##ˇ": 1331,
      "##质": 1332,
      "##ⅱ": 1333,
      "##♀": 1334,
      "##ʺ": 1335,
      "##主": 1336,
      "##手": 1337,
      "##之": 1338,
      "##到": 1339,
      "##∀": 1340,
      "##存": 1341,
      "##在": 1342,
      "##他": 1343,
      "##驱": 1344,
      "##动": 1345,
      "##机": 1346,
      "##◦": 1347,
      "##⊙": 1348,
      "##指": 1349,
      "##首": 1350,
      "##次": 1351,
      "##至": 1352,
      "##死": 1353,
      "##亡": 1354,
      "##时": 1355,
      "##间": 1356,
      "##该": 1357,
      "##据": 1358,
      "##发": 1359,
      "##仍": 1360,
      "##还": 1361,
      "##个": 1362,
      "##度": 1363,
      "##æ": 1364,
      "##‏": 1365,
      "##ς": 1366,
      "##﻿": 1367,
      "##病": 1368,
      "##₃": 1369,
      "##⊓": 1370,
      "##∃": 1371,
      "##⊢": 1372,
      "##ɛ": 1373,
      "##实": 1374,
      "##验": 1375,
      "##果": 1376,
      "##野": 1377,
      "##生": 1378,
      "##¢": 1379,
      "##≃": 1380,
      "##ℜ": 1381,
      "##⊺": 1382,
      "##曲": 1383,
      "##见": 1384,
      "##图": 1385,
      "##未": 1386,
      "##高": 1387,
      "##总": 1388,
      "##大": 1389,
      "##量": 1390,
      "##文": 1391,
      "##亚": 1392,
      "##人": 1393,
      "##克": 1394,
      "##唑": 1395,
      "##益": 1396,
      "##ː": 1397,
      "##缓": 1398,
      "##解": 1399,
      "##二": 1400,
      "##当": 1401,
      "##控": 1402,
      "##₄": 1403,
      "##试": 1404,
      "##ο": 1405,
      "##µ": 1406,
      "##≫": 1407,
      "##♂": 1408,
      "##ℝ": 1409,
      "##评": 1410,
      "##分": 1411,
      "##理": 1412,
      "##类": 1413,
      "##∧": 1414,
      "##融": 1415,
      "##ℑ": 1416,
      "##比": 1417,
      "##∖": 1418,
      "##ℏ": 1419,
      "##▵": 1420,
      "##¼": 1421,
      "##⇒": 1422,
      "##不": 1423,
      "##同": 1424,
      "##将": 1425,
      "##进": 1426,
      "##行": 1427,
      "##集": 1428,
      "##‍": 1429,
      "##√": 1430,
      "##们": 1431,
      "##方": 1432,
      "##法": 1433,
      "##以": 1434,
      "##定": 1435,
      "##程": 1436,
      "##样": 1437,
      "##来": 1438,
      "##源": 1439,
      "##剂": 1440,
      "##降": 1441,
      "##低": 1442,
      "##展": 1443,
      "##等": 1444,
      "##≲": 1445,
      "##公": 1446,
      "##产": 1447,
      "##选": 1448,
      "##择": 1449,
      "##各": 1450,
      "##心": 1451,
      "##立": 1452,
      "##⇄": 1453,
      "##善": 1454,
      "##案": 1455,
      "##全": 1456,
      "##部": 1457,
      "##统": 1458,
      "##完": 1459,
      "##成": 1460,
      "##析": 1461,
      "##⁹": 1462,
      "##с": 1463,
      "##形": 1464,
      "##两": 1465,
      "##位": 1466,
      "##⨁": 1467,
      "##★": 1468,
      "##包": 1469,
      "##˚": 1470,
      "##开": 1471,
      "##蛋": 1472,
      "##白": 1473,
      "##活": 1474,
      "##加": 1475,
      "##较": 1476,
      "##著": 1477,
      "##‎": 1478,
      "##ħ": 1479,
      "##ℕ": 1480,
      "##好": 1481,
      "##": 1482,
      "##ꞌ": 1483,
      "##∪": 1484,
      "##传": 1485,
      "##长": 1486,
      "##优": 1487,
      "##˘": 1488,
      "##照": 1489,
      "##射": 1490,
      "##移": 1491,
      "##凋": 1492,
      "##⌢": 1493,
      "##点": 1494,
      "##并": 1495,
      "##平": 1496,
      "##吉": 1497,
      "##处": 1498,
      "##顺": 1499,
      "##铂": 1500,
      "##ﬂ": 1501,
      "##€": 1502,
      "##科": 1503,
      "##估": 1504,
      "##影": 1505,
      "##像": 1506,
      "##也": 1507,
      "##三": 1508,
      "##些": 1509,
      "##素": 1510,
      "##预": 1511,
      "##＋": 1512,
      "##道": 1513,
      "##厄": 1514,
      "##洛": 1515,
      "##月": 1516,
      "##无": 1517,
      "##症": 1518,
      "##状": 1519,
      "##尚": 1520,
      "##差": 1521,
      "##≺": 1522,
      "##⇌": 1523,
      "##计": 1524,
      "##片": 1525,
      "##═": 1526,
      "##►": 1527,
      "##≳": 1528,
      "##序": 1529,
      "##甲": 1530,
      "##共": 1531,
      "##起": 1532,
      "##о": 1533,
      "##扩": 1534,
      "##增": 1535,
      "##会": 1536,
      "##ℂ": 1537,
      "##ℒ": 1538,
      "##ℐ": 1539,
      "##ʼ": 1540,
      "##带": 1541,
      "##ʊ": 1542,
      "##早": 1543,
      "##断": 1544,
      "##供": 1545,
      "##依": 1546,
      "##│": 1547,
      "##小": 1548,
      "##鼠": 1549,
      "##模": 1550,
      "##ي": 1551,
      "##ϒ": 1552,
      "##干": 1553,
      "##∬": 1554,
      "##▪": 1555,
      "##₁": 1556,
      "##正": 1557,
      "##探": 1558,
      "##索": 1559,
      "##节": 1560,
      "##晚": 1561,
      "##且": 1562,
      "##良": 1563,
      "##反": 1564,
      "##微": 1565,
      "##𝒫": 1566,
      "##¬": 1567,
      "##放": 1568,
      "##ⅰ": 1569,
      "##明": 1570,
      "##△": 1571,
      "##■": 1572,
      "##ɑ": 1573,
      "##¹": 1574,
      "##⁶": 1575,
      "##ℋ": 1576,
      "##敏": 1577,
      "##项": 1578,
      "##似": 1579,
      "##∅": 1580,
      "##培": 1581,
      "##美": 1582,
      "##述": 1583,
      "##诱": 1584,
      "##ϱ": 1585,
      "##价": 1586,
      "##þ": 1587,
      "##吸": 1588,
      "##烟": 1589,
      "##≅": 1590,
      "##‭": 1591,
      "##每": 1592,
      "##周": 1593,
      "##胸": 1594,
      "##查": 1595,
      "##直": 1596,
      "##疾": 1597,
      "##毒": 1598,
      "##面": 1599,
      "##年": 1600,
      "##报": 1601,
      "##初": 1602,
      "##步": 1603,
      "##≜": 1604,
      "##管": 1605,
      "##₇": 1606,
      "##₀": 1607,
      "##₋": 1608,
      "##清": 1609,
      "##液": 1610,
      "##支": 1611,
      "##持": 1612,
      "##⋱": 1613,
      "##ƒ": 1614,
      "##构": 1615,
      "##调": 1616,
      "##ɸ": 1617,
      "##系": 1618,
      "##密": 1619,
      "##感": 1620,
      "##岁": 1621,
      "##∊": 1622,
      "##⊿": 1623,
      "##需": 1624,
      "##式": 1625,
      "##已": 1626,
      "##情": 1627,
      "##意": 1628,
      "##②": 1629,
      "##𝜀": 1630,
      "##˝": 1631,
      "##水": 1632,
      "##ℛ": 1633,
      "##从": 1634,
      "##₆": 1635,
      "##环": 1636,
      "##地": 1637,
      "##入": 1638,
      "##＝": 1639,
      "##ǀ": 1640,
      "##£": 1641,
      "##然": 1642,
      "##局": 1643,
      "##ⓡ": 1644,
      "##⁰": 1645,
      "##响": 1646,
      "##阳": 1647,
      "##均": 1648,
      "##参": 1649,
      "##双": 1650,
      "##": 1651,
      "##⇆": 1652,
      "##œ": 1653,
      "##口": 1654,
      "##服": 1655,
      "##游": 1656,
      "##□": 1657,
      "##贝": 1658,
      "##珠": 1659,
      "##⊕": 1660,
      "##件": 1661,
      "##～": 1662,
      "##脑": 1663,
      "##继": 1664,
      "##这": 1665,
      "##΄": 1666,
      "##续": 1667,
      "##染": 1668,
      "##˃": 1669,
      "##𝒩": 1670,
      "##天": 1671,
      "##山": 1672,
      "##𝒦": 1673,
      "##ᄋ": 1674,
      "##着": 1675,
      "##г": 1676,
      "##у": 1677,
      "##л": 1678,
      "##п": 1679,
      "##¤": 1680,
      "##ℰ": 1681,
      "##利": 1682,
      "##改": 1683,
      "##≻": 1684,
      "##随": 1685,
      "##诊": 1686,
      "##⋂": 1687,
      "##证": 1688,
      "##磷": 1689,
      "##少": 1690,
      "##⊔": 1691,
      "##养": 1692,
      "##括": 1693,
      "##越": 1694,
      "##➔": 1695,
      "##⪯": 1696,
      "##维": 1697,
      "##促": 1698,
      "##而": 1699,
      "##灶": 1700,
      "##延": 1701,
      "##∓": 1702,
      "##信": 1703,
      "##⫫": 1704,
      "##核": 1705,
      "##酸": 1706,
      "##𝒥": 1707,
      "##ə": 1708,
      "##皮": 1709,
      "##根": 1710,
      "##₉": 1711,
      "##征": 1712,
      "##в": 1713,
      "##𝒜": 1714,
      "##⋀": 1715,
      "##态": 1716,
      "##▾": 1717,
      "##色": 1718,
      "##医": 1719,
      "##安": 1720,
      "##ɪ": 1721,
      "##₈": 1722,
      "##⁵": 1723,
      "##⁴": 1724,
      "##˂": 1725,
      "##给": 1726,
      "##否": 1727,
      "##ℵ": 1728,
      "##膜": 1729,
      "##ل": 1730,
      "##ϖ": 1731,
      "##℃": 1732,
      "##ϰ": 1733,
      "##≦": 1734,
      "##目": 1735,
      "##龄": 1736,
      "##ˈ": 1737,
      "##殖": 1738,
      "##占": 1739,
      "##℘": 1740,
      "##联": 1741,
      "##⁸": 1742,
      "##国": 1743,
      "##家": 1744,
      "##级": 1745,
      "##论": 1746,
      "##针": 1747,
      "##∴": 1748,
      "##⇓": 1749,
      "##⋁": 1750,
      "##≔": 1751,
      "##ℱ": 1752,
      "##恶": 1753,
      "##і": 1754,
      "##ф": 1755,
      "##н": 1756,
      "##х": 1757,
      "##𝜃": 1758,
      "##院": 1759,
      "##┬": 1760,
      "##▒": 1761,
      "##日": 1762,
      "##积": 1763,
      "##⊣": 1764,
      "##┴": 1765,
      "##𝒮": 1766,
      "##𝒵": 1767,
      "##≧": 1768,
      "##义": 1769,
      "##淋": 1770,
      "##巴": 1771,
      "##况": 1772,
      "##往": 1773,
      "##此": 1774,
      "##赛": 1775,
      "##ð": 1776,
      "##值": 1777,
      "##阴": 1778,
      "##♯": 1779,
      "##肝": 1780,
      "##族": 1781,
      "##酪": 1782,
      "##氨": 1783,
      "##近": 1784,
      "##⊑": 1785,
      "##ǂ": 1786,
      "##ﬁ": 1787,
      "##排": 1788,
      "##回": 1789,
      "##⊖": 1790,
      "##采": 1791,
      "##ˊ": 1792,
      "##¦": 1793,
      "##ĸ": 1794,
      "##ˉ": 1795,
      "##𝔼": 1796,
      "##و": 1797,
      "##引": 1798,
      "##独": 1799,
      "##女": 1800,
      "##⧧": 1801,
      "##▿": 1802,
      "##径": 1803,
      "##❖": 1804,
      "##⊃": 1805,
      "##∠": 1806,
      "##都": 1807,
      "##є": 1808,
      "##没": 1809,
      "##¥": 1810,
      "##即": 1811,
      "##𝒳": 1812,
      "##⁷": 1813,
      "##ɔ": 1814,
      "##ŋ": 1815,
      "##⅓": 1816,
      "##综": 1817,
      "##ʻ": 1818,
      "##列": 1819,
      "##含": 1820,
      "##▽": 1821,
      "##▸": 1822,
      "##𝒱": 1823,
      "##˗": 1824,
      "##д": 1825,
      "##◆": 1826,
      "##∮": 1827,
      "##ℙ": 1828,
      "##⋄": 1829,
      "##醇": 1830,
      "##◯": 1831,
      "##另": 1832,
      "##ʃ": 1833,
      "##𝒯": 1834,
      "##ш": 1835,
      "##⇝": 1836,
      "##④": 1837,
      "##⑤": 1838,
      "##则": 1839,
      "##≍": 1840,
      "##𝜖": 1841,
      "##ʌ": 1842,
      "##¸": 1843,
      "##ᅟ": 1844,
      "##③": 1845,
      "##↗": 1846,
      "##║": 1847,
      "##▼": 1848,
      "##⊨": 1849,
      "##▴": 1850,
      "##ɹ": 1851,
      "##ª": 1852,
      "##ⅴ": 1853,
      "##＜": 1854,
      "##◊": 1855,
      "##☆": 1856,
      "##⊠": 1857,
      "##б": 1858,
      "##∸": 1859,
      "##▶": 1860,
      "##𝟙": 1861,
      "##⋃": 1862,
      "##𝐱": 1863,
      "##𝒢": 1864,
      "##ϐ": 1865,
      "##ℬ": 1866,
      "##它": 1867,
      "##♣": 1868,
      "##ɣ": 1869,
      "##đ": 1870,
      "##ﬀ": 1871,
      "##𝕊": 1872,
      "##♦": 1873,
      "##¾": 1874,
      "##𝒬": 1875,
      "##𝒪": 1876,
      "##𝒰": 1877,
      "##𝐫": 1878,
      "##✓": 1879,
      "##⇑": 1880,
      "##∽": 1881,
      "##①": 1882,
      "##＞": 1883,
      "##⍺": 1884,
      "##⅔": 1885,
      "##⁠": 1886,
      "##ﬄ": 1887,
      "##➢": 1888,
      "##𝕀": 1889,
      "##ǁ": 1890,
      "##𝒲": 1891,
      "##№": 1892,
      "##ɵ": 1893,
      "##◻": 1894,
      "##◇": 1895,
      "##ʋ": 1896,
      "##⑥": 1897,
      "##ɤ": 1898,
      "##但": 1899,
      "##ʟ": 1900,
      "##∎": 1901,
      "##▬": 1902,
      "##𝒴": 1903,
      "##ɳ": 1904,
      "##ƞ": 1905,
      "##≙": 1906,
      "##☐": 1907,
      "##⧫": 1908,
      "##ƙ": 1909,
      "##⑦": 1910,
      "##☑": 1911,
      "##₹": 1912,
      "th": 1913,
      "##ti": 1914,
      "##er": 1915,
      "##on": 1916,
      "##en": 1917,
      "##es": 1918,
      "##ed": 1919,
      "the": 1920,
      "##in": 1921,
      "in": 1922,
      "##al": 1923,
      "##or": 1924,
      "an": 1925,
      "##at": 1926,
      "of": 1927,
      "##an": 1928,
      "##tion": 1929,
      "and": 1930,
      "##ro": 1931,
      "##it": 1932,
      "##ar": 1933,
      "##as": 1934,
      "##ic": 1935,
      "##re": 1936,
      "##is": 1937,
      "##el": 1938,
      "##ent": 1939,
      "##ec": 1940,
      "##ing": 1941,
      "to": 1942,
      "##ation": 1943,
      "##ul": 1944,
      "##ol": 1945,
      "##et": 1946,
      "##om": 1947,
      "##ac": 1948,
      "##ur": 1949,
      "##ig": 1950,
      "##os": 1951,
      "##le": 1952,
      "##ith": 1953,
      "##ly": 1954,
      "st": 1955,
      "with": 1956,
      "##us": 1957,
      "for": 1958,
      "##ere": 1959,
      "##id": 1960,
      "##ve": 1961,
      "con": 1962,
      "##th": 1963,
      "re": 1964,
      "pro": 1965,
      "as": 1966,
      "##ter": 1967,
      "##ati": 1968,
      "al": 1969,
      "##il": 1970,
      "##ow": 1971,
      "##ce": 1972,
      "##ts": 1973,
      "##if": 1974,
      "ex": 1975,
      "##am": 1976,
      "is": 1977,
      "##uc": 1978,
      "##ess": 1979,
      "##im": 1980,
      "##ated": 1981,
      "was": 1982,
      "##un": 1983,
      "##ut": 1984,
      "were": 1985,
      "##od": 1986,
      "##em": 1987,
      "that": 1988,
      "##um": 1989,
      "on": 1990,
      "##ot": 1991,
      "##ell": 1992,
      "##ab": 1993,
      "##oc": 1994,
      "res": 1995,
      "##ir": 1996,
      "##tr": 1997,
      "be": 1998,
      "##ity": 1999,
      "ac": 2000,
      "##ion": 2001,
      "##tic": 2002,
      "wh": 2003,
      "##ver": 2004,
      "##ain": 2005,
      "##ag": 2006,
      "by": 2007,
      "com": 2008,
      "##ud": 2009,
      "##ate": 2010,
      "##op": 2011,
      "##ys": 2012,
      "##ted": 2013,
      "or": 2014,
      "##ad": 2015,
      "ch": 2016,
      "##ment": 2017,
      "##rom": 2018,
      "at": 2019,
      "su": 2020,
      "##og": 2021,
      "us": 2022,
      "##ib": 2023,
      "cell": 2024,
      "tr": 2025,
      "##ap": 2026,
      "##ure": 2027,
      "de": 2028,
      "##ng": 2029,
      "##pl": 2030,
      "##ant": 2031,
      "are": 2032,
      "pr": 2033,
      "##igh": 2034,
      "##vel": 2035,
      "20": 2036,
      "from": 2037,
      "we": 2038,
      "##ents": 2039,
      "##ff": 2040,
      "ad": 2041,
      "im": 2042,
      "inc": 2043,
      "sh": 2044,
      "##ers": 2045,
      "##ical": 2046,
      "##pr": 2047,
      "##qu": 2048,
      "##ip": 2049,
      "##ay": 2050,
      "##ase": 2051,
      "this": 2052,
      "##ine": 2053,
      "dis": 2054,
      "##ence": 2055,
      "sp": 2056,
      "##te": 2057,
      "se": 2058,
      "comp": 2059,
      "stud": 2060,
      "##iz": 2061,
      "##ies": 2062,
      "ind": 2063,
      "##ign": 2064,
      "gen": 2065,
      "en": 2066,
      "un": 2067,
      "##iv": 2068,
      "ne": 2069,
      "##fer": 2070,
      "le": 2071,
      "##ch": 2072,
      "##ore": 2073,
      "##por": 2074,
      "##ans": 2075,
      "##orm": 2076,
      "##ific": 2077,
      "##iti": 2078,
      "per": 2079,
      "##ous": 2080,
      "co": 2081,
      "##ations": 2082,
      "##bs": 2083,
      "not": 2084,
      "##yp": 2085,
      "##ial": 2086,
      "ph": 2087,
      "ass": 2088,
      "##ect": 2089,
      "rec": 2090,
      "pati": 2091,
      "##ition": 2092,
      "##enti": 2093,
      "cells": 2094,
      "fig": 2095,
      "par": 2096,
      "pre": 2097,
      "##ther": 2098,
      "##ens": 2099,
      "ap": 2100,
      "##ons": 2101,
      "##ph": 2102,
      "dif": 2103,
      "##ting": 2104,
      "sign": 2105,
      "##ge": 2106,
      "inter": 2107,
      "##ich": 2108,
      "##press": 2109,
      "##rou": 2110,
      "cl": 2111,
      "can": 2112,
      "##tiv": 2113,
      "str": 2114,
      "##able": 2115,
      "##per": 2116,
      "##ding": 2117,
      "ha": 2118,
      "10": 2119,
      "cont": 2120,
      "eff": 2121,
      "inf": 2122,
      "pl": 2123,
      "##ese": 2124,
      "##oun": 2125,
      "##ia": 2126,
      "trans": 2127,
      "##ep": 2128,
      "differ": 2129,
      "met": 2130,
      "##act": 2131,
      "patients": 2132,
      "##ors": 2133,
      "cons": 2134,
      "##enc": 2135,
      "all": 2136,
      "di": 2137,
      "##ear": 2138,
      "rel": 2139,
      "et": 2140,
      "##ary": 2141,
      "me": 2142,
      "bet": 2143,
      "these": 2144,
      "##cr": 2145,
      "show": 2146,
      "reg": 2147,
      "##ased": 2148,
      "high": 2149,
      "am": 2150,
      "anal": 2151,
      "##ance": 2152,
      "##and": 2153,
      "which": 2154,
      "##ach": 2155,
      "##st": 2156,
      "mod": 2157,
      "##est": 2158,
      "pos": 2159,
      "sc": 2160,
      "study": 2161,
      "have": 2162,
      "resp": 2163,
      "resul": 2164,
      "##vi": 2165,
      "##erm": 2166,
      "##olog": 2167,
      "##ular": 2168,
      "##ally": 2169,
      "##age": 2170,
      "tre": 2171,
      "##we": 2172,
      "##ved": 2173,
      "prote": 2174,
      "##na": 2175,
      "it": 2176,
      "##ied": 2177,
      "##ative": 2178,
      "##der": 2179,
      "ev": 2180,
      "dat": 2181,
      "##ue": 2182,
      "##ath": 2183,
      "##ist": 2184,
      "##tive": 2185,
      "ab": 2186,
      "spec": 2187,
      "##ong": 2188,
      "##ween": 2189,
      "express": 2190,
      "200": 2191,
      "between": 2192,
      "using": 2193,
      "##roup": 2194,
      "##oth": 2195,
      "activ": 2196,
      "##ast": 2197,
      "##ection": 2198,
      "##yl": 2199,
      "##end": 2200,
      "##oll": 2201,
      "##ple": 2202,
      "incre": 2203,
      "##so": 2204,
      "##ari": 2205,
      "mic": 2206,
      "##ected": 2207,
      "signific": 2208,
      "##ates": 2209,
      "group": 2210,
      "##ard": 2211,
      "det": 2212,
      "protein": 2213,
      "##all": 2214,
      "##ug": 2215,
      "##pro": 2216,
      "##ose": 2217,
      "int": 2218,
      "##duc": 2219,
      "##ak": 2220,
      "af": 2221,
      "also": 2222,
      "##cl": 2223,
      "##ual": 2224,
      "##ome": 2225,
      "##rol": 2226,
      "##ight": 2227,
      "significant": 2228,
      "##ym": 2229,
      "data": 2230,
      "##form": 2231,
      "##ound": 2232,
      "cor": 2233,
      "he": 2234,
      "sam": 2235,
      "##ction": 2236,
      "level": 2237,
      "compar": 2238,
      "no": 2239,
      "##oci": 2240,
      "analys": 2241,
      "med": 2242,
      "##dition": 2243,
      "pres": 2244,
      "ar": 2245,
      "anti": 2246,
      "##ory": 2247,
      "##uld": 2248,
      "tw": 2249,
      "sur": 2250,
      "used": 2251,
      "been": 2252,
      "more": 2253,
      "than": 2254,
      "##ub": 2255,
      "after": 2256,
      "##our": 2257,
      "has": 2258,
      "##ost": 2259,
      "ag": 2260,
      "##ide": 2261,
      "201": 2262,
      "##ros": 2263,
      "##ely": 2264,
      "##tim": 2265,
      "bl": 2266,
      "tim": 2267,
      "##tin": 2268,
      "inv": 2269,
      "des": 2270,
      "##ater": 2271,
      "##port": 2272,
      "bi": 2273,
      "results": 2274,
      "##ility": 2275,
      "there": 2276,
      "fun": 2277,
      "may": 2278,
      "car": 2279,
      "acc": 2280,
      "##ulation": 2281,
      "19": 2282,
      "##00": 2283,
      "##ects": 2284,
      "control": 2285,
      "##ges": 2286,
      "##ating": 2287,
      "two": 2288,
      "##ill": 2289,
      "##one": 2290,
      "##ues": 2291,
      "figure": 2292,
      "associ": 2293,
      "expression": 2294,
      "meth": 2295,
      "incl": 2296,
      "treat": 2297,
      "##yst": 2298,
      "##gr": 2299,
      "fl": 2300,
      "##ized": 2301,
      "sup": 2302,
      "other": 2303,
      "##yn": 2304,
      "##ech": 2305,
      "##ution": 2306,
      "how": 2307,
      "but": 2308,
      "vari": 2309,
      "their": 2310,
      "treatment": 2311,
      "red": 2312,
      "id": 2313,
      "##action": 2314,
      "##ond": 2315,
      "sub": 2316,
      "##vely": 2317,
      "suc": 2318,
      "##ases": 2319,
      "##ive": 2320,
      "both": 2321,
      "model": 2322,
      "man": 2323,
      "dr": 2324,
      "##ox": 2325,
      "val": 2326,
      "includ": 2327,
      "sim": 2328,
      "##ree": 2329,
      "low": 2330,
      "##ass": 2331,
      "ca": 2332,
      "analysis": 2333,
      "##entr": 2334,
      "dur": 2335,
      "li": 2336,
      "##cer": 2337,
      "over": 2338,
      "obs": 2339,
      "one": 2340,
      "##ct": 2341,
      "our": 2342,
      "##hib": 2343,
      "dec": 2344,
      "cr": 2345,
      "ins": 2346,
      "function": 2347,
      "##iss": 2348,
      "el": 2349,
      "##mun": 2350,
      "studies": 2351,
      "##ures": 2352,
      "up": 2353,
      "chan": 2354,
      "##yt": 2355,
      "##ants": 2356,
      "typ": 2357,
      "##ood": 2358,
      "gene": 2359,
      "min": 2360,
      "##ber": 2361,
      "each": 2362,
      "partic": 2363,
      "respons": 2364,
      "meas": 2365,
      "obser": 2366,
      "time": 2367,
      "##ained": 2368,
      "12": 2369,
      "##ew": 2370,
      "fact": 2371,
      "exper": 2372,
      "##ined": 2373,
      "##velop": 2374,
      "ser": 2375,
      "es": 2376,
      "##br": 2377,
      "##inding": 2378,
      "foll": 2379,
      "##her": 2380,
      "##tal": 2381,
      "##out": 2382,
      "##ile": 2383,
      "ob": 2384,
      "perform": 2385,
      "form": 2386,
      "br": 2387,
      "##ever": 2388,
      "##ob": 2389,
      "##ays": 2390,
      "em": 2391,
      "develop": 2392,
      "gl": 2393,
      "##ite": 2394,
      "##vers": 2395,
      "follow": 2396,
      "out": 2397,
      "gr": 2398,
      "mon": 2399,
      "##cess": 2400,
      "##ack": 2401,
      "##ult": 2402,
      "num": 2403,
      "##ogen": 2404,
      "##ystem": 2405,
      "however": 2406,
      "##ail": 2407,
      "##ences": 2408,
      "during": 2409,
      "##pt": 2410,
      "heal": 2411,
      "##anc": 2412,
      "different": 2413,
      "indic": 2414,
      "fr": 2415,
      "##ix": 2416,
      "method": 2417,
      "##uced": 2418,
      "##arg": 2419,
      "##pos": 2420,
      "##ism": 2421,
      "##acter": 2422,
      "##entif": 2423,
      "repor": 2424,
      "sug": 2425,
      "sm": 2426,
      "such": 2427,
      "levels": 2428,
      "##plic": 2429,
      "had": 2430,
      "##ace": 2431,
      "##gen": 2432,
      "system": 2433,
      "##uct": 2434,
      "found": 2435,
      "health": 2436,
      "##cc": 2437,
      "##row": 2438,
      "inhib": 2439,
      "appro": 2440,
      "under": 2441,
      "clin": 2442,
      "##ions": 2443,
      "only": 2444,
      "dise": 2445,
      "mut": 2446,
      "non": 2447,
      "##ild": 2448,
      "##ork": 2449,
      "path": 2450,
      "##ective": 2451,
      "compared": 2452,
      "##par": 2453,
      "based": 2454,
      "activity": 2455,
      "##ole": 2456,
      "##ium": 2457,
      "associated": 2458,
      "addition": 2459,
      "into": 2460,
      "15": 2461,
      "##urr": 2462,
      "prov": 2463,
      "cd": 2464,
      "##aining": 2465,
      "##ization": 2466,
      "gener": 2467,
      "subs": 2468,
      "when": 2469,
      "##itive": 2470,
      "##ish": 2471,
      "##als": 2472,
      "identif": 2473,
      "##trib": 2474,
      "##osis": 2475,
      "year": 2476,
      "##ological": 2477,
      "##ici": 2478,
      "##atic": 2479,
      "def": 2480,
      "present": 2481,
      "end": 2482,
      "hyp": 2483,
      "sel": 2484,
      "use": 2485,
      "well": 2486,
      "specific": 2487,
      "ma": 2488,
      "mm": 2489,
      "hum": 2490,
      "##ugh": 2491,
      "pol": 2492,
      "exam": 2493,
      "op": 2494,
      "effect": 2495,
      "its": 2496,
      "tum": 2497,
      "fur": 2498,
      "conc": 2499,
      "rem": 2500,
      "most": 2501,
      "increased": 2502,
      "col": 2503,
      "##own": 2504,
      "produc": 2505,
      "##tical": 2506,
      "##av": 2507,
      "##ould": 2508,
      "##gh": 2509,
      "po": 2510,
      "ris": 2511,
      "##ently": 2512,
      "11": 2513,
      "##ential": 2514,
      "##vious": 2515,
      "##ane": 2516,
      "##use": 2517,
      "mice": 2518,
      "immun": 2519,
      "further": 2520,
      "dem": 2521,
      "shown": 2522,
      "##ps": 2523,
      "##fore": 2524,
      "##tern": 2525,
      "##inal": 2526,
      "fir": 2527,
      "observed": 2528,
      "number": 2529,
      "##crip": 2530,
      "##agn": 2531,
      "sec": 2532,
      "experim": 2533,
      "##ough": 2534,
      "clinical": 2535,
      "loc": 2536,
      "##ilar": 2537,
      "##ord": 2538,
      "cancer": 2539,
      "syn": 2540,
      "##ature": 2541,
      "determ": 2542,
      "pot": 2543,
      "##ulated": 2544,
      "table": 2545,
      "##ention": 2546,
      "kn": 2547,
      "##atory": 2548,
      "sequ": 2549,
      "##ability": 2550,
      "similar": 2551,
      "infl": 2552,
      "##tively": 2553,
      "dep": 2554,
      "previous": 2555,
      "mul": 2556,
      "lik": 2557,
      "##rough": 2558,
      "three": 2559,
      "##ments": 2560,
      "first": 2561,
      "mem": 2562,
      "##ible": 2563,
      "effects": 2564,
      "risk": 2565,
      "##ark": 2566,
      "significantly": 2567,
      "reported": 2568,
      "##ities": 2569,
      "cal": 2570,
      "qu": 2571,
      "##tit": 2572,
      "disease": 2573,
      "corre": 2574,
      "##aph": 2575,
      "term": 2576,
      "so": 2577,
      "could": 2578,
      "##ov": 2579,
      "higher": 2580,
      "struct": 2581,
      "import": 2582,
      "##til": 2583,
      "##yd": 2584,
      "process": 2585,
      "##ivid": 2586,
      "concentr": 2587,
      "##etr": 2588,
      "##ency": 2589,
      "13": 2590,
      "##ology": 2591,
      "##lex": 2592,
      "performed": 2593,
      "showed": 2594,
      "##amm": 2595,
      "through": 2596,
      "where": 2597,
      "pred": 2598,
      "##ited": 2599,
      "##esis": 2600,
      "type": 2601,
      "##ock": 2602,
      "##ale": 2603,
      "##ectively": 2604,
      "bec": 2605,
      "##ize": 2606,
      "14": 2607,
      "do": 2608,
      "##osph": 2609,
      "prim": 2610,
      "they": 2611,
      "##les": 2612,
      "##ines": 2613,
      "il": 2614,
      "conf": 2615,
      "human": 2616,
      "##ains": 2617,
      "char": 2618,
      "##ok": 2619,
      "##ormal": 2620,
      "##ie": 2621,
      "##onstr": 2622,
      "##ured": 2623,
      "##af": 2624,
      "condition": 2625,
      "##ucle": 2626,
      "30": 2627,
      "genes": 2628,
      "mol": 2629,
      "ep": 2630,
      "##crib": 2631,
      "age": 2632,
      "aff": 2633,
      "assess": 2634,
      "sampl": 2635,
      "##ination": 2636,
      "25": 2637,
      "sol": 2638,
      "particip": 2639,
      "pop": 2640,
      "16": 2641,
      "##oid": 2642,
      "##old": 2643,
      "response": 2644,
      "##echan": 2645,
      "ml": 2646,
      "if": 2647,
      "test": 2648,
      "decre": 2649,
      "fe": 2650,
      "within": 2651,
      "##und": 2652,
      "grow": 2653,
      "18": 2654,
      "##idence": 2655,
      "##earch": 2656,
      "##ang": 2657,
      "sens": 2658,
      "research": 2659,
      "tiss": 2660,
      "mo": 2661,
      "##ages": 2662,
      "##endent": 2663,
      "##its": 2664,
      "mechan": 2665,
      "##ior": 2666,
      "mean": 2667,
      "er": 2668,
      "##tid": 2669,
      "##usion": 2670,
      "groups": 2671,
      "tes": 2672,
      "some": 2673,
      "coll": 2674,
      "##air": 2675,
      "##ational": 2676,
      "##tig": 2677,
      "dna": 2678,
      "while": 2679,
      "prob": 2680,
      "##uction": 2681,
      "##ether": 2682,
      "sugges": 2683,
      "##tor": 2684,
      "##ogr": 2685,
      "24": 2686,
      "acid": 2687,
      "##oph": 2688,
      "comm": 2689,
      "those": 2690,
      "##asm": 2691,
      "individ": 2692,
      "##erg": 2693,
      "##och": 2694,
      "##tained": 2695,
      "##ute": 2696,
      "proteins": 2697,
      "total": 2698,
      "##ider": 2699,
      "##alu": 2700,
      "medi": 2701,
      "cyt": 2702,
      "micro": 2703,
      "ther": 2704,
      "gre": 2705,
      "among": 2706,
      "##eng": 2707,
      "occ": 2708,
      "therap": 2709,
      "including": 2710,
      "evalu": 2711,
      "related": 2712,
      "##adi": 2713,
      "demonstr": 2714,
      "important": 2715,
      "describ": 2716,
      "199": 2717,
      "##ort": 2718,
      "induced": 2719,
      "prom": 2720,
      "requ": 2721,
      "##ha": 2722,
      "del": 2723,
      "##pres": 2724,
      "individual": 2725,
      "bas": 2726,
      "antib": 2727,
      "character": 2728,
      "##ores": 2729,
      "main": 2730,
      "##over": 2731,
      "##eter": 2732,
      "signal": 2733,
      "##ery": 2734,
      "set": 2735,
      "##xim": 2736,
      "pe": 2737,
      "intr": 2738,
      "years": 2739,
      "development": 2740,
      "##ural": 2741,
      "ps": 2742,
      "binding": 2743,
      "repres": 2744,
      "progr": 2745,
      "who": 2746,
      "molec": 2747,
      "child": 2748,
      "##otyp": 2749,
      "##arget": 2750,
      "dire": 2751,
      "17": 2752,
      "post": 2753,
      "imp": 2754,
      "invol": 2755,
      "##ody": 2756,
      "sever": 2757,
      "target": 2758,
      "then": 2759,
      "increase": 2760,
      "50": 2761,
      "##ind": 2762,
      "respectively": 2763,
      "##ived": 2764,
      "inves": 2765,
      "phosph": 2766,
      "##ross": 2767,
      "##are": 2768,
      "rate": 2769,
      "role": 2770,
      "predic": 2771,
      "investig": 2772,
      "##yc": 2773,
      "patient": 2774,
      "tem": 2775,
      "poss": 2776,
      "##ten": 2777,
      "work": 2778,
      "multi": 2779,
      "inform": 2780,
      "av": 2781,
      "consider": 2782,
      "##ex": 2783,
      "lim": 2784,
      "samples": 2785,
      "mg": 2786,
      "vir": 2787,
      "sl": 2788,
      "##roph": 2789,
      "factors": 2790,
      "normal": 2791,
      "##cs": 2792,
      "recep": 2793,
      "##ft": 2794,
      "##ental": 2795,
      "complex": 2796,
      "nucle": 2797,
      "tumor": 2798,
      "calc": 2799,
      "##ms": 2800,
      "stim": 2801,
      "##plement": 2802,
      "mor": 2803,
      "dom": 2804,
      "fre": 2805,
      "correl": 2806,
      "##atis": 2807,
      "##res": 2808,
      "##view": 2809,
      "due": 2810,
      "did": 2811,
      "second": 2812,
      "100": 2813,
      "new": 2814,
      "long": 2815,
      "impro": 2816,
      "prev": 2817,
      "##gf": 2818,
      "##ek": 2819,
      "##arly": 2820,
      "extr": 2821,
      "diagn": 2822,
      "line": 2823,
      "##led": 2824,
      "##ren": 2825,
      "lower": 2826,
      "00": 2827,
      "##ified": 2828,
      "##arge": 2829,
      "##ron": 2830,
      "inj": 2831,
      "will": 2832,
      "ox": 2833,
      "##ause": 2834,
      "interaction": 2835,
      "##equ": 2836,
      "##tics": 2837,
      "drug": 2838,
      "##ink": 2839,
      "changes": 2840,
      "same": 2841,
      "thus": 2842,
      "positive": 2843,
      "prot": 2844,
      "ran": 2845,
      "subj": 2846,
      "app": 2847,
      "flu": 2848,
      "finding": 2849,
      "##iqu": 2850,
      "values": 2851,
      "mr": 2852,
      "cap": 2853,
      "##echn": 2854,
      "##ement": 2855,
      "mechanism": 2856,
      "lab": 2857,
      "small": 2858,
      "care": 2859,
      "methods": 2860,
      "phys": 2861,
      "##omes": 2862,
      "disc": 2863,
      "interv": 2864,
      "ol": 2865,
      "neu": 2866,
      "provid": 2867,
      "treated": 2868,
      "##ily": 2869,
      "##ise": 2870,
      "cult": 2871,
      "abs": 2872,
      "##ade": 2873,
      "alth": 2874,
      "inhibit": 2875,
      "although": 2876,
      "blood": 2877,
      "transcrip": 2878,
      "##int": 2879,
      "##ene": 2880,
      "##ession": 2881,
      "because": 2882,
      "pathw": 2883,
      "##eld": 2884,
      "contr": 2885,
      "differences": 2886,
      "exp": 2887,
      "mat": 2888,
      "potential": 2889,
      "ii": 2890,
      "curr": 2891,
      "##ust": 2892,
      "##ograph": 2893,
      "following": 2894,
      "vis": 2895,
      "sing": 2896,
      "ext": 2897,
      "comb": 2898,
      "identified": 2899,
      "21": 2900,
      "##ically": 2901,
      "frequ": 2902,
      "##ful": 2903,
      "##yz": 2904,
      "growth": 2905,
      "coun": 2906,
      "initi": 2907,
      "org": 2908,
      "infection": 2909,
      "described": 2910,
      "##fl": 2911,
      "##ne": 2912,
      "techn": 2913,
      "05": 2914,
      "##ital": 2915,
      "##other": 2916,
      "pat": 2917,
      "##ately": 2918,
      "cases": 2919,
      "##urs": 2920,
      "class": 2921,
      "neg": 2922,
      "##ites": 2923,
      "stand": 2924,
      "##ins": 2925,
      "obtained": 2926,
      "##ice": 2927,
      "##rop": 2928,
      "##ption": 2929,
      "##10": 2930,
      "measure": 2931,
      "##omen": 2932,
      "beha": 2933,
      "##ake": 2934,
      "month": 2935,
      "activation": 2936,
      "mark": 2937,
      "expos": 2938,
      "##plet": 2939,
      "##ves": 2940,
      "less": 2941,
      "need": 2942,
      "nm": 2943,
      "behavi": 2944,
      "expl": 2945,
      "##uth": 2946,
      "##med": 2947,
      "##ength": 2948,
      "lead": 2949,
      "22": 2950,
      "##lish": 2951,
      "##ire": 2952,
      "peri": 2953,
      "##oma": 2954,
      "therefore": 2955,
      "rele": 2956,
      "single": 2957,
      "##ateg": 2958,
      "##ication": 2959,
      "tissue": 2960,
      "conditions": 2961,
      "would": 2962,
      "anim": 2963,
      "estim": 2964,
      "cle": 2965,
      "sch": 2966,
      "any": 2967,
      "hist": 2968,
      "##ield": 2969,
      "standard": 2970,
      "##ness": 2971,
      "##cop": 2972,
      "population": 2973,
      "neur": 2974,
      "chem": 2975,
      "##asc": 2976,
      "##oh": 2977,
      "##tribution": 2978,
      "without": 2979,
      "several": 2980,
      "statis": 2981,
      "week": 2982,
      "sample": 2983,
      "vol": 2984,
      "sym": 2985,
      "outc": 2986,
      "##ival": 2987,
      "information": 2988,
      "##ning": 2989,
      "presence": 2990,
      "factor": 2991,
      "pur": 2992,
      "hyd": 2993,
      "##ither": 2994,
      "##iven": 2995,
      "##onal": 2996,
      "##iter": 2997,
      "approach": 2998,
      "##ording": 2999,
      "days": 3000,
      "about": 3001,
      "95": 3002,
      "participants": 3003,
      "lo": 3004,
      "##uce": 3005,
      "four": 3006,
      "day": 3007,
      "concl": 3008,
      "equ": 3009,
      "##ogn": 3010,
      "fam": 3011,
      "ms": 3012,
      "##ax": 3013,
      "surf": 3014,
      "represent": 3015,
      "##abol": 3016,
      "##ylation": 3017,
      "plasm": 3018,
      "add": 3019,
      "23": 3020,
      "analyz": 3021,
      "bre": 3022,
      "##etic": 3023,
      "previously": 3024,
      "##cent": 3025,
      "##vir": 3026,
      "##ri": 3027,
      "reduced": 3028,
      "supplement": 3029,
      "##ired": 3030,
      "region": 3031,
      "##itro": 3032,
      "membr": 3033,
      "adm": 3034,
      "maj": 3035,
      "design": 3036,
      "phen": 3037,
      "species": 3038,
      "ro": 3039,
      "40": 3040,
      "##ick": 3041,
      "fib": 3042,
      "review": 3043,
      "major": 3044,
      "measured": 3045,
      "trial": 3046,
      "period": 3047,
      "##ics": 3048,
      "##round": 3049,
      "##hip": 3050,
      "##ced": 3051,
      "regul": 3052,
      "whether": 3053,
      "mal": 3054,
      "##ouse": 3055,
      "findings": 3056,
      "my": 3057,
      "##tif": 3058,
      "common": 3059,
      "##ensity": 3060,
      "##ator": 3061,
      "##ert": 3062,
      "included": 3063,
      "ele": 3064,
      "primary": 3065,
      "should": 3066,
      "rat": 3067,
      "brain": 3068,
      "children": 3069,
      "vi": 3070,
      "stress": 3071,
      "##uted": 3072,
      "rep": 3073,
      "metabol": 3074,
      "und": 3075,
      "local": 3076,
      "##ptom": 3077,
      "aut": 3078,
      "quan": 3079,
      "pub": 3080,
      "size": 3081,
      "##ardi": 3082,
      "direct": 3083,
      "reve": 3084,
      "resid": 3085,
      "many": 3086,
      "case": 3087,
      "resist": 3088,
      "women": 3089,
      "organ": 3090,
      "hel": 3091,
      "caus": 3092,
      "influ": 3093,
      "lif": 3094,
      "evidence": 3095,
      "pers": 3096,
      "sk": 3097,
      "surv": 3098,
      "att": 3099,
      "dependent": 3100,
      "surg": 3101,
      "enh": 3102,
      "large": 3103,
      "##tions": 3104,
      "##zym": 3105,
      "##osp": 3106,
      "##ocyt": 3107,
      "either": 3108,
      "range": 3109,
      "concentration": 3110,
      "isol": 3111,
      "##12": 3112,
      "value": 3113,
      "pattern": 3114,
      "cat": 3115,
      "again": 3116,
      "##oss": 3117,
      "##ward": 3118,
      "before": 3119,
      "early": 3120,
      "inflamm": 3121,
      "##ian": 3122,
      "##ification": 3123,
      "##pression": 3124,
      "os": 3125,
      "mater": 3126,
      "##reg": 3127,
      "##icient": 3128,
      "rati": 3129,
      "models": 3130,
      "part": 3131,
      "sin": 3132,
      "##ric": 3133,
      "##ds": 3134,
      "der": 3135,
      "negative": 3136,
      "multiple": 3137,
      "mir": 3138,
      "##istr": 3139,
      "avail": 3140,
      "##ving": 3141,
      "aver": 3142,
      "##ycl": 3143,
      "experiments": 3144,
      "##ty": 3145,
      "rna": 3146,
      "according": 3147,
      "receptor": 3148,
      "consist": 3149,
      "prof": 3150,
      "##oles": 3151,
      "##ety": 3152,
      "##otic": 3153,
      "surface": 3154,
      "complet": 3155,
      "stat": 3156,
      "reveal": 3157,
      "28": 3158,
      "qual": 3159,
      "##aw": 3160,
      "demonstrated": 3161,
      "vers": 3162,
      "##nal": 3163,
      "conduc": 3164,
      "containing": 3165,
      "ir": 3166,
      "param": 3167,
      "bu": 3168,
      "rece": 3169,
      "structure": 3170,
      "known": 3171,
      "ret": 3172,
      "##eptid": 3173,
      "indep": 3174,
      "difference": 3175,
      "##ru": 3176,
      "mus": 3177,
      "lip": 3178,
      "26": 3179,
      "determined": 3180,
      "therapy": 3181,
      "synth": 3182,
      "functional": 3183,
      "##eth": 3184,
      "change": 3185,
      "fac": 3186,
      "##arm": 3187,
      "##tered": 3188,
      "like": 3189,
      "##gest": 3190,
      "37": 3191,
      "prol": 3192,
      "phase": 3193,
      "gu": 3194,
      "cm": 3195,
      "##aging": 3196,
      "signaling": 3197,
      "expressed": 3198,
      "##ull": 3199,
      "site": 3200,
      "vs": 3201,
      "##viron": 3202,
      "pd": 3203,
      "##ych": 3204,
      "likely": 3205,
      "strong": 3206,
      "temper": 3207,
      "cent": 3208,
      "enzym": 3209,
      "fem": 3210,
      "result": 3211,
      "##ension": 3212,
      "transcription": 3213,
      "current": 3214,
      "cardi": 3215,
      "possible": 3216,
      "##acy": 3217,
      "confir": 3218,
      "hosp": 3219,
      "suggest": 3220,
      "months": 3221,
      "##els": 3222,
      "##gn": 3223,
      "water": 3224,
      "27": 3225,
      "symptom": 3226,
      "reaction": 3227,
      "diff": 3228,
      "relations": 3229,
      "29": 3230,
      "back": 3231,
      "##vere": 3232,
      "chrom": 3233,
      "##erc": 3234,
      "allow": 3235,
      "##ifer": 3236,
      "##ties": 3237,
      "order": 3238,
      "##ner": 3239,
      "000": 3240,
      "bar": 3241,
      "##11": 3242,
      "hem": 3243,
      "sequence": 3244,
      "##ove": 3245,
      "##atively": 3246,
      "analyses": 3247,
      "##atin": 3248,
      "##ulations": 3249,
      "adj": 3250,
      "##aps": 3251,
      "cir": 3252,
      "dose": 3253,
      "net": 3254,
      "est": 3255,
      "serum": 3256,
      "loss": 3257,
      "given": 3258,
      "35": 3259,
      "membrane": 3260,
      "decreased": 3261,
      "bel": 3262,
      "mit": 3263,
      "##omic": 3264,
      "analyzed": 3265,
      "incub": 3266,
      "appear": 3267,
      "##verse": 3268,
      "differenti": 3269,
      "ec": 3270,
      "radi": 3271,
      "molecular": 3272,
      "##vity": 3273,
      "##asing": 3274,
      "##ules": 3275,
      "60": 3276,
      "adv": 3277,
      "particular": 3278,
      "association": 3279,
      "intervention": 3280,
      "additional": 3281,
      "distribution": 3282,
      "##cle": 3283,
      "might": 3284,
      "##tan": 3285,
      "involved": 3286,
      "01": 3287,
      "##lished": 3288,
      "##ascular": 3289,
      "hydro": 3290,
      "##ening": 3291,
      "down": 3292,
      "eth": 3293,
      "free": 3294,
      "concentrations": 3295,
      "nec": 3296,
      "subjects": 3297,
      "survival": 3298,
      "genetic": 3299,
      "link": 3300,
      "being": 3301,
      "unders": 3302,
      "relationship": 3303,
      "comparis": 3304,
      "bacter": 3305,
      "##xt": 3306,
      "##resp": 3307,
      "life": 3308,
      "compon": 3309,
      "environ": 3310,
      "considered": 3311,
      "##gg": 3312,
      "fil": 3313,
      "section": 3314,
      "rand": 3315,
      "against": 3316,
      "##ung": 3317,
      "admin": 3318,
      "##tric": 3319,
      "contrast": 3320,
      "mouse": 3321,
      "available": 3322,
      "32": 3323,
      "##ke": 3324,
      "##°c": 3325,
      "improve": 3326,
      "characteris": 3327,
      "since": 3328,
      "centr": 3329,
      "detected": 3330,
      "solution": 3331,
      "random": 3332,
      "refer": 3333,
      "##ually": 3334,
      "general": 3335,
      "##ae": 3336,
      "formation": 3337,
      "relative": 3338,
      "##acc": 3339,
      "##ivers": 3340,
      "##ters": 3341,
      "##cept": 3342,
      "pcr": 3343,
      "hom": 3344,
      "very": 3345,
      "μm": 3346,
      "ed": 3347,
      "##otype": 3348,
      "##ci": 3349,
      "enc": 3350,
      "gluc": 3351,
      "commun": 3352,
      "##ount": 3353,
      "recom": 3354,
      "##ns": 3355,
      "super": 3356,
      "hep": 3357,
      "##ables": 3358,
      "ques": 3359,
      "state": 3360,
      "average": 3361,
      "body": 3362,
      "dim": 3363,
      "ke": 3364,
      "see": 3365,
      "neuro": 3366,
      "block": 3367,
      "##ma": 3368,
      "ct": 3369,
      "sal": 3370,
      "ci": 3371,
      "production": 3372,
      "support": 3373,
      "pathway": 3374,
      "##ca": 3375,
      "gly": 3376,
      "##plication": 3377,
      "reduction": 3378,
      "behavior": 3379,
      "contrib": 3380,
      "assay": 3381,
      "##50": 3382,
      "##eric": 3383,
      "##ored": 3384,
      "even": 3385,
      "##ellular": 3386,
      "responses": 3387,
      "weight": 3388,
      "rates": 3389,
      "tra": 3390,
      "indicated": 3391,
      "##ulin": 3392,
      "tak": 3393,
      "provide": 3394,
      "exposure": 3395,
      "##work": 3396,
      "##ission": 3397,
      "##ision": 3398,
      "overall": 3399,
      "ratio": 3400,
      "33": 3401,
      "sites": 3402,
      "area": 3403,
      "revealed": 3404,
      "proper": 3405,
      "##roscop": 3406,
      "##bers": 3407,
      "##az": 3408,
      "ang": 3409,
      "here": 3410,
      "mass": 3411,
      "sci": 3412,
      "virus": 3413,
      "required": 3414,
      "determine": 3415,
      "family": 3416,
      "whereas": 3417,
      "domain": 3418,
      "##anced": 3419,
      "proced": 3420,
      "phosphor": 3421,
      "muc": 3422,
      "medical": 3423,
      "##ude": 3424,
      "various": 3425,
      "flow": 3426,
      "48": 3427,
      "ve": 3428,
      "##ffer": 3429,
      "greater": 3430,
      "peptid": 3431,
      "prior": 3432,
      "mac": 3433,
      "mediated": 3434,
      "mix": 3435,
      "across": 3436,
      "sn": 3437,
      "foc": 3438,
      "extrac": 3439,
      "##eters": 3440,
      "##ets": 3441,
      "corresp": 3442,
      "##ocytes": 3443,
      "##app": 3444,
      "individuals": 3445,
      "suppor": 3446,
      "sus": 3447,
      "##tors": 3448,
      "temperature": 3449,
      "##bl": 3450,
      "regions": 3451,
      "elect": 3452,
      "##ier": 3453,
      "via": 3454,
      "quality": 3455,
      "##amp": 3456,
      "lt": 3457,
      "##ably": 3458,
      "##ended": 3459,
      "##opt": 3460,
      "hospital": 3461,
      "##odies": 3462,
      "psych": 3463,
      "least": 3464,
      "diagnos": 3465,
      "##ule": 3466,
      "auth": 3467,
      "##uss": 3468,
      "##cence": 3469,
      "31": 3470,
      "length": 3471,
      "001": 3472,
      "stimul": 3473,
      "##tegr": 3474,
      "constr": 3475,
      "sw": 3476,
      "press": 3477,
      "cre": 3478,
      "larg": 3479,
      "36": 3480,
      "##up": 3481,
      "##iver": 3482,
      "hypoth": 3483,
      "independent": 3484,
      "material": 3485,
      "sex": 3486,
      "volum": 3487,
      "obj": 3488,
      "followed": 3489,
      "##onic": 3490,
      "polym": 3491,
      "##ymph": 3492,
      "contin": 3493,
      "##eline": 3494,
      "##ised": 3495,
      "##ours": 3496,
      "##tically": 3497,
      "kin": 3498,
      "consistent": 3499,
      "active": 3500,
      "##ask": 3501,
      "fin": 3502,
      "separ": 3503,
      "network": 3504,
      "recent": 3505,
      "left": 3506,
      "position": 3507,
      "##sp": 3508,
      "##ocial": 3509,
      "##red": 3510,
      "##olution": 3511,
      "identify": 3512,
      "##opl": 3513,
      "scre": 3514,
      "environment": 3515,
      "##ands": 3516,
      "diab": 3517,
      "##ometr": 3518,
      "##tt": 3519,
      "##20": 3520,
      "##iate": 3521,
      "##ino": 3522,
      "inhibition": 3523,
      "prepar": 3524,
      "hiv": 3525,
      "integr": 3526,
      "mutations": 3527,
      "frequency": 3528,
      "nan": 3529,
      "developed": 3530,
      "mechanisms": 3531,
      "sensiti": 3532,
      "antibody": 3533,
      "example": 3534,
      "##ists": 3535,
      "scale": 3536,
      "step": 3537,
      "above": 3538,
      "death": 3539,
      "34": 3540,
      "lymph": 3541,
      "##omy": 3542,
      "self": 3543,
      "##fs": 3544,
      "clus": 3545,
      "ach": 3546,
      "compound": 3547,
      "viv": 3548,
      "presented": 3549,
      "prac": 3550,
      "experi": 3551,
      "##plied": 3552,
      "##yr": 3553,
      "resistance": 3554,
      "animals": 3555,
      "##oper": 3556,
      "lines": 3557,
      "neurons": 3558,
      "field": 3559,
      "##inant": 3560,
      "calculated": 3561,
      "controls": 3562,
      "hear": 3563,
      "percent": 3564,
      "ax": 3565,
      "ver": 3566,
      "cross": 3567,
      "liver": 3568,
      "##ynam": 3569,
      "ul": 3570,
      "strateg": 3571,
      "examined": 3572,
      "##ique": 3573,
      "diagnosis": 3574,
      "point": 3575,
      "wild": 3576,
      "promo": 3577,
      "sum": 3578,
      "indicate": 3579,
      "cur": 3580,
      "them": 3581,
      "plasma": 3582,
      "##elial": 3583,
      "types": 3584,
      "##plications": 3585,
      "times": 3586,
      "stage": 3587,
      "apopt": 3588,
      "chron": 3589,
      "##ices": 3590,
      "##atures": 3591,
      "estab": 3592,
      "score": 3593,
      "pain": 3594,
      "derived": 3595,
      "vitro": 3596,
      "vivo": 3597,
      "bm": 3598,
      "experimental": 3599,
      "##tis": 3600,
      "symptoms": 3601,
      "te": 3602,
      "read": 3603,
      "performance": 3604,
      "increasing": 3605,
      "mutant": 3606,
      "45": 3607,
      "defined": 3608,
      "conducted": 3609,
      "##icity": 3610,
      "go": 3611,
      "occurr": 3612,
      "fluores": 3613,
      "lung": 3614,
      "rats": 3615,
      "mrna": 3616,
      "rh": 3617,
      "oxid": 3618,
      "exc": 3619,
      "tested": 3620,
      "kg": 3621,
      "bone": 3622,
      "##utes": 3623,
      "circ": 3624,
      "weeks": 3625,
      "highly": 3626,
      "fail": 3627,
      "five": 3628,
      "lys": 3629,
      "lack": 3630,
      "univers": 3631,
      "star": 3632,
      "##13": 3633,
      "observ": 3634,
      "prolifer": 3635,
      "les": 3636,
      "cycl": 3637,
      "elec": 3638,
      "instit": 3639,
      "regulation": 3640,
      "oper": 3641,
      "status": 3642,
      "##fp": 3643,
      "##itation": 3644,
      "subsequ": 3645,
      "##aneous": 3646,
      "##iving": 3647,
      "prec": 3648,
      "medium": 3649,
      "lig": 3650,
      "collected": 3651,
      "ill": 3652,
      "dist": 3653,
      "##more": 3654,
      "effective": 3655,
      "her": 3656,
      "2010": 3657,
      "##iting": 3658,
      "right": 3659,
      "##ient": 3660,
      "shows": 3661,
      "short": 3662,
      "maxim": 3663,
      "cod": 3664,
      "##cin": 3665,
      "##ergy": 3666,
      "orig": 3667,
      "hr": 3668,
      "carr": 3669,
      "correlation": 3670,
      "##ectiv": 3671,
      "##16": 3672,
      "parameters": 3673,
      "ur": 3674,
      "provided": 3675,
      "##nas": 3676,
      "furthermore": 3677,
      "##itis": 3678,
      "magn": 3679,
      "##onding": 3680,
      "amp": 3681,
      "ability": 3682,
      "assessed": 3683,
      "mar": 3684,
      "outcomes": 3685,
      "social": 3686,
      "##ibility": 3687,
      "program": 3688,
      "cellular": 3689,
      "later": 3690,
      "focus": 3691,
      "da": 3692,
      "##ibr": 3693,
      "rap": 3694,
      "##de": 3695,
      "light": 3696,
      "carb": 3697,
      "excl": 3698,
      "repe": 3699,
      "top": 3700,
      "##line": 3701,
      "approxim": 3702,
      "baseline": 3703,
      "heter": 3704,
      "proble": 3705,
      "##ols": 3706,
      "##ces": 3707,
      "##eu": 3708,
      "sequences": 3709,
      "tub": 3710,
      "##uk": 3711,
      "2009": 3712,
      "valid": 3713,
      "decrease": 3714,
      "pair": 3715,
      "##activ": 3716,
      "##amin": 3717,
      "bio": 3718,
      "interactions": 3719,
      "exhib": 3720,
      "##erv": 3721,
      "##ators": 3722,
      "comparison": 3723,
      "chronic": 3724,
      "cop": 3725,
      "##ides": 3726,
      "record": 3727,
      "fold": 3728,
      "80": 3729,
      "applied": 3730,
      "does": 3731,
      "bene": 3732,
      "culture": 3733,
      "injur": 3734,
      "ampl": 3735,
      "##ances": 3736,
      "visual": 3737,
      "38": 3738,
      "breast": 3739,
      "##posed": 3740,
      "another": 3741,
      "##lic": 3742,
      "immune": 3743,
      "deg": 3744,
      "##14": 3745,
      "##ector": 3746,
      "evaluated": 3747,
      "##tain": 3748,
      "sour": 3749,
      "2011": 3750,
      "wt": 3751,
      "cs": 3752,
      "##ids": 3753,
      "initial": 3754,
      "imaging": 3755,
      "achie": 3756,
      "coh": 3757,
      "know": 3758,
      "##oy": 3759,
      "muscle": 3760,
      "##ogenesis": 3761,
      "buffer": 3762,
      "accur": 3763,
      "##etes": 3764,
      "benef": 3765,
      "##ensive": 3766,
      "2008": 3767,
      "supplementary": 3768,
      "inflammatory": 3769,
      "##igr": 3770,
      "systems": 3771,
      "pressure": 3772,
      "minim": 3773,
      "aim": 3774,
      "2012": 3775,
      "volume": 3776,
      "fat": 3777,
      "preval": 3778,
      "characteristics": 3779,
      "tox": 3780,
      "err": 3781,
      "surgery": 3782,
      "suggesting": 3783,
      "pul": 3784,
      "usa": 3785,
      "##53": 3786,
      "dam": 3787,
      "antibodies": 3788,
      "substr": 3789,
      "selected": 3790,
      "##otherap": 3791,
      "##iciency": 3792,
      "soft": 3793,
      "displ": 3794,
      "optim": 3795,
      "##ography": 3796,
      "pan": 3797,
      "six": 3798,
      "##ially": 3799,
      "images": 3800,
      "##iat": 3801,
      "sensitivity": 3802,
      "##ints": 3803,
      "##ondr": 3804,
      "detection": 3805,
      "transf": 3806,
      "better": 3807,
      "pc": 3808,
      "report": 3809,
      "electr": 3810,
      "success": 3811,
      "##amine": 3812,
      "refl": 3813,
      "eng": 3814,
      "##ik": 3815,
      "compos": 3816,
      "glucose": 3817,
      "##vant": 3818,
      "##ground": 3819,
      "spectr": 3820,
      "##bi": 3821,
      "phot": 3822,
      "##ler": 3823,
      "density": 3824,
      "##da": 3825,
      "2007": 3826,
      "##go": 3827,
      "cri": 3828,
      "impact": 3829,
      "##ocy": 3830,
      "##eed": 3831,
      "variables": 3832,
      "peak": 3833,
      "key": 3834,
      "amino": 3835,
      "##abil": 3836,
      "##oring": 3837,
      "pa": 3838,
      "##till": 3839,
      "##encing": 3840,
      "physical": 3841,
      "##ower": 3842,
      "genome": 3843,
      "energy": 3844,
      "investigated": 3845,
      "##bp": 3846,
      "##emia": 3847,
      "trials": 3848,
      "##active": 3849,
      "statistical": 3850,
      "transl": 3851,
      "national": 3852,
      "arr": 3853,
      "##ochondr": 3854,
      "few": 3855,
      "transfer": 3856,
      "##ta": 3857,
      "42": 3858,
      "experiment": 3859,
      "pap": 3860,
      "tumors": 3861,
      "##man": 3862,
      "question": 3863,
      "resulting": 3864,
      "90": 3865,
      "ren": 3866,
      "index": 3867,
      "often": 3868,
      "mortal": 3869,
      "##me": 3870,
      "2013": 3871,
      "background": 3872,
      "pathways": 3873,
      "criter": 3874,
      "authors": 3875,
      "labor": 3876,
      "##enced": 3877,
      "tissues": 3878,
      "properties": 3879,
      "##ogenic": 3880,
      "°c": 3881,
      "##ots": 3882,
      "##dr": 3883,
      "continu": 3884,
      "mortality": 3885,
      "39": 3886,
      "mitochondr": 3887,
      "scores": 3888,
      "nod": 3889,
      "dys": 3890,
      "discuss": 3891,
      "limited": 3892,
      "surve": 3893,
      "##ustr": 3894,
      "70": 3895,
      "##hold": 3896,
      "hand": 3897,
      "nat": 3898,
      "protoc": 3899,
      "recogn": 3900,
      "morph": 3901,
      "diseases": 3902,
      "##izing": 3903,
      "diss": 3904,
      "absence": 3905,
      "fraction": 3906,
      "##ii": 3907,
      "##fficient": 3908,
      "task": 3909,
      "##usions": 3910,
      "##ather": 3911,
      "cogn": 3912,
      "##ware": 3913,
      "manag": 3914,
      "made": 3915,
      "events": 3916,
      "arter": 3917,
      "play": 3918,
      "content": 3919,
      "##pec": 3920,
      "combination": 3921,
      "##unction": 3922,
      "interes": 3923,
      "outcome": 3924,
      "men": 3925,
      "university": 3926,
      "chann": 3927,
      "##18": 3928,
      "ge": 3929,
      "poor": 3930,
      "dm": 3931,
      "##asis": 3932,
      "biological": 3933,
      "##istration": 3934,
      "medic": 3935,
      "cause": 3936,
      "isolated": 3937,
      "##nf": 3938,
      "acute": 3939,
      "##io": 3940,
      "43": 3941,
      "studied": 3942,
      "strain": 3943,
      "##cep": 3944,
      "seen": 3945,
      "elev": 3946,
      "##mon": 3947,
      "final": 3948,
      "##etal": 3949,
      "moreover": 3950,
      "include": 3951,
      "##17": 3952,
      "mid": 3953,
      "label": 3954,
      "##ales": 3955,
      "2006": 3956,
      "areas": 3957,
      "##uble": 3958,
      "food": 3959,
      "impair": 3960,
      "##ling": 3961,
      "##15": 3962,
      "##hyd": 3963,
      "##ochem": 3964,
      "##ones": 3965,
      "detail": 3966,
      "hours": 3967,
      "log": 3968,
      "##ycle": 3969,
      "##ancy": 3970,
      "deliver": 3971,
      "198": 3972,
      "sem": 3973,
      "still": 3974,
      "measures": 3975,
      "propor": 3976,
      "fit": 3977,
      "suggested": 3978,
      "mutation": 3979,
      "corresponding": 3980,
      "##ledge": 3981,
      "confirmed": 3982,
      "##arch": 3983,
      "incubated": 3984,
      "##uture": 3985,
      "diet": 3986,
      "categ": 3987,
      "pharm": 3988,
      "monit": 3989,
      "nor": 3990,
      "##ecting": 3991,
      "dynam": 3992,
      "approximately": 3993,
      "##arr": 3994,
      "regr": 3995,
      "ic": 3996,
      "##urn": 3997,
      "recently": 3998,
      "generated": 3999,
      "lay": 4000,
      "##ops": 4001,
      "secre": 4002,
      "heart": 4003,
      "received": 4004,
      "male": 4005,
      "##inc": 4006,
      "##ising": 4007,
      "novel": 4008,
      "util": 4009,
      "severe": 4010,
      "fix": 4011,
      "release": 4012,
      "off": 4013,
      "infected": 4014,
      "suggests": 4015,
      "kinase": 4016,
      "##aff": 4017,
      "##terior": 4018,
      "load": 4019,
      "accum": 4020,
      "clear": 4021,
      "##otherapy": 4022,
      "ess": 4023,
      "microscop": 4024,
      "metast": 4025,
      "tests": 4026,
      "animal": 4027,
      "processes": 4028,
      "image": 4029,
      "serv": 4030,
      "proliferation": 4031,
      "diabetes": 4032,
      "act": 4033,
      "quantit": 4034,
      "sd": 4035,
      "##istic": 4036,
      "2014": 4037,
      "plac": 4038,
      "influence": 4039,
      "##ture": 4040,
      "increases": 4041,
      "##ulf": 4042,
      "##plant": 4043,
      "44": 4044,
      "conn": 4045,
      "strains": 4046,
      "injury": 4047,
      "cycle": 4048,
      "na": 4049,
      "phosphorylation": 4050,
      "##lor": 4051,
      "rapid": 4052,
      "thir": 4053,
      "##astic": 4054,
      "therapeu": 4055,
      "##ulate": 4056,
      "added": 4057,
      "##ina": 4058,
      "sil": 4059,
      "##pre": 4060,
      "structures": 4061,
      "s1": 4062,
      "##ems": 4063,
      "smok": 4064,
      "access": 4065,
      "educ": 4066,
      "secondary": 4067,
      "tog": 4068,
      "adap": 4069,
      "altern": 4070,
      "biom": 4071,
      "versus": 4072,
      "upon": 4073,
      "transm": 4074,
      "features": 4075,
      "assessment": 4076,
      "prevalence": 4077,
      "bo": 4078,
      "##agen": 4079,
      "complete": 4080,
      "affect": 4081,
      "ref": 4082,
      "2005": 4083,
      "together": 4084,
      "##tial": 4085,
      "receptors": 4086,
      "help": 4087,
      "functions": 4088,
      "75": 4089,
      "##otid": 4090,
      "apoptosis": 4091,
      "##utr": 4092,
      "##cript": 4093,
      "##vement": 4094,
      "cd4": 4095,
      "training": 4096,
      "healthy": 4097,
      "populations": 4098,
      "instr": 4099,
      "expected": 4100,
      "central": 4101,
      "center": 4102,
      "directly": 4103,
      "##roc": 4104,
      "real": 4105,
      "inhibitor": 4106,
      "injection": 4107,
      "pp": 4108,
      "wash": 4109,
      "mc": 4110,
      "##grad": 4111,
      "necess": 4112,
      "enzyme": 4113,
      "wa": 4114,
      "future": 4115,
      "##he": 4116,
      "vacc": 4117,
      "acet": 4118,
      "migr": 4119,
      "colon": 4120,
      "##yg": 4121,
      "insulin": 4122,
      "chall": 4123,
      "bound": 4124,
      "full": 4125,
      "##tinal": 4126,
      "##se": 4127,
      "activated": 4128,
      "quantif": 4129,
      "diffic": 4130,
      "##tle": 4131,
      "##enting": 4132,
      "seg": 4133,
      "acqu": 4134,
      "##iological": 4135,
      "##19": 4136,
      "clos": 4137,
      "asp": 4138,
      "##emb": 4139,
      "critical": 4140,
      "##ying": 4141,
      "##lying": 4142,
      "alc": 4143,
      "lat": 4144,
      "frag": 4145,
      "measurements": 4146,
      "patterns": 4147,
      "##entially": 4148,
      "bp": 4149,
      "##not": 4150,
      "##pha": 4151,
      "produced": 4152,
      "##ining": 4153,
      "liter": 4154,
      "differentiation": 4155,
      "old": 4156,
      "##ploy": 4157,
      "##ographic": 4158,
      "side": 4159,
      "adult": 4160,
      "youn": 4161,
      "summ": 4162,
      "knowledge": 4163,
      "criteria": 4164,
      "regression": 4165,
      "staining": 4166,
      "his": 4167,
      "indicating": 4168,
      "##ven": 4169,
      "though": 4170,
      "##ame": 4171,
      "encod": 4172,
      "adul": 4173,
      "##orb": 4174,
      "##tice": 4175,
      "μg": 4176,
      "stimulation": 4177,
      "components": 4178,
      "##ipp": 4179,
      "conclusion": 4180,
      "median": 4181,
      "46": 4182,
      "administration": 4183,
      "##ld": 4184,
      "estimated": 4185,
      "much": 4186,
      "software": 4187,
      "bro": 4188,
      "caused": 4189,
      "distin": 4190,
      "##rome": 4191,
      "cytok": 4192,
      "hs": 4193,
      "hyper": 4194,
      "drugs": 4195,
      "reas": 4196,
      "##emic": 4197,
      "##25": 4198,
      "##of": 4199,
      "##ogene": 4200,
      "young": 4201,
      "##ont": 4202,
      "moder": 4203,
      "##bry": 4204,
      "toward": 4205,
      "molecules": 4206,
      "peptide": 4207,
      "taken": 4208,
      "activities": 4209,
      "##fact": 4210,
      "proposed": 4211,
      "promot": 4212,
      "testing": 4213,
      "facil": 4214,
      "power": 4215,
      "effic": 4216,
      "hal": 4217,
      "affected": 4218,
      "##itu": 4219,
      "dos": 4220,
      "mel": 4221,
      "way": 4222,
      "##ga": 4223,
      "depend": 4224,
      "guid": 4225,
      "rad": 4226,
      "good": 4227,
      "interesting": 4228,
      "##omal": 4229,
      "##put": 4230,
      "along": 4231,
      "female": 4232,
      "catal": 4233,
      "alcoh": 4234,
      "glyc": 4235,
      "able": 4236,
      "lear": 4237,
      "alter": 4238,
      "##ream": 4239,
      "epith": 4240,
      "##40": 4241,
      "proportion": 4242,
      "proj": 4243,
      "cp": 4244,
      "intrac": 4245,
      "ns": 4246,
      "2004": 4247,
      "residues": 4248,
      "intro": 4249,
      "##itr": 4250,
      "dev": 4251,
      "combined": 4252,
      "embry": 4253,
      "nuclear": 4254,
      "##orph": 4255,
      "enhanced": 4256,
      "conte": 4257,
      "linear": 4258,
      "##eding": 4259,
      "electro": 4260,
      "47": 4261,
      "terminal": 4262,
      "view": 4263,
      "ever": 4264,
      "##tre": 4265,
      "intensity": 4266,
      "cere": 4267,
      "desp": 4268,
      "pi": 4269,
      "##tanding": 4270,
      "synthesis": 4271,
      "therapeutic": 4272,
      "points": 4273,
      "##ytic": 4274,
      "##otor": 4275,
      "##operative": 4276,
      "detect": 4277,
      "consum": 4278,
      "##ople": 4279,
      "management": 4280,
      "despite": 4281,
      "##27": 4282,
      "##osome": 4283,
      "alcohol": 4284,
      "ov": 4285,
      "poly": 4286,
      "manus": 4287,
      "55": 4288,
      "doc": 4289,
      "##opath": 4290,
      "allel": 4291,
      "whole": 4292,
      "damage": 4293,
      "##30": 4294,
      "consequ": 4295,
      "##anol": 4296,
      "pregn": 4297,
      "alone": 4298,
      "2015": 4299,
      "compounds": 4300,
      "##otypes": 4301,
      "##pa": 4302,
      "har": 4303,
      "##pose": 4304,
      "improved": 4305,
      "resulted": 4306,
      "yield": 4307,
      "setting": 4308,
      "recover": 4309,
      "recru": 4310,
      "therm": 4311,
      "##inary": 4312,
      "ra": 4313,
      "2000": 4314,
      "wor": 4315,
      "##isted": 4316,
      "glob": 4317,
      "##oplasm": 4318,
      "manuscript": 4319,
      "induc": 4320,
      "specif": 4321,
      "relatively": 4322,
      "evaluate": 4323,
      "viral": 4324,
      "dig": 4325,
      "alg": 4326,
      "larger": 4327,
      "cognitive": 4328,
      "people": 4329,
      "don": 4330,
      "transform": 4331,
      "incidence": 4332,
      "dil": 4333,
      "##order": 4334,
      "regulated": 4335,
      "##ylated": 4336,
      "iii": 4337,
      "##ygen": 4338,
      "understanding": 4339,
      "mak": 4340,
      "rt": 4341,
      "finally": 4342,
      "49": 4343,
      "##orders": 4344,
      "saf": 4345,
      "structural": 4346,
      "recomm": 4347,
      "efficacy": 4348,
      "bir": 4349,
      "require": 4350,
      "amount": 4351,
      "ear": 4352,
      "41": 4353,
      "glut": 4354,
      "conclusions": 4355,
      "rather": 4356,
      "ga": 4357,
      "espec": 4358,
      "matr": 4359,
      "procedure": 4360,
      "ey": 4361,
      "##olar": 4362,
      "germ": 4363,
      "fluorescence": 4364,
      "##gl": 4365,
      "rs": 4366,
      "selection": 4367,
      "place": 4368,
      "especially": 4369,
      "iv": 4370,
      "carried": 4371,
      "##ank": 4372,
      "cas": 4373,
      "correlated": 4374,
      "ng": 4375,
      "states": 4376,
      "cluster": 4377,
      "characterized": 4378,
      "established": 4379,
      "progression": 4380,
      "carcin": 4381,
      "cohort": 4382,
      "countr": 4383,
      "degrad": 4384,
      "μl": 4385,
      "reference": 4386,
      "hc": 4387,
      "statistically": 4388,
      "##enz": 4389,
      "invas": 4390,
      "evaluation": 4391,
      "duration": 4392,
      "reach": 4393,
      "pm": 4394,
      "72": 4395,
      "predicted": 4396,
      "##tib": 4397,
      "assum": 4398,
      "chemical": 4399,
      "suppress": 4400,
      "pt": 4401,
      "stem": 4402,
      "history": 4403,
      "synd": 4404,
      "##ogenous": 4405,
      "##read": 4406,
      "skin": 4407,
      "induction": 4408,
      "respond": 4409,
      "ta": 4410,
      "limit": 4411,
      "reduce": 4412,
      "community": 4413,
      "disorders": 4414,
      "essential": 4415,
      "oste": 4416,
      "employ": 4417,
      "##oint": 4418,
      "maximum": 4419,
      "##ument": 4420,
      "##uded": 4421,
      "gas": 4422,
      "host": 4423,
      "##rote": 4424,
      "##tine": 4425,
      "od": 4426,
      "supported": 4427,
      "##ged": 4428,
      "pbs": 4429,
      "terms": 4430,
      "literature": 4431,
      "markers": 4432,
      "air": 4433,
      "display": 4434,
      "cardiac": 4435,
      "##isting": 4436,
      "open": 4437,
      "mes": 4438,
      "##kn": 4439,
      "adults": 4440,
      "artic": 4441,
      "##ih": 4442,
      "particularly": 4443,
      "match": 4444,
      "md": 4445,
      "map": 4446,
      "gfp": 4447,
      "datab": 4448,
      "screening": 4449,
      "2003": 4450,
      "egf": 4451,
      "##estern": 4452,
      "appropr": 4453,
      "reduc": 4454,
      "cost": 4455,
      "abn": 4456,
      "means": 4457,
      "prefer": 4458,
      "65": 4459,
      "##22": 4460,
      "products": 4461,
      "public": 4462,
      "##ocyte": 4463,
      "ak": 4464,
      "promoter": 4465,
      "percentage": 4466,
      "##ologic": 4467,
      "##ou": 4468,
      "head": 4469,
      "objective": 4470,
      "lit": 4471,
      "inhibitors": 4472,
      "ds": 4473,
      "plat": 4474,
      "specifically": 4475,
      "##80": 4476,
      "capac": 4477,
      "protocol": 4478,
      "##ress": 4479,
      "##ense": 4480,
      "macroph": 4481,
      "investigate": 4482,
      "##hes": 4483,
      "##anes": 4484,
      "##olic": 4485,
      "lipid": 4486,
      "metabolic": 4487,
      "cover": 4488,
      "56": 4489,
      "##oz": 4490,
      "context": 4491,
      "emerg": 4492,
      "distinct": 4493,
      "relevant": 4494,
      "internal": 4495,
      "plant": 4496,
      "remains": 4497,
      "atp": 4498,
      "introduc": 4499,
      "needed": 4500,
      "interest": 4501,
      "home": 4502,
      "##eness": 4503,
      "demonstrate": 4504,
      "perce": 4505,
      "hypert": 4506,
      "americ": 4507,
      "adjus": 4508,
      "epid": 4509,
      "substrate": 4510,
      "white": 4511,
      "##arding": 4512,
      "##acts": 4513,
      "cryst": 4514,
      "hd": 4515,
      "variation": 4516,
      "##izes": 4517,
      "lesions": 4518,
      "scan": 4519,
      "sir": 4520,
      "subsequent": 4521,
      "53": 4522,
      "leading": 4523,
      "green": 4524,
      "memory": 4525,
      "matrix": 4526,
      "hy": 4527,
      "##omer": 4528,
      "##ires": 4529,
      "wid": 4530,
      "inflammation": 4531,
      "sensitive": 4532,
      "den": 4533,
      "best": 4534,
      "below": 4535,
      "cou": 4536,
      "having": 4537,
      "indicates": 4538,
      "##29": 4539,
      "western": 4540,
      "vascular": 4541,
      "laboratory": 4542,
      "bacterial": 4543,
      "spect": 4544,
      "##ool": 4545,
      "sod": 4546,
      "recomb": 4547,
      "surgical": 4548,
      "##urse": 4549,
      "significance": 4550,
      "cho": 4551,
      "abnormal": 4552,
      "##23": 4553,
      "highest": 4554,
      "##aged": 4555,
      "knock": 4556,
      "fas": 4557,
      "provides": 4558,
      "##otox": 4559,
      "next": 4560,
      "##24": 4561,
      "recorded": 4562,
      "third": 4563,
      "overe": 4564,
      "sle": 4565,
      "bind": 4566,
      "call": 4567,
      "strength": 4568,
      "restric": 4569,
      "showing": 4570,
      "difficult": 4571,
      "por": 4572,
      "wr": 4573,
      "failure": 4574,
      "##to": 4575,
      "acids": 4576,
      "ss": 4577,
      "##ney": 4578,
      "endoth": 4579,
      "vector": 4580,
      "sr": 4581,
      "arg": 4582,
      "##tex": 4583,
      "54": 4584,
      "source": 4585,
      "published": 4586,
      "processing": 4587,
      "##icular": 4588,
      "bios": 4589,
      "expressing": 4590,
      "##ief": 4591,
      "overex": 4592,
      "polymer": 4593,
      "component": 4594,
      "alpha": 4595,
      "mitochondrial": 4596,
      "##inated": 4597,
      "bur": 4598,
      "500": 4599,
      "##duce": 4600,
      "shif": 4601,
      "pharmac": 4602,
      "search": 4603,
      "renal": 4604,
      "interpre": 4605,
      "underst": 4606,
      "##atal": 4607,
      "##ape": 4608,
      "designed": 4609,
      "perip": 4610,
      "sa": 4611,
      "oxygen": 4612,
      "natural": 4613,
      "assays": 4614,
      "action": 4615,
      "exposed": 4616,
      "##omp": 4617,
      "##70": 4618,
      "concer": 4619,
      "comple": 4620,
      "depression": 4621,
      "error": 4622,
      "regard": 4623,
      "linked": 4624,
      "prevent": 4625,
      "##yth": 4626,
      "##bo": 4627,
      "categor": 4628,
      "phenotype": 4629,
      "numbers": 4630,
      "2002": 4631,
      "mamm": 4632,
      "##erved": 4633,
      "##reshold": 4634,
      "fer": 4635,
      "##ycin": 4636,
      "gt": 4637,
      "mt": 4638,
      "spati": 4639,
      "address": 4640,
      "bal": 4641,
      "controlled": 4642,
      "##inity": 4643,
      "##stream": 4644,
      "##ams": 4645,
      "##set": 4646,
      "degree": 4647,
      "paper": 4648,
      "prepared": 4649,
      "variable": 4650,
      "nf": 4651,
      "pk": 4652,
      "ultr": 4653,
      "successful": 4654,
      "conj": 4655,
      "repro": 4656,
      "iss": 4657,
      "##obl": 4658,
      "chain": 4659,
      "subun": 4660,
      "##asts": 4661,
      "##ysis": 4662,
      "what": 4663,
      "elevated": 4664,
      "cut": 4665,
      "beta": 4666,
      "regarding": 4667,
      "##ls": 4668,
      "gel": 4669,
      "aden": 4670,
      "version": 4671,
      "contribute": 4672,
      "rab": 4673,
      "mutants": 4674,
      "pass": 4675,
      "hypothesis": 4676,
      "color": 4677,
      "members": 4678,
      "implement": 4679,
      "necessary": 4680,
      "algor": 4681,
      "domains": 4682,
      "threshold": 4683,
      "##26": 4684,
      "algorith": 4685,
      "##osomes": 4686,
      "squ": 4687,
      "hp": 4688,
      "##ings": 4689,
      "exerc": 4690,
      "last": 4691,
      "daily": 4692,
      "she": 4693,
      "##itude": 4694,
      "practice": 4695,
      "series": 4696,
      "##arily": 4697,
      "##rich": 4698,
      "ventr": 4699,
      "stable": 4700,
      "##val": 4701,
      "##land": 4702,
      "appropriate": 4703,
      "occur": 4704,
      "tnf": 4705,
      "older": 4706,
      "useful": 4707,
      "tex": 4708,
      "peripher": 4709,
      "reports": 4710,
      "survey": 4711,
      "kit": 4712,
      "const": 4713,
      "metabolism": 4714,
      "sig": 4715,
      "##21": 4716,
      "##part": 4717,
      "actin": 4718,
      "##istered": 4719,
      "plan": 4720,
      "thick": 4721,
      "application": 4722,
      "64": 4723,
      "##ateral": 4724,
      "note": 4725,
      "oral": 4726,
      "onset": 4727,
      "core": 4728,
      "##uring": 4729,
      "antigen": 4730,
      "coupl": 4731,
      "##uts": 4732,
      "great": 4733,
      "recurr": 4734,
      "blue": 4735,
      "mill": 4736,
      "importance": 4737,
      "##encies": 4738,
      "##mit": 4739,
      "situ": 4740,
      "syndrome": 4741,
      "ros": 4742,
      "wide": 4743,
      "soci": 4744,
      "##38": 4745,
      "96": 4746,
      "run": 4747,
      "##ophil": 4748,
      "##otide": 4749,
      "abund": 4750,
      "materials": 4751,
      "trig": 4752,
      "facilit": 4753,
      "sequencing": 4754,
      "ion": 4755,
      "##brid": 4756,
      "layer": 4757,
      "##rogen": 4758,
      "2016": 4759,
      "around": 4760,
      "diam": 4761,
      "strategies": 4762,
      "confirm": 4763,
      "52": 4764,
      "##ulating": 4765,
      "inst": 4766,
      "education": 4767,
      "half": 4768,
      "induce": 4769,
      "disorder": 4770,
      "signals": 4771,
      "conv": 4772,
      "##icle": 4773,
      "unl": 4774,
      "##itrogen": 4775,
      "intracellular": 4776,
      "59": 4777,
      "technique": 4778,
      "fixed": 4779,
      "ste": 4780,
      "challen": 4781,
      "progress": 4782,
      "measurement": 4783,
      "famil": 4784,
      "diagnostic": 4785,
      "57": 4786,
      "substan": 4787,
      "reli": 4788,
      "cultured": 4789,
      "tempor": 4790,
      "eu": 4791,
      "##ending": 4792,
      "plants": 4793,
      "quantitative": 4794,
      "modified": 4795,
      "capacity": 4796,
      "2001": 4797,
      "continuous": 4798,
      "progn": 4799,
      "las": 4800,
      "until": 4801,
      "bacteria": 4802,
      "ub": 4803,
      "58": 4804,
      "angi": 4805,
      "##uration": 4806,
      "occurred": 4807,
      "every": 4808,
      "learning": 4809,
      "located": 4810,
      "##oxid": 4811,
      "panel": 4812,
      "environmental": 4813,
      "minutes": 4814,
      "coe": 4815,
      "kid": 4816,
      "event": 4817,
      "overl": 4818,
      "distance": 4819,
      "agents": 4820,
      "wall": 4821,
      "rp": 4822,
      "##itin": 4823,
      "identification": 4824,
      "double": 4825,
      "enhance": 4826,
      "majority": 4827,
      "sections": 4828,
      "##ochemical": 4829,
      "incor": 4830,
      "enrich": 4831,
      "transition": 4832,
      "olig": 4833,
      "##uter": 4834,
      "##k1": 4835,
      "##ious": 4836,
      "##istry": 4837,
      "67": 4838,
      "##28": 4839,
      "rang": 4840,
      "generation": 4841,
      "motor": 4842,
      "eas": 4843,
      "##lr": 4844,
      "targets": 4845,
      "adoles": 4846,
      "ens": 4847,
      "experience": 4848,
      "##tributed": 4849,
      "colum": 4850,
      "profil": 4851,
      "similarly": 4852,
      "origin": 4853,
      "evolution": 4854,
      "du": 4855,
      "repl": 4856,
      "##34": 4857,
      "accumulation": 4858,
      "basis": 4859,
      "transport": 4860,
      "seed": 4861,
      "ifn": 4862,
      "product": 4863,
      "##by": 4864,
      "hz": 4865,
      "led": 4866,
      "world": 4867,
      "delivery": 4868,
      "procedures": 4869,
      "##rosis": 4870,
      "approved": 4871,
      "longer": 4872,
      "hb": 4873,
      "##gs": 4874,
      "##ights": 4875,
      "prost": 4876,
      "degradation": 4877,
      "##cted": 4878,
      "##co": 4879,
      "questionna": 4880,
      "h2": 4881,
      "gp": 4882,
      "##eck": 4883,
      "strategy": 4884,
      "resolution": 4885,
      "##iques": 4886,
      "rob": 4887,
      "cert": 4888,
      "##icial": 4889,
      "cos": 4890,
      "chlor": 4891,
      "51": 4892,
      "construc": 4893,
      "ts": 4894,
      "approaches": 4895,
      "specificity": 4896,
      "dele": 4897,
      "yet": 4898,
      "nature": 4899,
      "##−1": 4900,
      "##ovascular": 4901,
      "must": 4902,
      "##ologies": 4903,
      "##a1": 4904,
      "##nt": 4905,
      "global": 4906,
      "##ope": 4907,
      "certain": 4908,
      "##orption": 4909,
      "resistant": 4910,
      "iso": 4911,
      "##iatric": 4912,
      "##mic": 4913,
      "course": 4914,
      "problem": 4915,
      "##function": 4916,
      "agre": 4917,
      "blot": 4918,
      "ner": 4919,
      "cf": 4920,
      "room": 4921,
      "99": 4922,
      "accuracy": 4923,
      "direction": 4924,
      "##aft": 4925,
      "##tation": 4926,
      "grade": 4927,
      "cc": 4928,
      "##oids": 4929,
      "treatments": 4930,
      "near": 4931,
      "##thers": 4932,
      "generally": 4933,
      "cam": 4934,
      "genomic": 4935,
      "variants": 4936,
      "strongly": 4937,
      "##ger": 4938,
      "purified": 4939,
      "susp": 4940,
      "techniques": 4941,
      "ant": 4942,
      "stro": 4943,
      "epithelial": 4944,
      "interestingly": 4945,
      "devi": 4946,
      "##terol": 4947,
      "regulatory": 4948,
      "broad": 4949,
      "additionally": 4950,
      "problems": 4951,
      "forms": 4952,
      "var": 4953,
      "cand": 4954,
      "conform": 4955,
      "##omas": 4956,
      "collection": 4957,
      "##esized": 4958,
      "pen": 4959,
      "imm": 4960,
      "marked": 4961,
      "respir": 4962,
      "methyl": 4963,
      "slight": 4964,
      "##ophag": 4965,
      "marker": 4966,
      "adjusted": 4967,
      "63": 4968,
      "##osomal": 4969,
      "66": 4970,
      "##take": 4971,
      "represents": 4972,
      "##bor": 4973,
      "resour": 4974,
      "exercise": 4975,
      "attention": 4976,
      "toler": 4977,
      "undergo": 4978,
      "interval": 4979,
      "shar": 4980,
      "examination": 4981,
      "graph": 4982,
      "datas": 4983,
      "interventions": 4984,
      "mixed": 4985,
      "appar": 4986,
      "ster": 4987,
      "##eti": 4988,
      "delay": 4989,
      "improvement": 4990,
      "others": 4991,
      "##ench": 4992,
      "labeled": 4993,
      "mainly": 4994,
      "electron": 4995,
      "media": 4996,
      "cortex": 4997,
      "cys": 4998,
      "channel": 4999,
      "##ocal": 5000,
      "panc": 5001,
      "##ils": 5002,
      "endothelial": 5003,
      "##rh": 5004,
      "physiological": 5005,
      "sleep": 5006,
      "np": 5007,
      "unique": 5008,
      "peripheral": 5009,
      "black": 5010,
      "##ceptib": 5011,
      "alternative": 5012,
      "assemb": 5013,
      "##ometry": 5014,
      "weak": 5015,
      "calcium": 5016,
      "##plicated": 5017,
      "mental": 5018,
      "##greg": 5019,
      "examine": 5020,
      "complications": 5021,
      "gs": 5022,
      "##isms": 5023,
      "infections": 5024,
      "##aa": 5025,
      "##eration": 5026,
      "females": 5027,
      "##onomic": 5028,
      "leads": 5029,
      "underlying": 5030,
      "##orts": 5031,
      "achieved": 5032,
      "candid": 5033,
      "efficiency": 5034,
      "intern": 5035,
      "malign": 5036,
      "horm": 5037,
      "enzymes": 5038,
      "database": 5039,
      "noted": 5040,
      "##apping": 5041,
      "account": 5042,
      "birth": 5043,
      "stre": 5044,
      "trend": 5045,
      "##estinal": 5046,
      "uptake": 5047,
      "complexes": 5048,
      "migration": 5049,
      "3d": 5050,
      "representative": 5051,
      "##ott": 5052,
      "##monary": 5053,
      "cultures": 5054,
      "susceptib": 5055,
      "carbon": 5056,
      "stability": 5057,
      "late": 5058,
      "repair": 5059,
      "specim": 5060,
      "responsible": 5061,
      "prop": 5062,
      "potentially": 5063,
      "extent": 5064,
      "exhibited": 5065,
      "eight": 5066,
      "spatial": 5067,
      "##mediate": 5068,
      "inhibited": 5069,
      "reason": 5070,
      "##57": 5071,
      "tm": 5072,
      "ow": 5073,
      "produce": 5074,
      "smoking": 5075,
      "hydrox": 5076,
      "currently": 5077,
      "myc": 5078,
      "discover": 5079,
      "enti": 5080,
      "##dom": 5081,
      "little": 5082,
      "tri": 5083,
      "oc": 5084,
      "countries": 5085,
      "moderate": 5086,
      "indeed": 5087,
      "bil": 5088,
      "##que": 5089,
      "##b1": 5090,
      "ld": 5091,
      "causes": 5092,
      "##tially": 5093,
      "fibro": 5094,
      "##acl": 5095,
      "##argeting": 5096,
      "school": 5097,
      "align": 5098,
      "pf": 5099,
      "contribution": 5100,
      "##umin": 5101,
      "##ively": 5102,
      "adip": 5103,
      "leuk": 5104,
      "p53": 5105,
      "##ened": 5106,
      "appears": 5107,
      "far": 5108,
      "incorpor": 5109,
      "occurs": 5110,
      "##iety": 5111,
      "ann": 5112,
      "##p1": 5113,
      "la": 5114,
      "institution": 5115,
      "repeated": 5116,
      "68": 5117,
      "washed": 5118,
      "services": 5119,
      "purpose": 5120,
      "neuronal": 5121,
      "##ova": 5122,
      "1a": 5123,
      "##90": 5124,
      "gender": 5125,
      "##ars": 5126,
      "##60": 5127,
      "composition": 5128,
      "males": 5129,
      "developing": 5130,
      "reproduc": 5131,
      "interview": 5132,
      "targeting": 5133,
      "##yro": 5134,
      "##alk": 5135,
      "htt": 5136,
      "assign": 5137,
      "emo": 5138,
      "sigma": 5139,
      "85": 5140,
      "sulf": 5141,
      "mil": 5142,
      "stages": 5143,
      "make": 5144,
      "##olved": 5145,
      "mh": 5146,
      "##aptic": 5147,
      "##la": 5148,
      "##ats": 5149,
      "##ariate": 5150,
      "isch": 5151,
      "tb": 5152,
      "intra": 5153,
      "targeted": 5154,
      "severity": 5155,
      "cannot": 5156,
      "beg": 5157,
      "replication": 5158,
      "s2": 5159,
      "constit": 5160,
      "avoid": 5161,
      "rr": 5162,
      "oxidative": 5163,
      "##agon": 5164,
      "turn": 5165,
      "igg": 5166,
      "03": 5167,
      "constant": 5168,
      "##ify": 5169,
      "base": 5170,
      "##oster": 5171,
      "pancre": 5172,
      "affinity": 5173,
      "profile": 5174,
      "compare": 5175,
      "transfected": 5176,
      "aged": 5177,
      "coli": 5178,
      "gal": 5179,
      "special": 5180,
      "neural": 5181,
      "##ee": 5182,
      "inser": 5183,
      "observations": 5184,
      "location": 5185,
      "anx": 5186,
      "students": 5187,
      "##ethyl": 5188,
      "1h": 5189,
      "dop": 5190,
      "##most": 5191,
      "transplant": 5192,
      "stained": 5193,
      "coord": 5194,
      "now": 5195,
      "disru": 5196,
      "rev": 5197,
      "subject": 5198,
      "upper": 5199,
      "##enous": 5200,
      "infer": 5201,
      "tel": 5202,
      "confidence": 5203,
      "##oved": 5204,
      "macrophages": 5205,
      "aggreg": 5206,
      "ligand": 5207,
      "vit": 5208,
      "humans": 5209,
      "extracted": 5210,
      "never": 5211,
      "##idity": 5212,
      "substit": 5213,
      "nr": 5214,
      "##ode": 5215,
      "rib": 5216,
      "contact": 5217,
      "tag": 5218,
      "motif": 5219,
      "##ads": 5220,
      "feed": 5221,
      "manner": 5222,
      "##urb": 5223,
      "transcriptional": 5224,
      "conjug": 5225,
      "##apl": 5226,
      "sodium": 5227,
      "04": 5228,
      "tool": 5229,
      "space": 5230,
      "removed": 5231,
      "##position": 5232,
      "##den": 5233,
      "##way": 5234,
      "stroke": 5235,
      "lc": 5236,
      "##ergic": 5237,
      "bd": 5238,
      "cytoplasm": 5239,
      "intake": 5240,
      "recovery": 5241,
      "pb": 5242,
      "##eal": 5243,
      "##olesterol": 5244,
      "kidney": 5245,
      "adverse": 5246,
      "##alian": 5247,
      "remov": 5248,
      "hybrid": 5249,
      "##icians": 5250,
      "2a": 5251,
      "µm": 5252,
      "associations": 5253,
      "administered": 5254,
      "300": 5255,
      "atten": 5256,
      "ful": 5257,
      "##ash": 5258,
      "bmi": 5259,
      "seven": 5260,
      "earl": 5261,
      "irr": 5262,
      "##art": 5263,
      "throughout": 5264,
      "##o2": 5265,
      "hipp": 5266,
      "reverse": 5267,
      "dl": 5268,
      "unc": 5269,
      "##ished": 5270,
      "highl": 5271,
      "manu": 5272,
      "dysfunction": 5273,
      "grad": 5274,
      "observation": 5275,
      "miss": 5276,
      "##lu": 5277,
      "transgen": 5278,
      "commit": 5279,
      "estimates": 5280,
      "tail": 5281,
      "incubation": 5282,
      "tc": 5283,
      "pregnancy": 5284,
      "##ange": 5285,
      "manufact": 5286,
      "##etric": 5287,
      "simple": 5288,
      "fusion": 5289,
      "numer": 5290,
      "transcript": 5291,
      "divid": 5292,
      "ye": 5293,
      "perf": 5294,
      "replac": 5295,
      "ped": 5296,
      "##ks": 5297,
      "reactions": 5298,
      "##romb": 5299,
      "##ned": 5300,
      "nc": 5301,
      "fragment": 5302,
      "transmission": 5303,
      "vary": 5304,
      "conserved": 5305,
      "pg": 5306,
      "##entional": 5307,
      "norm": 5308,
      "advant": 5309,
      "brief": 5310,
      "alb": 5311,
      "doses": 5312,
      "melan": 5313,
      "##ident": 5314,
      "adhes": 5315,
      "text": 5316,
      "defin": 5317,
      "chemotherapy": 5318,
      "##esth": 5319,
      "peptides": 5320,
      "cardiovascular": 5321,
      "smaller": 5322,
      "##any": 5323,
      "##itch": 5324,
      "##itional": 5325,
      "subsequently": 5326,
      "figures": 5327,
      "selective": 5328,
      "extracellular": 5329,
      "dc": 5330,
      "nh": 5331,
      "##arc": 5332,
      "formed": 5333,
      "ht": 5334,
      "obes": 5335,
      "paras": 5336,
      "rot": 5337,
      "temporal": 5338,
      "american": 5339,
      "mob": 5340,
      "possibility": 5341,
      "basal": 5342,
      "behavioral": 5343,
      "unit": 5344,
      "interf": 5345,
      "entire": 5346,
      "lateral": 5347,
      "##aces": 5348,
      "69": 5349,
      "dimension": 5350,
      "heterogene": 5351,
      "pulmonary": 5352,
      "bias": 5353,
      "##rolog": 5354,
      "endogenous": 5355,
      "73": 5356,
      "file": 5357,
      "solid": 5358,
      "##ocamp": 5359,
      "##osa": 5360,
      "once": 5361,
      "elements": 5362,
      "localization": 5363,
      "conver": 5364,
      "almost": 5365,
      "put": 5366,
      "segment": 5367,
      "fram": 5368,
      "jour": 5369,
      "tend": 5370,
      "mri": 5371,
      "1999": 5372,
      "carcinoma": 5373,
      "62": 5374,
      "past": 5375,
      "##ea": 5376,
      "diagnosed": 5377,
      "monitoring": 5378,
      "obesity": 5379,
      "medicine": 5380,
      "institute": 5381,
      "neutr": 5382,
      "estimate": 5383,
      "commonly": 5384,
      "##err": 5385,
      "variety": 5386,
      "find": 5387,
      "molecule": 5388,
      "establish": 5389,
      "plus": 5390,
      "underw": 5391,
      "##cers": 5392,
      "##elines": 5393,
      "usually": 5394,
      "##dle": 5395,
      "placed": 5396,
      "technology": 5397,
      "##atives": 5398,
      "making": 5399,
      "nam": 5400,
      "upreg": 5401,
      "##ocard": 5402,
      "bond": 5403,
      "done": 5404,
      "##ton": 5405,
      "##ocl": 5406,
      "safety": 5407,
      "##entific": 5408,
      "sufficient": 5409,
      "remained": 5410,
      "##gal": 5411,
      "##trans": 5412,
      "phosphate": 5413,
      "##etry": 5414,
      "##eless": 5415,
      "ip": 5416,
      "##ectivity": 5417,
      "polymorph": 5418,
      "optimal": 5419,
      "##bial": 5420,
      "fund": 5421,
      "schem": 5422,
      "unkn": 5423,
      "##rosp": 5424,
      "##tile": 5425,
      "relationships": 5426,
      "##less": 5427,
      "close": 5428,
      "china": 5429,
      "word": 5430,
      "inhibitory": 5431,
      "axis": 5432,
      "become": 5433,
      "consumption": 5434,
      "unknown": 5435,
      "clearly": 5436,
      "fully": 5437,
      "mp": 5438,
      "76": 5439,
      "78": 5440,
      "microscopy": 5441,
      "radiation": 5442,
      "##bit": 5443,
      "##bral": 5444,
      "pig": 5445,
      "74": 5446,
      "curve": 5447,
      "hippocamp": 5448,
      "stimulated": 5449,
      "excluded": 5450,
      "##ounts": 5451,
      "convers": 5452,
      "providing": 5453,
      "##activity": 5454,
      "prevention": 5455,
      "roles": 5456,
      "algorithm": 5457,
      "stimuli": 5458,
      "neutral": 5459,
      "afric": 5460,
      "contains": 5461,
      "1b": 5462,
      "cholesterol": 5463,
      "pack": 5464,
      "allele": 5465,
      "fluid": 5466,
      "frequently": 5467,
      "underwent": 5468,
      "gc": 5469,
      "slow": 5470,
      "vess": 5471,
      "band": 5472,
      "61": 5473,
      "requires": 5474,
      "termin": 5475,
      "##medi": 5476,
      "anterior": 5477,
      "scientific": 5478,
      "divers": 5479,
      "cu": 5480,
      "respiratory": 5481,
      "##amide": 5482,
      "diameter": 5483,
      "##elet": 5484,
      "probability": 5485,
      "barri": 5486,
      "reviewed": 5487,
      "##utive": 5488,
      "nucleotide": 5489,
      "##gt": 5490,
      "lum": 5491,
      "classification": 5492,
      "150": 5493,
      "##37": 5494,
      "force": 5495,
      "akt": 5496,
      "ca2": 5497,
      "europ": 5498,
      "##ata": 5499,
      "plate": 5500,
      "items": 5501,
      "illustr": 5502,
      "interfer": 5503,
      "##ai": 5504,
      "fav": 5505,
      "##pase": 5506,
      "nerve": 5507,
      "complement": 5508,
      "maternal": 5509,
      "systemic": 5510,
      "artery": 5511,
      "secretion": 5512,
      "prosp": 5513,
      "maintained": 5514,
      "mixture": 5515,
      "exist": 5516,
      "77": 5517,
      "##typ": 5518,
      "cv": 5519,
      "altered": 5520,
      "cytos": 5521,
      "guidelines": 5522,
      "##ontal": 5523,
      "##ra": 5524,
      "tgf": 5525,
      "reducing": 5526,
      "promote": 5527,
      "extre": 5528,
      "cb": 5529,
      "science": 5530,
      "contain": 5531,
      "toxicity": 5532,
      "fluor": 5533,
      "decision": 5534,
      "##esh": 5535,
      "rich": 5536,
      "##wise": 5537,
      "original": 5538,
      "project": 5539,
      "##3k": 5540,
      "deletion": 5541,
      "randomized": 5542,
      "contained": 5543,
      "emotion": 5544,
      "posterior": 5545,
      "##oscop": 5546,
      "methylation": 5547,
      "coron": 5548,
      "colle": 5549,
      "correct": 5550,
      "##onucle": 5551,
      "conventional": 5552,
      "enter": 5553,
      "profiles": 5554,
      "remain": 5555,
      "earlier": 5556,
      "equal": 5557,
      "agreement": 5558,
      "gran": 5559,
      "europe": 5560,
      "orth": 5561,
      "pool": 5562,
      "allowed": 5563,
      "questionnaire": 5564,
      "dynamics": 5565,
      "hence": 5566,
      "orient": 5567,
      "positi": 5568,
      "particles": 5569,
      "advanced": 5570,
      "##elf": 5571,
      "##rin": 5572,
      "##ometric": 5573,
      "except": 5574,
      "tetr": 5575,
      "middle": 5576,
      "biomark": 5577,
      "##orn": 5578,
      "hypertension": 5579,
      "benefit": 5580,
      "##ogl": 5581,
      "ubiqu": 5582,
      "arrow": 5583,
      "##anch": 5584,
      "exce": 5585,
      "cortical": 5586,
      "biops": 5587,
      "check": 5588,
      "plot": 5589,
      "##ss": 5590,
      "##iotic": 5591,
      "anxiety": 5592,
      "correspond": 5593,
      "arch": 5594,
      "onc": 5595,
      "comparable": 5596,
      "chromosome": 5597,
      "probe": 5598,
      "##ytes": 5599,
      "##ighted": 5600,
      "discussed": 5601,
      "personal": 5602,
      "sampling": 5603,
      "jap": 5604,
      "antagon": 5605,
      "pla": 5606,
      "nucleus": 5607,
      "recruit": 5608,
      "plasmid": 5609,
      "questions": 5610,
      "differential": 5611,
      "column": 5612,
      "98": 5613,
      "systematic": 5614,
      "fract": 5615,
      "overexpression": 5616,
      "##ula": 5617,
      "document": 5618,
      "genotype": 5619,
      "fm": 5620,
      "collagen": 5621,
      "oh": 5622,
      "variance": 5623,
      "injected": 5624,
      "focused": 5625,
      "hemat": 5626,
      "##aves": 5627,
      "channels": 5628,
      "##itud": 5629,
      "investigation": 5630,
      "heat": 5631,
      "extern": 5632,
      "respect": 5633,
      "ves": 5634,
      "trad": 5635,
      "liqu": 5636,
      "79": 5637,
      "alk": 5638,
      "cx": 5639,
      "comparing": 5640,
      "lact": 5641,
      "predom": 5642,
      "cad": 5643,
      "##elling": 5644,
      "isolates": 5645,
      "lang": 5646,
      "##ifug": 5647,
      "spectrum": 5648,
      "obtain": 5649,
      "94": 5650,
      "##54": 5651,
      "##rose": 5652,
      "##ectomy": 5653,
      "emb": 5654,
      "generate": 5655,
      "ten": 5656,
      "##cal": 5657,
      "concept": 5658,
      "cd8": 5659,
      "predict": 5660,
      "##inate": 5661,
      "revers": 5662,
      "compr": 5663,
      "2017": 5664,
      "##atch": 5665,
      "rank": 5666,
      "mb": 5667,
      "involvement": 5668,
      "1998": 5669,
      "##ico": 5670,
      "spl": 5671,
      "1000": 5672,
      "widely": 5673,
      "grown": 5674,
      "##rs": 5675,
      "polar": 5676,
      "##36": 5677,
      "##itable": 5678,
      "dp": 5679,
      "iron": 5680,
      "towards": 5681,
      "mis": 5682,
      "prostate": 5683,
      "##rotein": 5684,
      "fa": 5685,
      "84": 5686,
      "variability": 5687,
      "yeast": 5688,
      "##ips": 5689,
      "descrip": 5690,
      "magnetic": 5691,
      "##down": 5692,
      "attenu": 5693,
      "3a": 5694,
      "entr": 5695,
      "primers": 5696,
      "simult": 5697,
      "cytokines": 5698,
      "date": 5699,
      "thromb": 5700,
      "units": 5701,
      "sexual": 5702,
      "##rel": 5703,
      "sets": 5704,
      "plays": 5705,
      "##ives": 5706,
      "myel": 5707,
      "recognition": 5708,
      "lesion": 5709,
      "simultaneous": 5710,
      "gm": 5711,
      "##ozyg": 5712,
      "86": 5713,
      "som": 5714,
      "##care": 5715,
      "ultras": 5716,
      "cancers": 5717,
      "proxim": 5718,
      "remaining": 5719,
      "detailed": 5720,
      "completed": 5721,
      "stabil": 5722,
      "eye": 5723,
      "fish": 5724,
      "02": 5725,
      "membranes": 5726,
      "belie": 5727,
      "auto": 5728,
      "analog": 5729,
      "##yroid": 5730,
      "allows": 5731,
      "recommend": 5732,
      "slightly": 5733,
      "understand": 5734,
      "##sa": 5735,
      "subc": 5736,
      "attem": 5737,
      "multiv": 5738,
      "##f1": 5739,
      "partial": 5740,
      "regulate": 5741,
      "##inations": 5742,
      "depart": 5743,
      "88": 5744,
      "typically": 5745,
      "hepat": 5746,
      "attr": 5747,
      "phyl": 5748,
      "97": 5749,
      "gap": 5750,
      "2b": 5751,
      "recombinant": 5752,
      "##back": 5753,
      "mode": 5754,
      "pal": 5755,
      "plates": 5756,
      "ethanol": 5757,
      "box": 5758,
      "au": 5759,
      "dynamic": 5760,
      "impaired": 5761,
      "persist": 5762,
      "elim": 5763,
      "regim": 5764,
      "autophag": 5765,
      "normalized": 5766,
      "families": 5767,
      "comparisons": 5768,
      "thickness": 5769,
      "##imer": 5770,
      "external": 5771,
      "##hood": 5772,
      "##rine": 5773,
      "pv": 5774,
      "egfr": 5775,
      "journal": 5776,
      "sources": 5777,
      "deficient": 5778,
      "myocard": 5779,
      "limitations": 5780,
      "##ners": 5781,
      "adher": 5782,
      "87": 5783,
      "sat": 5784,
      "vegf": 5785,
      "robust": 5786,
      "t2": 5787,
      "fed": 5788,
      "employed": 5789,
      "enrol": 5790,
      "##nat": 5791,
      "89": 5792,
      "##group": 5793,
      "stimulus": 5794,
      "flex": 5795,
      "completely": 5796,
      "encoding": 5797,
      "##35": 5798,
      "excess": 5799,
      "##c1": 5800,
      "##obic": 5801,
      "##idine": 5802,
      "pairs": 5803,
      "coding": 5804,
      "400": 5805,
      "##dna": 5806,
      "efficient": 5807,
      "reconstr": 5808,
      "mild": 5809,
      "##son": 5810,
      "##irus": 5811,
      "spectra": 5812,
      "##gc": 5813,
      "centrifug": 5814,
      "acquired": 5815,
      "##aries": 5816,
      "parameter": 5817,
      "living": 5818,
      "uv": 5819,
      "hf": 5820,
      "mechanical": 5821,
      "displayed": 5822,
      "attach": 5823,
      "manufactur": 5824,
      "replic": 5825,
      "consent": 5826,
      "ce": 5827,
      "rou": 5828,
      "movement": 5829,
      "##anted": 5830,
      "divided": 5831,
      "traum": 5832,
      "hm": 5833,
      "japan": 5834,
      "ratios": 5835,
      "counter": 5836,
      "needs": 5837,
      "kine": 5838,
      "ask": 5839,
      "reflect": 5840,
      "healthcare": 5841,
      "##flu": 5842,
      "oct": 5843,
      "rare": 5844,
      "nanop": 5845,
      "coronary": 5846,
      "##ict": 5847,
      "cis": 5848,
      "networks": 5849,
      "separate": 5850,
      "antic": 5851,
      "neut": 5852,
      "parents": 5853,
      "##crim": 5854,
      "gradi": 5855,
      "##thr": 5856,
      "minor": 5857,
      "71": 5858,
      "clusters": 5859,
      "##ples": 5860,
      "accept": 5861,
      "##avage": 5862,
      "downstream": 5863,
      "specimens": 5864,
      "anova": 5865,
      "fibrobl": 5866,
      "fast": 5867,
      "article": 5868,
      "extract": 5869,
      "##ella": 5870,
      "nurs": 5871,
      "##osin": 5872,
      "##be": 5873,
      "luc": 5874,
      "liquid": 5875,
      "197": 5876,
      "input": 5877,
      "developmental": 5878,
      "subst": 5879,
      "meta": 5880,
      "loop": 5881,
      "prediction": 5882,
      "##obacter": 5883,
      "involving": 5884,
      "cdna": 5885,
      "##eling": 5886,
      "lps": 5887,
      "behaviors": 5888,
      "pet": 5889,
      "mn": 5890,
      "nt": 5891,
      "##ows": 5892,
      "83": 5893,
      "http": 5894,
      "explain": 5895,
      "##2a": 5896,
      "hu": 5897,
      "##ibly": 5898,
      "agent": 5899,
      "##ifications": 5900,
      "organization": 5901,
      "##tead": 5902,
      "subunit": 5903,
      "root": 5904,
      "working": 5905,
      "polic": 5906,
      "discrim": 5907,
      "clinically": 5908,
      "##ike": 5909,
      "independ": 5910,
      "##treated": 5911,
      "##ili": 5912,
      "wave": 5913,
      "extraction": 5914,
      "##allel": 5915,
      "nk": 5916,
      "fo": 5917,
      "hypox": 5918,
      "##inf": 5919,
      "##reh": 5920,
      "includes": 5921,
      "##ectin": 5922,
      "nmr": 5923,
      "postoperative": 5924,
      "transduc": 5925,
      "##neum": 5926,
      "bars": 5927,
      "homolog": 5928,
      "sirna": 5929,
      "equival": 5930,
      "##artic": 5931,
      "##pressive": 5932,
      "committe": 5933,
      "fatty": 5934,
      "diversity": 5935,
      "placebo": 5936,
      "basic": 5937,
      "gain": 5938,
      "typical": 5939,
      "cn": 5940,
      "2d": 5941,
      "##ynth": 5942,
      "##rec": 5943,
      "fetal": 5944,
      "##ah": 5945,
      "princ": 5946,
      "classified": 5947,
      "service": 5948,
      "##bal": 5949,
      "shift": 5950,
      "##ality": 5951,
      "person": 5952,
      "house": 5953,
      "##vent": 5954,
      "vaccine": 5955,
      "dn": 5956,
      "assembly": 5957,
      "satis": 5958,
      "veh": 5959,
      "represented": 5960,
      "feature": 5961,
      "receiving": 5962,
      "mv": 5963,
      "##65": 5964,
      "##uz": 5965,
      "##aine": 5966,
      "metastasis": 5967,
      "##ectiveness": 5968,
      "infants": 5969,
      "tom": 5970,
      "pse": 5971,
      "cytotox": 5972,
      "libr": 5973,
      "instead": 5974,
      "##wh": 5975,
      "##pers": 5976,
      "saline": 5977,
      "tlr": 5978,
      "bott": 5979,
      "##ocation": 5980,
      "compreh": 5981,
      "costs": 5982,
      "steps": 5983,
      "strand": 5984,
      "primarily": 5985,
      "speed": 5986,
      "exhibit": 5987,
      "ast": 5988,
      "shape": 5989,
      "applications": 5990,
      "##p2": 5991,
      "matched": 5992,
      "describe": 5993,
      "##ortic": 5994,
      "decl": 5995,
      "alterations": 5996,
      "aud": 5997,
      "si": 5998,
      "uk": 5999,
      "1997": 6000,
      "effectiveness": 6001,
      "cy": 6002,
      "##tration": 6003,
      "princip": 6004,
      "ter": 6005,
      "retrosp": 6006,
      "defects": 6007,
      "subtyp": 6008,
      "##unc": 6009,
      "ww": 6010,
      "arm": 6011,
      "##lo": 6012,
      "challenge": 6013,
      "##eral": 6014,
      "deviation": 6015,
      "##fa": 6016,
      "break": 6017,
      "##dh": 6018,
      "international": 6019,
      "rabbit": 6020,
      "##39": 6021,
      "transpor": 6022,
      "iden": 6023,
      "agon": 6024,
      "removal": 6025,
      "##mia": 6026,
      "occup": 6027,
      "sds": 6028,
      "langu": 6029,
      "tg": 6030,
      "variant": 6031,
      "##acted": 6032,
      "laser": 6033,
      "##illary": 6034,
      "initiation": 6035,
      "noise": 6036,
      "##ections": 6037,
      "##67": 6038,
      "spr": 6039,
      "preparation": 6040,
      "deriv": 6041,
      "##activation": 6042,
      "called": 6043,
      "invasive": 6044,
      "drink": 6045,
      "none": 6046,
      "joint": 6047,
      "metal": 6048,
      "aer": 6049,
      "pseud": 6050,
      "asym": 6051,
      "follows": 6052,
      "autom": 6053,
      "##arian": 6054,
      "##lation": 6055,
      "m2": 6056,
      "recip": 6057,
      "diges": 6058,
      "##ready": 6059,
      "0001": 6060,
      "south": 6061,
      "##ogenetic": 6062,
      "##iology": 6063,
      "already": 6064,
      "exch": 6065,
      "##ging": 6066,
      "recruitment": 6067,
      "chromat": 6068,
      "list": 6069,
      "depth": 6070,
      "spinal": 6071,
      "soil": 6072,
      "##tility": 6073,
      "##ply": 6074,
      "manufacturer": 6075,
      "morphology": 6076,
      "spe": 6077,
      "inn": 6078,
      "reactive": 6079,
      "s3": 6080,
      "minimum": 6081,
      "aspects": 6082,
      "cov": 6083,
      "snps": 6084,
      "py": 6085,
      "trigger": 6086,
      "intervals": 6087,
      "##let": 6088,
      "branch": 6089,
      "experienced": 6090,
      "extended": 6091,
      "##eletal": 6092,
      "medication": 6093,
      "explained": 6094,
      "hepatic": 6095,
      "dietary": 6096,
      "pneum": 6097,
      "whose": 6098,
      "summary": 6099,
      "correlations": 6100,
      "gh": 6101,
      "##ica": 6102,
      "120": 6103,
      "tax": 6104,
      "electroph": 6105,
      "##47": 6106,
      "##used": 6107,
      "ethn": 6108,
      "errors": 6109,
      "parallel": 6110,
      "vitamin": 6111,
      "profession": 6112,
      "thereby": 6113,
      "##onia": 6114,
      "##gan": 6115,
      "ze": 6116,
      "irradi": 6117,
      "categories": 6118,
      "identical": 6119,
      "cyp": 6120,
      "##gi": 6121,
      "reson": 6122,
      "seems": 6123,
      "existing": 6124,
      "inclusion": 6125,
      "##apse": 6126,
      "supernat": 6127,
      "united": 6128,
      "intermediate": 6129,
      "##uting": 6130,
      "onto": 6131,
      "take": 6132,
      "nanopartic": 6133,
      "dend": 6134,
      "##isition": 6135,
      "predominant": 6136,
      "cytokine": 6137,
      "clon": 6138,
      "intestinal": 6139,
      "reag": 6140,
      "adhesion": 6141,
      "marg": 6142,
      "department": 6143,
      "programs": 6144,
      "##ways": 6145,
      "##1a": 6146,
      "relation": 6147,
      "##aria": 6148,
      "element": 6149,
      "##sh": 6150,
      "resources": 6151,
      "diabetic": 6152,
      "##pressed": 6153,
      "##iform": 6154,
      "neurolog": 6155,
      "93": 6156,
      "##mediately": 6157,
      "##ococ": 6158,
      "impairment": 6159,
      "rb": 6160,
      "toxic": 6161,
      "parent": 6162,
      "##night": 6163,
      "coefficient": 6164,
      "acquisition": 6165,
      "wind": 6166,
      "##ffici": 6167,
      "amb": 6168,
      "4a": 6169,
      "device": 6170,
      "face": 6171,
      "rest": 6172,
      "dors": 6173,
      "isoform": 6174,
      "82": 6175,
      "anesth": 6176,
      "##entioned": 6177,
      "height": 6178,
      "deficiency": 6179,
      "ib": 6180,
      "residue": 6181,
      "committee": 6182,
      "immediately": 6183,
      "supporting": 6184,
      "mur": 6185,
      "caspase": 6186,
      "asth": 6187,
      "programm": 6188,
      "ble": 6189,
      "dark": 6190,
      "perme": 6191,
      "hab": 6192,
      "##icles": 6193,
      "primer": 6194,
      "switch": 6195,
      "native": 6196,
      "t1": 6197,
      "recommended": 6198,
      "filter": 6199,
      "subgroup": 6200,
      "hydrogen": 6201,
      "protection": 6202,
      "kr": 6203,
      "atr": 6204,
      "germany": 6205,
      "81": 6206,
      "predictive": 6207,
      "##cles": 6208,
      "appeared": 6209,
      "informed": 6210,
      "##oxide": 6211,
      "thought": 6212,
      "tp": 6213,
      "commerc": 6214,
      "gast": 6215,
      "grant": 6216,
      "vel": 6217,
      "##tingu": 6218,
      "##atitis": 6219,
      "summar": 6220,
      "rapidly": 6221,
      "amounts": 6222,
      "curves": 6223,
      "92": 6224,
      "camp": 6225,
      "probably": 6226,
      "ty": 6227,
      "true": 6228,
      "spont": 6229,
      "achieve": 6230,
      "hour": 6231,
      "abundance": 6232,
      "technologies": 6233,
      "nutr": 6234,
      "ko": 6235,
      "cruc": 6236,
      "implant": 6237,
      "overnight": 6238,
      "separated": 6239,
      "polyp": 6240,
      "viruses": 6241,
      "spontaneous": 6242,
      "subjected": 6243,
      "just": 6244,
      "prolong": 6245,
      "##ecutive": 6246,
      "transcripts": 6247,
      "clinic": 6248,
      "substrates": 6249,
      "tryp": 6250,
      "synaptic": 6251,
      "ln": 6252,
      "you": 6253,
      "invasion": 6254,
      "fis": 6255,
      "##phal": 6256,
      "tools": 6257,
      "cath": 6258,
      "choice": 6259,
      "offer": 6260,
      "##rees": 6261,
      "perception": 6262,
      "nodes": 6263,
      "##irect": 6264,
      "fluorescent": 6265,
      "randomly": 6266,
      "node": 6267,
      "chol": 6268,
      "motion": 6269,
      "behaviour": 6270,
      "37°c": 6271,
      "##tenance": 6272,
      "apparent": 6273,
      "embryos": 6274,
      "rod": 6275,
      "sed": 6276,
      "##oral": 6277,
      "adjust": 6278,
      "##elium": 6279,
      "fox": 6280,
      "unf": 6281,
      "donor": 6282,
      "sperm": 6283,
      "##isation": 6284,
      "##iph": 6285,
      "##otr": 6286,
      "computed": 6287,
      "##ann": 6288,
      "anat": 6289,
      "##ises": 6290,
      "maintenance": 6291,
      "##oglob": 6292,
      "characteristic": 6293,
      "distingu": 6294,
      "modification": 6295,
      "latter": 6296,
      "##illed": 6297,
      "glutam": 6298,
      "##arb": 6299,
      "considering": 6300,
      "##48": 6301,
      "online": 6302,
      "taking": 6303,
      "assigned": 6304,
      "accurate": 6305,
      "intrav": 6306,
      "let": 6307,
      "accel": 6308,
      "transgenic": 6309,
      "interact": 6310,
      "transferred": 6311,
      "##acr": 6312,
      "impl": 6313,
      "regular": 6314,
      "prospective": 6315,
      "neigh": 6316,
      "substantial": 6317,
      "largely": 6318,
      "gastric": 6319,
      "uncle": 6320,
      "gab": 6321,
      "optical": 6322,
      "participant": 6323,
      "expect": 6324,
      "##uls": 6325,
      "##equate": 6326,
      "##dehyd": 6327,
      "splic": 6328,
      "cerebral": 6329,
      "250": 6330,
      "details": 6331,
      "interpretation": 6332,
      "co2": 6333,
      "sti": 6334,
      "ring": 6335,
      "purch": 6336,
      "protective": 6337,
      "chromatin": 6338,
      "recurrence": 6339,
      "recording": 6340,
      "3b": 6341,
      "##ensus": 6342,
      "minimal": 6343,
      "##taining": 6344,
      "##ectal": 6345,
      "##au": 6346,
      "sf": 6347,
      "##otrop": 6348,
      "tris": 6349,
      "vas": 6350,
      "smo": 6351,
      "az": 6352,
      "apoptotic": 6353,
      "indirect": 6354,
      "cycles": 6355,
      "pancreatic": 6356,
      "language": 6357,
      "draw": 6358,
      "supplemented": 6359,
      "nine": 6360,
      "cham": 6361,
      "depending": 6362,
      "##ades": 6363,
      "rn": 6364,
      "hormone": 6365,
      "##dm": 6366,
      "tun": 6367,
      "exact": 6368,
      "##56": 6369,
      "initially": 6370,
      "##bre": 6371,
      "track": 6372,
      "introduced": 6373,
      "cox": 6374,
      "volt": 6375,
      "wound": 6376,
      "construct": 6377,
      "traditional": 6378,
      "dominant": 6379,
      "precurs": 6380,
      "knockdown": 6381,
      "benefits": 6382,
      "tumour": 6383,
      "issues": 6384,
      "##rocytes": 6385,
      "decreases": 6386,
      "induces": 6387,
      "1996": 6388,
      "κb": 6389,
      "unclear": 6390,
      "extracts": 6391,
      "nacl": 6392,
      "##cents": 6393,
      "ck": 6394,
      "quantified": 6395,
      "communication": 6396,
      "mmol": 6397,
      "uns": 6398,
      "csf": 6399,
      "neutroph": 6400,
      "instruction": 6401,
      "longitud": 6402,
      "##ework": 6403,
      "cleavage": 6404,
      "##rog": 6405,
      "tf": 6406,
      "independently": 6407,
      "odds": 6408,
      "antioxid": 6409,
      "translation": 6410,
      "carri": 6411,
      "suppression": 6412,
      "start": 6413,
      "explore": 6414,
      "retr": 6415,
      "coupled": 6416,
      "##ering": 6417,
      "hsp": 6418,
      "##igen": 6419,
      "##uit": 6420,
      "div": 6421,
      "hydroph": 6422,
      "dataset": 6423,
      "identi": 6424,
      "www": 6425,
      "partially": 6426,
      "fresh": 6427,
      "defic": 6428,
      "degrees": 6429,
      "bottom": 6430,
      "##acch": 6431,
      "viability": 6432,
      "dy": 6433,
      "aggr": 6434,
      "morb": 6435,
      "##ued": 6436,
      "fc": 6437,
      "researchers": 6438,
      "frequent": 6439,
      "aa": 6440,
      "spread": 6441,
      "supplemental": 6442,
      "sensor": 6443,
      "importantly": 6444,
      "diverse": 6445,
      "driven": 6446,
      "##inning": 6447,
      "##tices": 6448,
      "epidem": 6449,
      "analysed": 6450,
      "ray": 6451,
      "bc": 6452,
      "magnitude": 6453,
      "##arin": 6454,
      "illness": 6455,
      "sv": 6456,
      "settings": 6457,
      "frequencies": 6458,
      "outs": 6459,
      "theory": 6460,
      "susceptibility": 6461,
      "fall": 6462,
      "vehicle": 6463,
      "adolescents": 6464,
      "framework": 6465,
      "numerous": 6466,
      "emp": 6467,
      "microscope": 6468,
      "disch": 6469,
      "twice": 6470,
      "phenomen": 6471,
      "array": 6472,
      "##ordance": 6473,
      "##ostic": 6474,
      "extensive": 6475,
      "metastatic": 6476,
      "dimensional": 6477,
      "enriched": 6478,
      "polymerase": 6479,
      "##acting": 6480,
      "student": 6481,
      "tract": 6482,
      "ple": 6483,
      "##ills": 6484,
      "ranging": 6485,
      "ensure": 6486,
      "pyr": 6487,
      "##ette": 6488,
      "mitochondria": 6489,
      "positions": 6490,
      "feedback": 6491,
      "mammalian": 6492,
      "ventricular": 6493,
      "gradient": 6494,
      "##ohist": 6495,
      "transfection": 6496,
      "myocardial": 6497,
      "##33": 6498,
      "implementation": 6499,
      "count": 6500,
      "mirna": 6501,
      "progen": 6502,
      "biochemical": 6503,
      "aβ": 6504,
      "contributed": 6505,
      "##ero": 6506,
      "nih": 6507,
      "compart": 6508,
      "##isa": 6509,
      "infil": 6510,
      "invitrogen": 6511,
      "bul": 6512,
      "##utri": 6513,
      "##cribed": 6514,
      "deep": 6515,
      "epis": 6516,
      "mirnas": 6517,
      "##hd": 6518,
      "mi": 6519,
      "ras": 6520,
      "seem": 6521,
      "##opathy": 6522,
      "perceived": 6523,
      "angle": 6524,
      "##certain": 6525,
      "ubiquitin": 6526,
      "immunohist": 6527,
      "##pan": 6528,
      "extrem": 6529,
      "transplantation": 6530,
      "amplitude": 6531,
      "move": 6532,
      "distributed": 6533,
      "gli": 6534,
      "fragments": 6535,
      "##portun": 6536,
      "matter": 6537,
      "closely": 6538,
      "##aring": 6539,
      "institutional": 6540,
      "##eg": 6541,
      "##dehyde": 6542,
      "ech": 6543,
      "presentation": 6544,
      "cerv": 6545,
      "prem": 6546,
      "opportun": 6547,
      "sor": 6548,
      "eryth": 6549,
      "91": 6550,
      "solutions": 6551,
      "growing": 6552,
      "possibly": 6553,
      "directed": 6554,
      "tolerance": 6555,
      "pip": 6556,
      "gold": 6557,
      "malignant": 6558,
      "pathogenesis": 6559,
      "eb": 6560,
      "crystal": 6561,
      "sizes": 6562,
      "##ician": 6563,
      "occurrence": 6564,
      "therapies": 6565,
      "superior": 6566,
      "dog": 6567,
      "phenotypes": 6568,
      "simulation": 6569,
      "##hr": 6570,
      "mim": 6571,
      "poll": 6572,
      "prognosis": 6573,
      "stored": 6574,
      "##olip": 6575,
      "##99": 6576,
      "nad": 6577,
      "tyros": 6578,
      "localized": 6579,
      "cer": 6580,
      "compl": 6581,
      "equivalent": 6582,
      "distal": 6583,
      "amplification": 6584,
      "comput": 6585,
      "##olytic": 6586,
      "discre": 6587,
      "##mp": 6588,
      "assist": 6589,
      "lar": 6590,
      "veloc": 6591,
      "micros": 6592,
      "validated": 6593,
      "db": 6594,
      "immuno": 6595,
      "##ectives": 6596,
      "mach": 6597,
      "pathological": 6598,
      "marrow": 6599,
      "definition": 6600,
      "diffusion": 6601,
      "e2": 6602,
      "users": 6603,
      "06": 6604,
      "reporting": 6605,
      "shr": 6606,
      "advantage": 6607,
      "crucial": 6608,
      "##44": 6609,
      "candidate": 6610,
      "demographic": 6611,
      "pu": 6612,
      "##t1": 6613,
      "own": 6614,
      "residual": 6615,
      "downreg": 6616,
      "failed": 6617,
      "##atter": 6618,
      "aging": 6619,
      "##thern": 6620,
      "neon": 6621,
      "soluble": 6622,
      "##ectors": 6623,
      "arterial": 6624,
      "thor": 6625,
      "cereb": 6626,
      "07": 6627,
      "facilitate": 6628,
      "positively": 6629,
      "igf": 6630,
      "platform": 6631,
      "histone": 6632,
      "kb": 6633,
      "nitrogen": 6634,
      "validation": 6635,
      "substitution": 6636,
      "explan": 6637,
      "oxidation": 6638,
      "ls": 6639,
      "goal": 6640,
      "annot": 6641,
      "##osen": 6642,
      "bov": 6643,
      "##oxyl": 6644,
      "quantification": 6645,
      "##asia": 6646,
      "output": 6647,
      "##pted": 6648,
      "##eting": 6649,
      "bey": 6650,
      "staff": 6651,
      "##olding": 6652,
      "synthesized": 6653,
      "expans": 6654,
      "##onin": 6655,
      "referred": 6656,
      "##oprotein": 6657,
      "##ori": 6658,
      "##ley": 6659,
      "asked": 6660,
      "autophagy": 6661,
      "reasons": 6662,
      "forward": 6663,
      "successfully": 6664,
      "mature": 6665,
      "##ema": 6666,
      "##ihood": 6667,
      "##atically": 6668,
      "satisf": 6669,
      "cord": 6670,
      "inner": 6671,
      "##acent": 6672,
      "ho": 6673,
      "psychological": 6674,
      "##3a": 6675,
      "longitudinal": 6676,
      "dilution": 6677,
      "asthma": 6678,
      "plastic": 6679,
      "##f2": 6680,
      "adop": 6681,
      "deple": 6682,
      "##umab": 6683,
      "inoc": 6684,
      "cold": 6685,
      "emph": 6686,
      "emotional": 6687,
      "##apped": 6688,
      "smooth": 6689,
      "reached": 6690,
      "oil": 6691,
      "##immun": 6692,
      "loading": 6693,
      "tree": 6694,
      "##oration": 6695,
      "periods": 6696,
      "gover": 6697,
      "maintain": 6698,
      "briefly": 6699,
      "burden": 6700,
      "lv": 6701,
      "equation": 6702,
      "leg": 6703,
      "regen": 6704,
      "absol": 6705,
      "engine": 6706,
      "wors": 6707,
      "##np": 6708,
      "08": 6709,
      "cul": 6710,
      "measuring": 6711,
      "ker": 6712,
      "kda": 6713,
      "integrated": 6714,
      "restricted": 6715,
      "##ky": 6716,
      "bcl": 6717,
      "intact": 6718,
      "1995": 6719,
      "##ilibr": 6720,
      "abdom": 6721,
      "##plate": 6722,
      "tube": 6723,
      "chosen": 6724,
      "aug": 6725,
      "absorption": 6726,
      "aw": 6727,
      "subset": 6728,
      "##oked": 6729,
      "locus": 6730,
      "##ensions": 6731,
      "acad": 6732,
      "##itor": 6733,
      "reporter": 6734,
      "##68": 6735,
      "mmp": 6736,
      "nearly": 6737,
      "lowest": 6738,
      "##amb": 6739,
      "variations": 6740,
      "gamm": 6741,
      "nuclei": 6742,
      "seas": 6743,
      "##essions": 6744,
      "coverage": 6745,
      "##ients": 6746,
      "manif": 6747,
      "##aper": 6748,
      "hcv": 6749,
      "prognostic": 6750,
      "ovarian": 6751,
      "##yle": 6752,
      "neverth": 6753,
      "abnormalities": 6754,
      "µg": 6755,
      "##zed": 6756,
      "nevertheless": 6757,
      "dd": 6758,
      "likel": 6759,
      "varied": 6760,
      "atom": 6761,
      "spectrom": 6762,
      "##32": 6763,
      "null": 6764,
      "conjugated": 6765,
      "balance": 6766,
      "accomp": 6767,
      "conflic": 6768,
      "fibrosis": 6769,
      "putative": 6770,
      "nons": 6771,
      "likelihood": 6772,
      "regulating": 6773,
      "microbi": 6774,
      "cervical": 6775,
      "scen": 6776,
      "##sin": 6777,
      "purchased": 6778,
      "##k2": 6779,
      "publ": 6780,
      "dh": 6781,
      "simulations": 6782,
      "recognized": 6783,
      "belong": 6784,
      "european": 6785,
      "thank": 6786,
      "##000": 6787,
      "feeding": 6788,
      "always": 6789,
      "chin": 6790,
      "histological": 6791,
      "artif": 6792,
      "income": 6793,
      "ure": 6794,
      "hcc": 6795,
      "similarity": 6796,
      "##ember": 6797,
      "moth": 6798,
      "author": 6799,
      "##31": 6800,
      "starting": 6801,
      "##oe": 6802,
      "##45": 6803,
      "catalytic": 6804,
      "organic": 6805,
      "##illin": 6806,
      "##ump": 6807,
      "heterogeneity": 6808,
      "transient": 6809,
      "elic": 6810,
      "adjacent": 6811,
      "##tition": 6812,
      "ba": 6813,
      "missing": 6814,
      "##ament": 6815,
      "dependence": 6816,
      "##ucid": 6817,
      "exchange": 6818,
      "pathology": 6819,
      "correction": 6820,
      "snp": 6821,
      "aimed": 6822,
      "cytoplasmic": 6823,
      "##inger": 6824,
      "##rophy": 6825,
      "##ozygous": 6826,
      "##itone": 6827,
      "potent": 6828,
      "untreated": 6829,
      "synthetic": 6830,
      "biopsy": 6831,
      "fiber": 6832,
      "identity": 6833,
      "##mark": 6834,
      "implicated": 6835,
      "buil": 6836,
      "statistics": 6837,
      "##otypic": 6838,
      "##ophys": 6839,
      "tasks": 6840,
      "thre": 6841,
      "promising": 6842,
      "##rot": 6843,
      "beyond": 6844,
      "##ements": 6845,
      "walk": 6846,
      "##ogens": 6847,
      "##itted": 6848,
      "potenti": 6849,
      "##isions": 6850,
      "##ounted": 6851,
      "##42": 6852,
      "1c": 6853,
      "interface": 6854,
      "availability": 6855,
      "##kin": 6856,
      "constructed": 6857,
      "gastro": 6858,
      "decline": 6859,
      "harves": 6860,
      "theore": 6861,
      "nov": 6862,
      "proximal": 6863,
      "##truct": 6864,
      "repeat": 6865,
      "pac": 6866,
      "san": 6867,
      "##ban": 6868,
      "competi": 6869,
      "##fil": 6870,
      "5a": 6871,
      "fractions": 6872,
      "north": 6873,
      "restor": 6874,
      "stop": 6875,
      "binds": 6876,
      "influenz": 6877,
      "recruited": 6878,
      "signs": 6879,
      "coc": 6880,
      "##point": 6881,
      "depletion": 6882,
      "##ancies": 6883,
      "multivariate": 6884,
      "probes": 6885,
      "affects": 6886,
      "4b": 6887,
      "td": 6888,
      "voltage": 6889,
      "shap": 6890,
      "category": 6891,
      "##olysis": 6892,
      "sensory": 6893,
      "acetyl": 6894,
      "circum": 6895,
      "foundation": 6896,
      "nanoparticles": 6897,
      "attributed": 6898,
      "##uch": 6899,
      "abdominal": 6900,
      "dehyd": 6901,
      "mer": 6902,
      "art": 6903,
      "entry": 6904,
      "efforts": 6905,
      "words": 6906,
      "##ry": 6907,
      "ligands": 6908,
      "##utaneous": 6909,
      "junction": 6910,
      "comprehensive": 6911,
      "resonance": 6912,
      "##arged": 6913,
      "fab": 6914,
      "##icin": 6915,
      "##tc": 6916,
      "radical": 6917,
      "thyroid": 6918,
      "gest": 6919,
      "modifications": 6920,
      "2c": 6921,
      "live": 6922,
      "blocked": 6923,
      "##01": 6924,
      "kind": 6925,
      "metabolites": 6926,
      "elucid": 6927,
      "beneficial": 6928,
      "##tious": 6929,
      "##insic": 6930,
      "##ze": 6931,
      "clar": 6932,
      "logistic": 6933,
      "s4": 6934,
      "introduction": 6935,
      "##bb": 6936,
      "regional": 6937,
      "reads": 6938,
      "fals": 6939,
      "square": 6940,
      "tyrosine": 6941,
      "hpv": 6942,
      "retinal": 6943,
      "qualit": 6944,
      "fisher": 6945,
      "scaff": 6946,
      "suitable": 6947,
      "lob": 6948,
      "accompan": 6949,
      "influenced": 6950,
      "##h2": 6951,
      "##oa": 6952,
      "resection": 6953,
      "##acer": 6954,
      "homeost": 6955,
      "##ipit": 6956,
      "##pati": 6957,
      "cla": 6958,
      "##enchym": 6959,
      "urine": 6960,
      "absolute": 6961,
      "##adder": 6962,
      "##omers": 6963,
      "sen": 6964,
      "counts": 6965,
      "occurring": 6966,
      "physicians": 6967,
      "retrospective": 6968,
      "mostly": 6969,
      "bovine": 6970,
      "loci": 6971,
      "issue": 6972,
      "##cus": 6973,
      "documented": 6974,
      "##itory": 6975,
      "##igible": 6976,
      "elisa": 6977,
      "##get": 6978,
      "nutri": 6979,
      "activate": 6980,
      "hapl": 6981,
      "ions": 6982,
      "copy": 6983,
      "##azole": 6984,
      "devices": 6985,
      "hard": 6986,
      "infar": 6987,
      "released": 6988,
      "fibers": 6989,
      "##orrh": 6990,
      "subunits": 6991,
      "##essive": 6992,
      "identifying": 6993,
      "consisted": 6994,
      "##time": 6995,
      "mentioned": 6996,
      "protocols": 6997,
      "leaf": 6998,
      "itself": 6999,
      "created": 7000,
      "fibroblasts": 7001,
      "transformation": 7002,
      "changed": 7003,
      "##iotics": 7004,
      "item": 7005,
      "amplified": 7006,
      "formal": 7007,
      "outside": 7008,
      "crystall": 7009,
      "##alam": 7010,
      "##r1": 7011,
      "salt": 7012,
      "expansion": 7013,
      "regulates": 7014,
      "adherence": 7015,
      "µl": 7016,
      "vac": 7017,
      "hair": 7018,
      "##odes": 7019,
      "implications": 7020,
      "ig": 7021,
      "particle": 7022,
      "##organ": 7023,
      "stor": 7024,
      "respective": 7025,
      "mothers": 7026,
      "monitored": 7027,
      "wnt": 7028,
      "economic": 7029,
      "flag": 7030,
      "give": 7031,
      "mab": 7032,
      "melanoma": 7033,
      "gamma": 7034,
      "offs": 7035,
      "##ensities": 7036,
      "##ush": 7037,
      "motiv": 7038,
      "##opic": 7039,
      "conserv": 7040,
      "##sw": 7041,
      "inhibits": 7042,
      "household": 7043,
      "mtor": 7044,
      "##ometer": 7045,
      "lacking": 7046,
      "scenari": 7047,
      "monocl": 7048,
      "exon": 7049,
      "african": 7050,
      "charge": 7051,
      "peaks": 7052,
      "screen": 7053,
      "##55": 7054,
      "pathogen": 7055,
      "##po": 7056,
      "##ellow": 7057,
      "computer": 7058,
      "genotypes": 7059,
      "morphological": 7060,
      "amyl": 7061,
      "biot": 7062,
      "determination": 7063,
      "dual": 7064,
      "ranged": 7065,
      "workers": 7066,
      "biosynth": 7067,
      "million": 7068,
      "##ermal": 7069,
      "caps": 7070,
      "schiz": 7071,
      "team": 7072,
      "feas": 7073,
      "biomarkers": 7074,
      "urinary": 7075,
      "consensus": 7076,
      "involves": 7077,
      "processed": 7078,
      "utilized": 7079,
      "consequences": 7080,
      "modeling": 7081,
      "fgf": 7082,
      "delayed": 7083,
      "mapping": 7084,
      "xen": 7085,
      "drop": 7086,
      "dispers": 7087,
      "viol": 7088,
      "acceler": 7089,
      "tit": 7090,
      "##omics": 7091,
      "##aster": 7092,
      "##69": 7093,
      "egg": 7094,
      "##ocar": 7095,
      "alleles": 7096,
      "haz": 7097,
      "effectively": 7098,
      "consequently": 7099,
      "chromatography": 7100,
      "reconstruction": 7101,
      "09": 7102,
      "trim": 7103,
      "barrier": 7104,
      "haem": 7105,
      "separation": 7106,
      "##itten": 7107,
      "influenza": 7108,
      "blind": 7109,
      "pulse": 7110,
      "thermal": 7111,
      "##mc": 7112,
      "gd": 7113,
      "hor": 7114,
      "shared": 7115,
      "respondents": 7116,
      "4°c": 7117,
      "##iral": 7118,
      "##ared": 7119,
      "serve": 7120,
      "volun": 7121,
      "integration": 7122,
      "records": 7123,
      "##era": 7124,
      "analyze": 7125,
      "milk": 7126,
      "eyes": 7127,
      "challeng": 7128,
      "ben": 7129,
      "receive": 7130,
      "capable": 7131,
      "neither": 7132,
      "ice": 7133,
      "##fr": 7134,
      "murine": 7135,
      "glass": 7136,
      "cdc": 7137,
      "controlling": 7138,
      "discovery": 7139,
      "extension": 7140,
      "microarr": 7141,
      "hex": 7142,
      "dry": 7143,
      "producing": 7144,
      "modulation": 7145,
      "lr": 7146,
      "##vs": 7147,
      "orientation": 7148,
      "hypothesized": 7149,
      "possess": 7150,
      "125": 7151,
      "isolation": 7152,
      "##oprec": 7153,
      "protease": 7154,
      "varying": 7155,
      "##esia": 7156,
      "##odynam": 7157,
      "##atif": 7158,
      "simultaneously": 7159,
      "ads": 7160,
      "##idal": 7161,
      "austr": 7162,
      "platelet": 7163,
      "rise": 7164,
      "arab": 7165,
      "industr": 7166,
      "persp": 7167,
      "##uary": 7168,
      "dox": 7169,
      "##p3": 7170,
      "prolonged": 7171,
      "monoclonal": 7172,
      "##plicate": 7173,
      "lucifer": 7174,
      "hg": 7175,
      "trauma": 7176,
      "elder": 7177,
      "page": 7178,
      "composed": 7179,
      "##izations": 7180,
      "excell": 7181,
      "diluted": 7182,
      "locations": 7183,
      "emission": 7184,
      "chinese": 7185,
      "instructions": 7186,
      "perm": 7187,
      "span": 7188,
      "##okine": 7189,
      "classes": 7190,
      "negatively": 7191,
      "##itary": 7192,
      "dorsal": 7193,
      "##ipitation": 7194,
      "rac": 7195,
      "##49": 7196,
      "favor": 7197,
      "false": 7198,
      "phosphorylated": 7199,
      "distr": 7200,
      "allowing": 7201,
      "##ochemistry": 7202,
      "shor": 7203,
      "participation": 7204,
      "##itals": 7205,
      "adren": 7206,
      "morbidity": 7207,
      "vessels": 7208,
      "diver": 7209,
      "member": 7210,
      "surpr": 7211,
      "ru": 7212,
      "parental": 7213,
      "reliable": 7214,
      "return": 7215,
      "equilibr": 7216,
      "gi": 7217,
      "differentially": 7218,
      "abc": 7219,
      "constructs": 7220,
      "##oxy": 7221,
      "hydroly": 7222,
      "degen": 7223,
      "##nel": 7224,
      "hla": 7225,
      "traits": 7226,
      "velocity": 7227,
      "partners": 7228,
      "##ote": 7229,
      "zn": 7230,
      "embryonic": 7231,
      "inher": 7232,
      "brow": 7233,
      "##atase": 7234,
      "assumption": 7235,
      "##uments": 7236,
      "younger": 7237,
      "childhood": 7238,
      "manip": 7239,
      "##d1": 7240,
      "##ana": 7241,
      "coated": 7242,
      "zero": 7243,
      "urban": 7244,
      "##enic": 7245,
      "##otes": 7246,
      "transformed": 7247,
      "discussion": 7248,
      "asc": 7249,
      "compens": 7250,
      "clones": 7251,
      "hospitals": 7252,
      "##ione": 7253,
      "om": 7254,
      "explored": 7255,
      "biology": 7256,
      "lymphocytes": 7257,
      "undergoing": 7258,
      "trp": 7259,
      "##off": 7260,
      "r2": 7261,
      "##ropath": 7262,
      "##ister": 7263,
      "hypoxia": 7264,
      "##lim": 7265,
      "bis": 7266,
      "antibiotic": 7267,
      "reduces": 7268,
      "jun": 7269,
      "aldr": 7270,
      "pic": 7271,
      "##ble": 7272,
      "ips": 7273,
      "ather": 7274,
      "maximal": 7275,
      "rating": 7276,
      "operation": 7277,
      "easily": 7278,
      "distinguish": 7279,
      "##ided": 7280,
      "scaffold": 7281,
      "eg": 7282,
      "##66": 7283,
      "##abilities": 7284,
      "characterization": 7285,
      "modul": 7286,
      "dram": 7287,
      "written": 7288,
      "##hal": 7289,
      "##anine": 7290,
      "##urg": 7291,
      "publication": 7292,
      "microbial": 7293,
      "cg": 7294,
      "functioning": 7295,
      "dissoci": 7296,
      "aldrich": 7297,
      "enrichment": 7298,
      "policy": 7299,
      "practices": 7300,
      "##n1": 7301,
      "##va": 7302,
      "instance": 7303,
      "paired": 7304,
      "expand": 7305,
      "zh": 7306,
      "intravenous": 7307,
      "##59": 7308,
      "conversion": 7309,
      "shorter": 7310,
      "substance": 7311,
      "nas": 7312,
      "genomes": 7313,
      "##otides": 7314,
      "depends": 7315,
      "enrolled": 7316,
      "##ral": 7317,
      "neuros": 7318,
      "1994": 7319,
      "hazard": 7320,
      "challenges": 7321,
      "absorb": 7322,
      "uncertain": 7323,
      "##ada": 7324,
      "##rophic": 7325,
      "distributions": 7326,
      "relax": 7327,
      "reliability": 7328,
      "chamber": 7329,
      "thym": 7330,
      "##88": 7331,
      "retro": 7332,
      "chip": 7333,
      "benz": 7334,
      "antioxidant": 7335,
      "##ota": 7336,
      "library": 7337,
      "mann": 7338,
      "oppos": 7339,
      "verte": 7340,
      "routine": 7341,
      "nerv": 7342,
      "vul": 7343,
      "##ept": 7344,
      "skeletal": 7345,
      "alignment": 7346,
      "retrie": 7347,
      "why": 7348,
      "##ocytosis": 7349,
      "scal": 7350,
      "consecutive": 7351,
      "participate": 7352,
      "board": 7353,
      "elderly": 7354,
      "session": 7355,
      "promoting": 7356,
      "commercial": 7357,
      "pure": 7358,
      "affecting": 7359,
      "sectional": 7360,
      "financ": 7361,
      "luciferase": 7362,
      "scheme": 7363,
      "##acchar": 7364,
      "centers": 7365,
      "teach": 7366,
      "##anding": 7367,
      "chi": 7368,
      "##ki": 7369,
      "weighted": 7370,
      "phylogenetic": 7371,
      "understood": 7372,
      "organisms": 7373,
      "defect": 7374,
      "stratif": 7375,
      "vide": 7376,
      "cytometry": 7377,
      "##urally": 7378,
      "obese": 7379,
      "fewer": 7380,
      "ana": 7381,
      "tt": 7382,
      "promotes": 7383,
      "communities": 7384,
      "fields": 7385,
      "infusion": 7386,
      "##ectious": 7387,
      "notably": 7388,
      "instrument": 7389,
      "##v1": 7390,
      "fu": 7391,
      "##enin": 7392,
      "organs": 7393,
      "cum": 7394,
      "##mi": 7395,
      "circulating": 7396,
      "implemented": 7397,
      "detectable": 7398,
      "rc": 7399,
      "##vis": 7400,
      "##onch": 7401,
      "forming": 7402,
      "##ady": 7403,
      "peg": 7404,
      "too": 7405,
      "ground": 7406,
      "##osity": 7407,
      "##di": 7408,
      "van": 7409,
      "socio": 7410,
      "labeling": 7411,
      "obvious": 7412,
      "insertion": 7413,
      "##ovirus": 7414,
      "scanning": 7415,
      "suffer": 7416,
      "tn": 7417,
      "shock": 7418,
      "yo": 7419,
      "jo": 7420,
      "visit": 7421,
      "maps": 7422,
      "technical": 7423,
      "ultrasound": 7424,
      "define": 7425,
      "determining": 7426,
      "ischemic": 7427,
      "neuron": 7428,
      "raw": 7429,
      "##roun": 7430,
      "tur": 7431,
      "actual": 7432,
      "serious": 7433,
      "clim": 7434,
      "##edd": 7435,
      "gb": 7436,
      "abundant": 7437,
      "##ped": 7438,
      "##oblast": 7439,
      "improving": 7440,
      "zone": 7441,
      "race": 7442,
      "cry": 7443,
      "drinking": 7444,
      "##mm": 7445,
      "##rt": 7446,
      "regardless": 7447,
      "lap": 7448,
      "compet": 7449,
      "predictors": 7450,
      "storage": 7451,
      "epit": 7452,
      "comorb": 7453,
      "##rounding": 7454,
      "pell": 7455,
      "remod": 7456,
      "recurrent": 7457,
      "layers": 7458,
      "hous": 7459,
      "pediatric": 7460,
      "reading": 7461,
      "tau": 7462,
      "yellow": 7463,
      "round": 7464,
      "infectious": 7465,
      "##fficients": 7466,
      "neck": 7467,
      "coefficients": 7468,
      "##neal": 7469,
      "##gens": 7470,
      "newly": 7471,
      "blocking": 7472,
      "dex": 7473,
      "skills": 7474,
      "##unct": 7475,
      "necrosis": 7476,
      "km": 7477,
      "2h": 7478,
      "representing": 7479,
      "plots": 7480,
      "risks": 7481,
      "##atus": 7482,
      "##ij": 7483,
      "leaves": 7484,
      "adequate": 7485,
      "##usp": 7486,
      "##iction": 7487,
      "accordance": 7488,
      "enhancement": 7489,
      "##zen": 7490,
      "oxide": 7491,
      "segments": 7492,
      "rig": 7493,
      "##fluores": 7494,
      "ect": 7495,
      "standardized": 7496,
      "bed": 7497,
      "##angl": 7498,
      "##anged": 7499,
      "mos": 7500,
      "evident": 7501,
      "capt": 7502,
      "attrib": 7503,
      "patch": 7504,
      "malaria": 7505,
      "##osine": 7506,
      "vaccination": 7507,
      "calibr": 7508,
      "harvested": 7509,
      "surrounding": 7510,
      "lac": 7511,
      "differentiated": 7512,
      "atm": 7513,
      "##43": 7514,
      "fracture": 7515,
      "parts": 7516,
      "##illing": 7517,
      "ly": 7518,
      "##berg": 7519,
      "cns": 7520,
      "retention": 7521,
      "consistently": 7522,
      "validity": 7523,
      "analy": 7524,
      "conce": 7525,
      "excellent": 7526,
      "datasets": 7527,
      "##enty": 7528,
      "progressive": 7529,
      "demonstrating": 7530,
      "max": 7531,
      "##58": 7532,
      "glycos": 7533,
      "sense": 7534,
      "p2": 7535,
      "##ogly": 7536,
      "schizoph": 7537,
      "causing": 7538,
      "##ogram": 7539,
      "##opo": 7540,
      "exception": 7541,
      "fro": 7542,
      "consists": 7543,
      "sessions": 7544,
      "##usal": 7545,
      "kd": 7546,
      "pil": 7547,
      "pert": 7548,
      "##roscopy": 7549,
      "3c": 7550,
      "tob": 7551,
      "covari": 7552,
      "surfaces": 7553,
      "l1": 7554,
      "separately": 7555,
      "##usive": 7556,
      "estimation": 7557,
      "govern": 7558,
      "land": 7559,
      "antibiotics": 7560,
      "disruption": 7561,
      "##ontin": 7562,
      "seiz": 7563,
      "society": 7564,
      "uniform": 7565,
      "thi": 7566,
      "##pcr": 7567,
      "thin": 7568,
      "conduct": 7569,
      "bor": 7570,
      "##cler": 7571,
      "scr": 7572,
      "capture": 7573,
      "##key": 7574,
      "traff": 7575,
      "##63": 7576,
      "immunoprec": 7577,
      "recommendations": 7578,
      "osc": 7579,
      "nervous": 7580,
      "bands": 7581,
      "perc": 7582,
      "continued": 7583,
      "##thritis": 7584,
      "largest": 7585,
      "microgl": 7586,
      "restriction": 7587,
      "dial": 7588,
      "parad": 7589,
      "coupling": 7590,
      "##cl2": 7591,
      "seek": 7592,
      "##chron": 7593,
      "pn": 7594,
      "##teine": 7595,
      "solvent": 7596,
      "ultim": 7597,
      "intrinsic": 7598,
      "retin": 7599,
      "consisting": 7600,
      "deaths": 7601,
      "##acco": 7602,
      "schizophren": 7603,
      "examples": 7604,
      "neurological": 7605,
      "##ends": 7606,
      "park": 7607,
      "ot": 7608,
      "quad": 7609,
      "effici": 7610,
      "immunity": 7611,
      "nar": 7612,
      "harm": 7613,
      "##ancer": 7614,
      "resc": 7615,
      "clustering": 7616,
      "adaptive": 7617,
      "persons": 7618,
      "replacement": 7619,
      "surprising": 7620,
      "lost": 7621,
      "homeostasis": 7622,
      "vectors": 7623,
      "contributes": 7624,
      "meaning": 7625,
      "jan": 7626,
      "glutamate": 7627,
      "sant": 7628,
      "##oscler": 7629,
      "loaded": 7630,
      "otherwise": 7631,
      "dimer": 7632,
      "bleeding": 7633,
      "objectives": 7634,
      "##ritic": 7635,
      "hippocampal": 7636,
      "sustained": 7637,
      "sciences": 7638,
      "twenty": 7639,
      "##ka": 7640,
      "##wide": 7641,
      "outer": 7642,
      "phases": 7643,
      "blocks": 7644,
      "makes": 7645,
      "##ett": 7646,
      "##atment": 7647,
      "3h": 7648,
      "##ifying": 7649,
      "##idin": 7650,
      "experiences": 7651,
      "psychiatric": 7652,
      "##x1": 7653,
      "laborator": 7654,
      "maturation": 7655,
      "##alling": 7656,
      "suppressed": 7657,
      "##77": 7658,
      "##zation": 7659,
      "gut": 7660,
      "hippocampus": 7661,
      "template": 7662,
      "listed": 7663,
      "kinetics": 7664,
      "assessing": 7665,
      "microt": 7666,
      "##elled": 7667,
      "graft": 7668,
      "eq": 7669,
      "articles": 7670,
      "upstream": 7671,
      "safe": 7672,
      "frame": 7673,
      "##ancing": 7674,
      "upregulated": 7675,
      "conclude": 7676,
      "aortic": 7677,
      "qualitative": 7678,
      "hip": 7679,
      "epig": 7680,
      "##acet": 7681,
      "admission": 7682,
      "pharmacological": 7683,
      "ages": 7684,
      "absent": 7685,
      "markedly": 7686,
      "tuberc": 7687,
      "remark": 7688,
      "##plc": 7689,
      "hif": 7690,
      "get": 7691,
      "supernatant": 7692,
      "##pc": 7693,
      "##igu": 7694,
      "discharge": 7695,
      "assumed": 7696,
      "insu": 7697,
      "immunos": 7698,
      "rural": 7699,
      "predominantly": 7700,
      "accep": 7701,
      "corrected": 7702,
      "electronic": 7703,
      "##iring": 7704,
      "##ulum": 7705,
      "demonstrates": 7706,
      "spin": 7707,
      "##avy": 7708,
      "microm": 7709,
      "laboratories": 7710,
      "dt": 7711,
      "albumin": 7712,
      "overlap": 7713,
      "2018": 7714,
      "vag": 7715,
      "ischemia": 7716,
      "portion": 7717,
      "nico": 7718,
      "medications": 7719,
      "##here": 7720,
      "##entia": 7721,
      "country": 7722,
      "catenin": 7723,
      "seq": 7724,
      "fif": 7725,
      "##ef": 7726,
      "##hc": 7727,
      "actions": 7728,
      "tobacco": 7729,
      "electrode": 7730,
      "dmso": 7731,
      "flav": 7732,
      "persistent": 7733,
      "pi3k": 7734,
      "lm": 7735,
      "##iaz": 7736,
      "neph": 7737,
      "width": 7738,
      "refr": 7739,
      "answ": 7740,
      "pathogens": 7741,
      "decreasing": 7742,
      "considerable": 7743,
      "##anth": 7744,
      "depressive": 7745,
      "peroxid": 7746,
      "collab": 7747,
      "conformation": 7748,
      "consequence": 7749,
      "temperatures": 7750,
      "rf": 7751,
      "##ered": 7752,
      "sple": 7753,
      "occl": 7754,
      "limb": 7755,
      "funding": 7756,
      "glycer": 7757,
      "106": 7758,
      "irradiation": 7759,
      "sb": 7760,
      "−0": 7761,
      "create": 7762,
      "combinations": 7763,
      "abuse": 7764,
      "figs": 7765,
      "##ophila": 7766,
      "##afts": 7767,
      "theoretical": 7768,
      "antigens": 7769,
      "erk": 7770,
      "##roscopic": 7771,
      "##46": 7772,
      "colleag": 7773,
      "gir": 7774,
      "##udes": 7775,
      "config": 7776,
      "bronch": 7777,
      "complexity": 7778,
      "beads": 7779,
      "annual": 7780,
      "ni": 7781,
      "##lin": 7782,
      "simulated": 7783,
      "kinases": 7784,
      "##icking": 7785,
      "scales": 7786,
      "bilateral": 7787,
      "##ilities": 7788,
      "limitation": 7789,
      "caro": 7790,
      "##patient": 7791,
      "horiz": 7792,
      "gst": 7793,
      "##olec": 7794,
      "##ulatory": 7795,
      "initiated": 7796,
      "##ulative": 7797,
      "dimin": 7798,
      "oscill": 7799,
      "trained": 7800,
      "##usc": 7801,
      "clearance": 7802,
      "pooled": 7803,
      "1990": 7804,
      "prin": 7805,
      "##hl": 7806,
      "5b": 7807,
      "pregnant": 7808,
      "ethics": 7809,
      "adaptation": 7810,
      "dementia": 7811,
      "epile": 7812,
      "participated": 7813,
      "##cn": 7814,
      "code": 7815,
      "visible": 7816,
      "excit": 7817,
      "appearance": 7818,
      "susceptible": 7819,
      "colorectal": 7820,
      "bladder": 7821,
      "terminus": 7822,
      "##illance": 7823,
      "##phosph": 7824,
      "supports": 7825,
      "representation": 7826,
      "recombination": 7827,
      "beginning": 7828,
      "agonist": 7829,
      "##ocrine": 7830,
      "##itus": 7831,
      "##icillin": 7832,
      "hcl": 7833,
      "inducing": 7834,
      "chains": 7835,
      "inside": 7836,
      "predictor": 7837,
      "##iveness": 7838,
      "##robial": 7839,
      "1993": 7840,
      "musc": 7841,
      "clone": 7842,
      "ethyl": 7843,
      "strom": 7844,
      "financial": 7845,
      "elong": 7846,
      "trunc": 7847,
      "muscles": 7848,
      "translocation": 7849,
      "microarray": 7850,
      "blast": 7851,
      "##ellar": 7852,
      "1β": 7853,
      "knee": 7854,
      "##itoneal": 7855,
      "##oglobin": 7856,
      "guide": 7857,
      "colleagues": 7858,
      "mapk": 7859,
      "deposition": 7860,
      "unp": 7861,
      "careg": 7862,
      "disturb": 7863,
      "helix": 7864,
      "poorly": 7865,
      "delivered": 7866,
      "enough": 7867,
      "pneumonia": 7868,
      "wavel": 7869,
      "visits": 7870,
      "overc": 7871,
      "healing": 7872,
      "investigations": 7873,
      "pel": 7874,
      "depos": 7875,
      "tomography": 7876,
      "emergency": 7877,
      "substantially": 7878,
      "naive": 7879,
      "##erative": 7880,
      "heavy": 7881,
      "planning": 7882,
      "aggregation": 7883,
      "displac": 7884,
      "normally": 7885,
      "surviv": 7886,
      "mda": 7887,
      "regulator": 7888,
      "surveillance": 7889,
      "##term": 7890,
      "standards": 7891,
      "ket": 7892,
      "plane": 7893,
      "dogs": 7894,
      "composite": 7895,
      "tagged": 7896,
      "precursor": 7897,
      "##amycin": 7898,
      "schizophrenia": 7899,
      "veget": 7900,
      "exclusion": 7901,
      "phenomenon": 7902,
      "concluded": 7903,
      "nit": 7904,
      "encoded": 7905,
      "qpcr": 7906,
      "##ocarcin": 7907,
      "bay": 7908,
      "confer": 7909,
      "auc": 7910,
      "connectivity": 7911,
      "##51": 7912,
      "jud": 7913,
      "−1": 7914,
      "dental": 7915,
      "reagent": 7916,
      "effector": 7917,
      "inhibiting": 7918,
      "hydrophobic": 7919,
      "vein": 7920,
      "##ave": 7921,
      "medial": 7922,
      "##treatment": 7923,
      "lineage": 7924,
      "youth": 7925,
      "stronger": 7926,
      "neurode": 7927,
      "##omycin": 7928,
      "##mitted": 7929,
      "sy": 7930,
      "##jection": 7931,
      "rar": 7932,
      "tip": 7933,
      "inters": 7934,
      "became": 7935,
      "accompanied": 7936,
      "obstr": 7937,
      "fixation": 7938,
      "rout": 7939,
      "estrogen": 7940,
      "##inson": 7941,
      "antimic": 7942,
      "manifest": 7943,
      "principal": 7944,
      "unlike": 7945,
      "physician": 7946,
      "uses": 7947,
      "share": 7948,
      "knockout": 7949,
      "##78": 7950,
      "connected": 7951,
      "illum": 7952,
      "fibr": 7953,
      "habit": 7954,
      "##iae": 7955,
      "##urance": 7956,
      "##uvant": 7957,
      "append": 7958,
      "acetate": 7959,
      "bon": 7960,
      "deficits": 7961,
      "lamin": 7962,
      "isoforms": 7963,
      "dopamine": 7964,
      "resource": 7965,
      "##itect": 7966,
      "thermo": 7967,
      "bes": 7968,
      "##hi": 7969,
      "adjustment": 7970,
      "phenyl": 7971,
      "##ba": 7972,
      "applic": 7973,
      "observe": 7974,
      "traj": 7975,
      "opi": 7976,
      "hepatitis": 7977,
      "dros": 7978,
      "empir": 7979,
      "##des": 7980,
      "gave": 7981,
      "##plicit": 7982,
      "##osterone": 7983,
      "gray": 7984,
      "neonatal": 7985,
      "reproductive": 7986,
      "##weight": 7987,
      "cultiv": 7988,
      "remove": 7989,
      "perh": 7990,
      "105": 7991,
      "gaba": 7992,
      "##mod": 7993,
      "relev": 7994,
      "##lycer": 7995,
      "integrity": 7996,
      "zinc": 7997,
      "##hg": 7998,
      "mother": 7999,
      "##queous": 8000,
      "hol": 8001,
      "college": 8002,
      "antimicrobial": 8003,
      "##oming": 8004,
      "inactivation": 8005,
      "chick": 8006,
      "mov": 8007,
      "autoimmun": 8008,
      "edta": 8009,
      "c57": 8010,
      "perhaps": 8011,
      "##m1": 8012,
      "adding": 8013,
      "##x2": 8014,
      "disability": 8015,
      "acts": 8016,
      "ldl": 8017,
      "##lets": 8018,
      "activating": 8019,
      "suic": 8020,
      "6a": 8021,
      "endoscop": 8022,
      "situation": 8023,
      "##going": 8024,
      "##thal": 8025,
      "nd": 8026,
      "trip": 8027,
      "##oside": 8028,
      "immunobl": 8029,
      "film": 8030,
      "##ologists": 8031,
      "object": 8032,
      "##enyl": 8033,
      "##t3": 8034,
      "timing": 8035,
      "microtub": 8036,
      "##tein": 8037,
      "interviews": 8038,
      "attit": 8039,
      "propose": 8040,
      "##poses": 8041,
      "explanation": 8042,
      "relevance": 8043,
      "providers": 8044,
      "atheroscler": 8045,
      "1d": 8046,
      "closed": 8047,
      "arrest": 8048,
      "##draw": 8049,
      "asymm": 8050,
      "limiting": 8051,
      "aqueous": 8052,
      "##l1": 8053,
      "##c2": 8054,
      "syst": 8055,
      "##ala": 8056,
      "promin": 8057,
      "venti": 8058,
      "antis": 8059,
      "attenuated": 8060,
      "influences": 8061,
      "vacu": 8062,
      "characterize": 8063,
      "trends": 8064,
      "lysates": 8065,
      "priv": 8066,
      "ones": 8067,
      "scatter": 8068,
      "plasmids": 8069,
      "pathogenic": 8070,
      "##ulosis": 8071,
      "vessel": 8072,
      "epigene": 8073,
      "started": 8074,
      "withdraw": 8075,
      "signalling": 8076,
      "unex": 8077,
      "phospho": 8078,
      "ways": 8079,
      "a1": 8080,
      "epithelium": 8081,
      "unable": 8082,
      "focal": 8083,
      "brown": 8084,
      "confocal": 8085,
      "frontal": 8086,
      "methodology": 8087,
      "macrophage": 8088,
      "cig": 8089,
      "insight": 8090,
      "notch": 8091,
      "##hs": 8092,
      "biofil": 8093,
      "stay": 8094,
      "##lands": 8095,
      "eti": 8096,
      "##aints": 8097,
      "##o1": 8098,
      "##41": 8099,
      "intensive": 8100,
      "volumes": 8101,
      "ven": 8102,
      "concerns": 8103,
      "dendritic": 8104,
      "mess": 8105,
      "cortic": 8106,
      "surge": 8107,
      "##itant": 8108,
      "puls": 8109,
      "##ensively": 8110,
      "leukemia": 8111,
      "smokers": 8112,
      "extremely": 8113,
      "environments": 8114,
      "##ohyd": 8115,
      "operative": 8116,
      "discovered": 8117,
      "evolutionary": 8118,
      "reward": 8119,
      "look": 8120,
      "steady": 8121,
      "df": 8122,
      "uter": 8123,
      "user": 8124,
      "infant": 8125,
      "penetr": 8126,
      "aberr": 8127,
      "lin": 8128,
      "namely": 8129,
      "##ystems": 8130,
      "accepted": 8131,
      "biosynthesis": 8132,
      "spectral": 8133,
      "##ensis": 8134,
      "foot": 8135,
      "##osal": 8136,
      "improvements": 8137,
      "greatly": 8138,
      "110": 8139,
      "sched": 8140,
      "centre": 8141,
      "##ison": 8142,
      "nps": 8143,
      "arrows": 8144,
      "enzymatic": 8145,
      "##adily": 8146,
      "sun": 8147,
      "##itol": 8148,
      "##edded": 8149,
      "##ani": 8150,
      "antagonist": 8151,
      "compartment": 8152,
      "insp": 8153,
      "pron": 8154,
      "airway": 8155,
      "involve": 8156,
      "reper": 8157,
      "##tivity": 8158,
      "vic": 8159,
      "subtypes": 8160,
      "window": 8161,
      "precise": 8162,
      "beam": 8163,
      "bow": 8164,
      "qi": 8165,
      "##62": 8166,
      "phosphatase": 8167,
      "mf": 8168,
      "preoperative": 8169,
      "h3": 8170,
      "##ift": 8171,
      "##cher": 8172,
      "##agr": 8173,
      "metastases": 8174,
      "bac": 8175,
      "vertical": 8176,
      "##aline": 8177,
      "presents": 8178,
      "opposite": 8179,
      "cyclin": 8180,
      "pros": 8181,
      "lp": 8182,
      "limits": 8183,
      "tor": 8184,
      "##yte": 8185,
      "amyloid": 8186,
      "aspir": 8187,
      "bearing": 8188,
      "phenotypic": 8189,
      "presum": 8190,
      "ki": 8191,
      "pca": 8192,
      "yielded": 8193,
      "##oad": 8194,
      "##iance": 8195,
      "fear": 8196,
      "frozen": 8197,
      "##ested": 8198,
      "eosin": 8199,
      "war": 8200,
      "transduction": 8201,
      "para": 8202,
      "nurses": 8203,
      "##omical": 8204,
      "educational": 8205,
      "h3k": 8206,
      "hypothes": 8207,
      "tables": 8208,
      "injuries": 8209,
      "hdl": 8210,
      "evaluating": 8211,
      "ju": 8212,
      "hdac": 8213,
      "nitr": 8214,
      "carrying": 8215,
      "computational": 8216,
      "spher": 8217,
      "polymorphism": 8218,
      "performing": 8219,
      "flux": 8220,
      "ram": 8221,
      "embedded": 8222,
      "crc": 8223,
      "##m2": 8224,
      "digital": 8225,
      "s6": 8226,
      "##enchymal": 8227,
      "##opa": 8228,
      "reactivity": 8229,
      "contrac": 8230,
      "maintaining": 8231,
      "##ously": 8232,
      "kore": 8233,
      "ongoing": 8234,
      "4c": 8235,
      "sham": 8236,
      "dimensions": 8237,
      "lipids": 8238,
      "gon": 8239,
      "partner": 8240,
      "prelim": 8241,
      "bs": 8242,
      "dap": 8243,
      "angiogenesis": 8244,
      "##75": 8245,
      "tight": 8246,
      "treating": 8247,
      "##ferase": 8248,
      "##psych": 8249,
      "math": 8250,
      "##embr": 8251,
      "reh": 8252,
      "##eptide": 8253,
      "##iness": 8254,
      "comparative": 8255,
      "##ococcus": 8256,
      "##lip": 8257,
      "casc": 8258,
      "o2": 8259,
      "stock": 8260,
      "##olin": 8261,
      "accom": 8262,
      "washing": 8263,
      "movements": 8264,
      "mediate": 8265,
      "scler": 8266,
      "aims": 8267,
      "##g2": 8268,
      "edge": 8269,
      "hund": 8270,
      "colony": 8271,
      "becomes": 8272,
      "drosophila": 8273,
      "cumulative": 8274,
      "hydroxy": 8275,
      "donors": 8276,
      "motifs": 8277,
      "exogenous": 8278,
      "careful": 8279,
      "mand": 8280,
      "biol": 8281,
      "lam": 8282,
      "cloned": 8283,
      "##bc": 8284,
      "cust": 8285,
      "##ato": 8286,
      "electrical": 8287,
      "quite": 8288,
      "etc": 8289,
      "acting": 8290,
      "cardiomy": 8291,
      "enab": 8292,
      "##lc": 8293,
      "recovered": 8294,
      "hundred": 8295,
      "##ayer": 8296,
      "option": 8297,
      "ace": 8298,
      "##pts": 8299,
      "##oresis": 8300,
      "cartil": 8301,
      "valu": 8302,
      "averaged": 8303,
      "barriers": 8304,
      "##elves": 8305,
      "encour": 8306,
      "h2o2": 8307,
      "preference": 8308,
      "rv": 8309,
      "ber": 8310,
      "depic": 8311,
      "reinf": 8312,
      "##ecal": 8313,
      "centrifugation": 8314,
      "stere": 8315,
      "##ocytic": 8316,
      "outl": 8317,
      "city": 8318,
      "vesicles": 8319,
      "contributions": 8320,
      "polymorphisms": 8321,
      "bodies": 8322,
      "##ko": 8323,
      "extra": 8324,
      "##odynamic": 8325,
      "presenting": 8326,
      "##ws": 8327,
      "constitu": 8328,
      "##teen": 8329,
      "mcf": 8330,
      "##ford": 8331,
      "contraction": 8332,
      "600": 8333,
      "architect": 8334,
      "hybridization": 8335,
      "mutated": 8336,
      "##can": 8337,
      "iq": 8338,
      "deform": 8339,
      "law": 8340,
      "dried": 8341,
      "##ester": 8342,
      "silencing": 8343,
      "bud": 8344,
      "cruz": 8345,
      "upregulation": 8346,
      "dye": 8347,
      "1992": 8348,
      "##intestinal": 8349,
      "fd": 8350,
      "c3": 8351,
      "hoc": 8352,
      "concern": 8353,
      "##anial": 8354,
      "santa": 8355,
      "kept": 8356,
      "s5": 8357,
      "infarction": 8358,
      "gland": 8359,
      "satisfaction": 8360,
      "kl": 8361,
      "##sis": 8362,
      "keep": 8363,
      "##98": 8364,
      "fati": 8365,
      "secreted": 8366,
      "tcr": 8367,
      "perfusion": 8368,
      "##opsis": 8369,
      "cigar": 8370,
      "virul": 8371,
      "whe": 8372,
      "indicators": 8373,
      "calculate": 8374,
      "gastrointestinal": 8375,
      "##aving": 8376,
      "cytotoxic": 8377,
      "remodeling": 8378,
      "aid": 8379,
      "spleen": 8380,
      "leth": 8381,
      "approval": 8382,
      "derivatives": 8383,
      "bsa": 8384,
      "quick": 8385,
      "immunofluores": 8386,
      "alt": 8387,
      "fbs": 8388,
      "##ensiti": 8389,
      "blotting": 8390,
      "web": 8391,
      "excitation": 8392,
      "fatig": 8393,
      "sept": 8394,
      "precl": 8395,
      "##estic": 8396,
      "resolved": 8397,
      "##a2": 8398,
      "##factory": 8399,
      "narrow": 8400,
      "auditory": 8401,
      "adolescent": 8402,
      "replaced": 8403,
      "virt": 8404,
      "##otropic": 8405,
      "sho": 8406,
      "##adian": 8407,
      "c57bl": 8408,
      "wavelength": 8409,
      "##cape": 8410,
      "faster": 8411,
      "pix": 8412,
      "indicator": 8413,
      "translational": 8414,
      "gy": 8415,
      "options": 8416,
      "abstr": 8417,
      "description": 8418,
      "##oline": 8419,
      "ventral": 8420,
      "catheter": 8421,
      "utilization": 8422,
      "endometr": 8423,
      "##issions": 8424,
      "pkc": 8425,
      "immediate": 8426,
      "##ories": 8427,
      "emphas": 8428,
      "hl": 8429,
      "effort": 8430,
      "##asome": 8431,
      "##ipped": 8432,
      "proton": 8433,
      "monitor": 8434,
      "##otrans": 8435,
      "##oli": 8436,
      "sent": 8437,
      "spectrometry": 8438,
      "##iton": 8439,
      "summarized": 8440,
      "addressed": 8441,
      "dro": 8442,
      "dcs": 8443,
      "preventing": 8444,
      "classical": 8445,
      "bip": 8446,
      "##opes": 8447,
      "nursing": 8448,
      "tuberculosis": 8449,
      "coordin": 8450,
      "division": 8451,
      "##times": 8452,
      "c2": 8453,
      "sound": 8454,
      "diast": 8455,
      "requirements": 8456,
      "centrifuged": 8457,
      "preliminary": 8458,
      "differed": 8459,
      "africa": 8460,
      "adapted": 8461,
      "##omeric": 8462,
      "mineral": 8463,
      "##ophage": 8464,
      "trop": 8465,
      "radio": 8466,
      "##for": 8467,
      "serine": 8468,
      "examining": 8469,
      "cytotoxicity": 8470,
      "mobility": 8471,
      "rhe": 8472,
      "##aryng": 8473,
      "correlate": 8474,
      "chest": 8475,
      "phag": 8476,
      "vulner": 8477,
      "##ror": 8478,
      "symm": 8479,
      "modulate": 8480,
      "thr": 8481,
      "neighb": 8482,
      "hplc": 8483,
      "emerging": 8484,
      "ef": 8485,
      "insights": 8486,
      "responsive": 8487,
      "striat": 8488,
      "quar": 8489,
      "splicing": 8490,
      "algorithms": 8491,
      "hemorrh": 8492,
      "preced": 8493,
      "aids": 8494,
      "concom": 8495,
      "ent": 8496,
      "finger": 8497,
      "infr": 8498,
      "##aking": 8499,
      "perspective": 8500,
      "purification": 8501,
      "lysis": 8502,
      "homogen": 8503,
      "immob": 8504,
      "colonies": 8505,
      "databases": 8506,
      "manual": 8507,
      "neutrophils": 8508,
      "cohorts": 8509,
      "m1": 8510,
      "package": 8511,
      "hearing": 8512,
      "resting": 8513,
      "tab": 8514,
      "##alc": 8515,
      "##platin": 8516,
      "spectroscopy": 8517,
      "advantages": 8518,
      "ccr": 8519,
      "##b2": 8520,
      "threat": 8521,
      "dot": 8522,
      "conformational": 8523,
      "d1": 8524,
      "##atid": 8525,
      "eligible": 8526,
      "##ham": 8527,
      "##97": 8528,
      "panels": 8529,
      "lep": 8530,
      "utility": 8531,
      "##ought": 8532,
      "g1": 8533,
      "wil": 8534,
      "##hydro": 8535,
      "efficiently": 8536,
      "concomitant": 8537,
      "heterogeneous": 8538,
      "innate": 8539,
      "lens": 8540,
      "systolic": 8541,
      "epigenetic": 8542,
      "brid": 8543,
      "##rd": 8544,
      "died": 8545,
      "changing": 8546,
      "##min": 8547,
      "somatic": 8548,
      "sequenced": 8549,
      "1α": 8550,
      "idea": 8551,
      "##ivariate": 8552,
      "lane": 8553,
      "pore": 8554,
      "january": 8555,
      "precision": 8556,
      "volunte": 8557,
      "encoun": 8558,
      "visualized": 8559,
      "speech": 8560,
      "mom": 8561,
      "venous": 8562,
      "worldwide": 8563,
      "adipose": 8564,
      "##aceu": 8565,
      "whom": 8566,
      "thems": 8567,
      "cavity": 8568,
      "themselves": 8569,
      "methanol": 8570,
      "secret": 8571,
      "##enia": 8572,
      "catalyz": 8573,
      "##atics": 8574,
      "clinicians": 8575,
      "attachment": 8576,
      "uc": 8577,
      "professional": 8578,
      "preferred": 8579,
      "reti": 8580,
      "scans": 8581,
      "screened": 8582,
      "##o3": 8583,
      "amin": 8584,
      "180": 8585,
      "claim": 8586,
      "superf": 8587,
      "sep": 8588,
      "perturb": 8589,
      "interc": 8590,
      "##embrane": 8591,
      "dissolved": 8592,
      "assessments": 8593,
      "iod": 8594,
      "a2": 8595,
      "regeneration": 8596,
      "chromosomes": 8597,
      "facility": 8598,
      "euk": 8599,
      "##h1": 8600,
      "##ohydr": 8601,
      "##iking": 8602,
      "β1": 8603,
      "gram": 8604,
      "##ury": 8605,
      "apply": 8606,
      "regimen": 8607,
      "hek": 8608,
      "##know": 8609,
      "gangl": 8610,
      "linkage": 8611,
      "fs": 8612,
      "immunore": 8613,
      "immunoblot": 8614,
      "interacting": 8615,
      "ham": 8616,
      "reviews": 8617,
      "pts": 8618,
      "valuable": 8619,
      "diverg": 8620,
      "fp": 8621,
      "biotin": 8622,
      "minute": 8623,
      "rnas": 8624,
      "##mt": 8625,
      "bt": 8626,
      "existence": 8627,
      "pow": 8628,
      "incorporation": 8629,
      "##ophosph": 8630,
      "d2": 8631,
      "p1": 8632,
      "electrophoresis": 8633,
      "subcutaneous": 8634,
      "##ni": 8635,
      "lymphoma": 8636,
      "##amental": 8637,
      "discrimination": 8638,
      "ethnic": 8639,
      "##ux": 8640,
      "##ring": 8641,
      "cartilage": 8642,
      "##oic": 8643,
      "elevation": 8644,
      "jn": 8645,
      "cond": 8646,
      "ecm": 8647,
      "##embl": 8648,
      "##olate": 8649,
      "video": 8650,
      "egfp": 8651,
      "parasite": 8652,
      "##itting": 8653,
      "operating": 8654,
      "exists": 8655,
      "fatigue": 8656,
      "analytical": 8657,
      "##ulose": 8658,
      "took": 8659,
      "equilibrium": 8660,
      "##ologous": 8661,
      "genotyp": 8662,
      "slides": 8663,
      "larv": 8664,
      "##axis": 8665,
      "cysteine": 8666,
      "alex": 8667,
      "cadher": 8668,
      "mscs": 8669,
      "eukary": 8670,
      "hela": 8671,
      "dmem": 8672,
      "accordingly": 8673,
      "rice": 8674,
      "enable": 8675,
      "ultimately": 8676,
      "predictions": 8677,
      "##oman": 8678,
      "concerning": 8679,
      "congen": 8680,
      "calculations": 8681,
      "acknow": 8682,
      "reinfor": 8683,
      "replicates": 8684,
      "ti": 8685,
      "nitro": 8686,
      "merc": 8687,
      "##inical": 8688,
      "aure": 8689,
      "spss": 8690,
      "ethical": 8691,
      "synchron": 8692,
      "decisions": 8693,
      "##uis": 8694,
      "rd": 8695,
      "##plex": 8696,
      "fungal": 8697,
      "##areness": 8698,
      "nutrition": 8699,
      "propag": 8700,
      "pin": 8701,
      "select": 8702,
      "interference": 8703,
      "aggressive": 8704,
      "saliv": 8705,
      "correlates": 8706,
      "consideration": 8707,
      "nutrient": 8708,
      "mhc": 8709,
      "covered": 8710,
      "joh": 8711,
      "fasting": 8712,
      "monocytes": 8713,
      "copd": 8714,
      "prevented": 8715,
      "##urated": 8716,
      "recall": 8717,
      "mutagen": 8718,
      "##ochrome": 8719,
      "ppar": 8720,
      "##iment": 8721,
      "synerg": 8722,
      "p38": 8723,
      "adenocarcin": 8724,
      "homologous": 8725,
      "##alth": 8726,
      "think": 8727,
      "rule": 8728,
      "##infl": 8729,
      "quantify": 8730,
      "##ounting": 8731,
      "##amination": 8732,
      "former": 8733,
      "cann": 8734,
      "breath": 8735,
      "um": 8736,
      "##leuk": 8737,
      "hbv": 8738,
      "contributing": 8739,
      "distress": 8740,
      "biomarker": 8741,
      "roch": 8742,
      "horizontal": 8743,
      "instruments": 8744,
      "readily": 8745,
      "supplementation": 8746,
      "sarc": 8747,
      "ppm": 8748,
      "paradig": 8749,
      "lb": 8750,
      "##bar": 8751,
      "##ito": 8752,
      "prominent": 8753,
      "##uria": 8754,
      "awareness": 8755,
      "inferior": 8756,
      "hos": 8757,
      "sought": 8758,
      "verified": 8759,
      "##64": 8760,
      "130": 8761,
      "semi": 8762,
      "filtered": 8763,
      "challenging": 8764,
      "attached": 8765,
      "##ynaptic": 8766,
      "sulfate": 8767,
      "bin": 8768,
      "die": 8769,
      "aga": 8770,
      "plasticity": 8771,
      "##ml": 8772,
      "##eds": 8773,
      "facilities": 8774,
      "injections": 8775,
      "fourth": 8776,
      "chr": 8777,
      "glomer": 8778,
      "predicting": 8779,
      "##uctu": 8780,
      "rhyth": 8781,
      "evoked": 8782,
      "sampled": 8783,
      "larvae": 8784,
      "mobile": 8785,
      "seps": 8786,
      "concurr": 8787,
      "##att": 8788,
      "nb": 8789,
      "##aldehyde": 8790,
      "difficulty": 8791,
      "##ounding": 8792,
      "fluctu": 8793,
      "ic50": 8794,
      "anth": 8795,
      "##elec": 8796,
      "unch": 8797,
      "neuropath": 8798,
      "##viral": 8799,
      "incorporated": 8800,
      "consult": 8801,
      "1991": 8802,
      "##95": 8803,
      "##puts": 8804,
      "##abs": 8805,
      "mrnas": 8806,
      "practical": 8807,
      "brom": 8808,
      "biotechn": 8809,
      "biosci": 8810,
      "photos": 8811,
      "utr": 8812,
      "born": 8813,
      "##oidal": 8814,
      "##fc": 8815,
      "##×10": 8816,
      "c1": 8817,
      "hier": 8818,
      "sucrose": 8819,
      "besides": 8820,
      "glycop": 8821,
      "radiotherapy": 8822,
      "trait": 8823,
      "104": 8824,
      "mw": 8825,
      "residents": 8826,
      "increasingly": 8827,
      "permeability": 8828,
      "fundamental": 8829,
      "reflected": 8830,
      "upd": 8831,
      "histopath": 8832,
      "crp": 8833,
      "relapse": 8834,
      "##amer": 8835,
      "indices": 8836,
      "ltd": 8837,
      "goat": 8838,
      "proph": 8839,
      "##uses": 8840,
      "resusp": 8841,
      "comprised": 8842,
      "vertebr": 8843,
      "multic": 8844,
      "weights": 8845,
      "##ora": 8846,
      "reflects": 8847,
      "##urity": 8848,
      "aureus": 8849,
      "##mentation": 8850,
      "##87": 8851,
      "corresponds": 8852,
      "requirement": 8853,
      "##graph": 8854,
      "kh": 8855,
      "subtype": 8856,
      "##ilized": 8857,
      "hind": 8858,
      "spine": 8859,
      "government": 8860,
      "mask": 8861,
      "complementary": 8862,
      "deplet": 8863,
      "##ounced": 8864,
      "incom": 8865,
      "fitness": 8866,
      "benign": 8867,
      "##opoie": 8868,
      "unlik": 8869,
      "##onate": 8870,
      "anesthesia": 8871,
      "unlikely": 8872,
      "ord": 8873,
      "arabid": 8874,
      "cadherin": 8875,
      "bic": 8876,
      "qt": 8877,
      "comprom": 8878,
      "lapa": 8879,
      "assistance": 8880,
      "##ucted": 8881,
      "fine": 8882,
      "##oor": 8883,
      "arthritis": 8884,
      "##iers": 8885,
      "retained": 8886,
      "requiring": 8887,
      "##tch": 8888,
      "glutath": 8889,
      "##mann": 8890,
      "rotation": 8891,
      "hierarch": 8892,
      "pear": 8893,
      "determin": 8894,
      "tib": 8895,
      "proportional": 8896,
      "##uits": 8897,
      "##illus": 8898,
      "expanded": 8899,
      "arabidopsis": 8900,
      "clean": 8901,
      "dehydrogen": 8902,
      "criterion": 8903,
      "autoimmune": 8904,
      "codon": 8905,
      "contents": 8906,
      "calculation": 8907,
      "##ecs": 8908,
      "##agement": 8909,
      "##usively": 8910,
      "deb": 8911,
      "pump": 8912,
      "apical": 8913,
      "mono": 8914,
      "zebr": 8915,
      "ft": 8916,
      "conflict": 8917,
      "argin": 8918,
      "stat3": 8919,
      "integrin": 8920,
      "synthase": 8921,
      "alz": 8922,
      "applying": 8923,
      "filled": 8924,
      "oligonucle": 8925,
      "attack": 8926,
      "dw": 8927,
      "dich": 8928,
      "sometimes": 8929,
      "raised": 8930,
      "##inflamm": 8931,
      "ny": 8932,
      "##actic": 8933,
      "highlighted": 8934,
      "##fold": 8935,
      "rip": 8936,
      "##ilateral": 8937,
      "##icon": 8938,
      "ranges": 8939,
      "negl": 8940,
      "accurately": 8941,
      "prevalent": 8942,
      "##edic": 8943,
      "optimized": 8944,
      "neurosci": 8945,
      "infiltration": 8946,
      "gro": 8947,
      "astrocytes": 8948,
      "140": 8949,
      "ideal": 8950,
      "hors": 8951,
      "away": 8952,
      "vox": 8953,
      "neurodegen": 8954,
      "##rect": 8955,
      "##entive": 8956,
      "meeting": 8957,
      "implantation": 8958,
      "subcl": 8959,
      "derm": 8960,
      "academic": 8961,
      "##onym": 8962,
      "agar": 8963,
      "##pring": 8964,
      "oa": 8965,
      "##73": 8966,
      "interpreted": 8967,
      "adjuvant": 8968,
      "metall": 8969,
      "vital": 8970,
      "suspension": 8971,
      "cues": 8972,
      "discl": 8973,
      "carriers": 8974,
      "mu": 8975,
      "coch": 8976,
      "inactiv": 8977,
      "viable": 8978,
      "eating": 8979,
      "##clc": 8980,
      "arom": 8981,
      "##52": 8982,
      "##alities": 8983,
      "overlapping": 8984,
      "pay": 8985,
      "##heimer": 8986,
      "strept": 8987,
      "je": 8988,
      "6b": 8989,
      "conversely": 8990,
      "mhz": 8991,
      "simpl": 8992,
      "doub": 8993,
      "carbohydr": 8994,
      "decades": 8995,
      "anatomical": 8996,
      "gw": 8997,
      "english": 8998,
      "##ophageal": 8999,
      "##ulties": 9000,
      "interleuk": 9001,
      "slices": 9002,
      "rehabil": 9003,
      "hall": 9004,
      "gn": 9005,
      "comorbid": 9006,
      "counted": 9007,
      "selectivity": 9008,
      "immunofluorescence": 9009,
      "kinetic": 9010,
      "gam": 9011,
      "quin": 9012,
      "##±0": 9013,
      "actually": 9014,
      "granul": 9015,
      "cd3": 9016,
      "prescrip": 9017,
      "fractures": 9018,
      "sepsis": 9019,
      "##estim": 9020,
      "fruit": 9021,
      "##assium": 9022,
      "fore": 9023,
      "##oin": 9024,
      "captured": 9025,
      "promoters": 9026,
      "margin": 9027,
      "##lings": 9028,
      "##100": 9029,
      "atoms": 9030,
      "bonds": 9031,
      "scored": 9032,
      "beh": 9033,
      "interacts": 9034,
      "discontin": 9035,
      "tyr": 9036,
      "tu": 9037,
      "hold": 9038,
      "homology": 9039,
      "easy": 9040,
      "##ara": 9041,
      "supply": 9042,
      "ide": 9043,
      "##ache": 9044,
      "cocaine": 9045,
      "##zing": 9046,
      "asd": 9047,
      "harb": 9048,
      "##fusion": 9049,
      "anch": 9050,
      "##itz": 9051,
      "eeg": 9052,
      "incomplet": 9053,
      "transporter": 9054,
      "repress": 9055,
      "ont": 9056,
      "potassium": 9057,
      "currents": 9058,
      "module": 9059,
      "cool": 9060,
      "depr": 9061,
      "##uding": 9062,
      "overcome": 9063,
      "stretch": 9064,
      "institutes": 9065,
      "tam": 9066,
      "rrna": 9067,
      "p4": 9068,
      "##ming": 9069,
      "contacts": 9070,
      "wat": 9071,
      "mell": 9072,
      "homogene": 9073,
      "offspring": 9074,
      "##ylate": 9075,
      "converted": 9076,
      "##eted": 9077,
      "inactive": 9078,
      "pronounced": 9079,
      "sou": 9080,
      "fri": 9081,
      "lysine": 9082,
      "5c": 9083,
      "stimulate": 9084,
      "continue": 9085,
      "building": 9086,
      "fever": 9087,
      "expon": 9088,
      "intell": 9089,
      "##n2": 9090,
      "##d2": 9091,
      "nl": 9092,
      "rock": 9093,
      "activates": 9094,
      "writing": 9095,
      "slope": 9096,
      "difficulties": 9097,
      "regulators": 9098,
      "discrep": 9099,
      "128": 9100,
      "immunohistochemistry": 9101,
      "plotted": 9102,
      "inserted": 9103,
      "distances": 9104,
      "sust": 9105,
      "subjective": 9106,
      "lh": 9107,
      "cooper": 9108,
      "walking": 9109,
      "pep": 9110,
      "pretreatment": 9111,
      "##path": 9112,
      "##onical": 9113,
      "##g1": 9114,
      "electrodes": 9115,
      "alzheimer": 9116,
      "transmembrane": 9117,
      "atl": 9118,
      "##isph": 9119,
      "matching": 9120,
      "coil": 9121,
      "excessive": 9122,
      "108": 9123,
      "neurot": 9124,
      "illustrated": 9125,
      "climate": 9126,
      "pharmaceu": 9127,
      "hydrolysis": 9128,
      "believe": 9129,
      "spor": 9130,
      "gels": 9131,
      "shaped": 9132,
      "mad": 9133,
      "simply": 9134,
      "compliance": 9135,
      "chond": 9136,
      "dip": 9137,
      "combining": 9138,
      "seeded": 9139,
      "chloride": 9140,
      "amph": 9141,
      "##ques": 9142,
      "##oon": 9143,
      "front": 9144,
      "protect": 9145,
      "forces": 9146,
      "thorac": 9147,
      "plaque": 9148,
      "sox": 9149,
      "monol": 9150,
      "##acin": 9151,
      "mesenchymal": 9152,
      "glutathione": 9153,
      "f1": 9154,
      "generating": 9155,
      "smad": 9156,
      "relaxation": 9157,
      "isolate": 9158,
      "highlight": 9159,
      "stiff": 9160,
      "subgroups": 9161,
      "her2": 9162,
      "005": 9163,
      "aspect": 9164,
      "toxin": 9165,
      "##aved": 9166,
      "assisted": 9167,
      "##ials": 9168,
      "h1": 9169,
      "dock": 9170,
      "##61": 9171,
      "extensively": 9172,
      "gol": 9173,
      "degeneration": 9174,
      "##cephal": 9175,
      "107": 9176,
      "spot": 9177,
      "eps": 9178,
      "reveals": 9179,
      "10−": 9180,
      "##ograms": 9181,
      "dissociation": 9182,
      "lifest": 9183,
      "multid": 9184,
      "##inter": 9185,
      "leak": 9186,
      "apc": 9187,
      "##avi": 9188,
      "sensors": 9189,
      "worse": 9190,
      "covariates": 9191,
      "dic": 9192,
      "lungs": 9193,
      "modest": 9194,
      "west": 9195,
      "##psy": 9196,
      "cytosk": 9197,
      "interleukin": 9198,
      "flank": 9199,
      "##idase": 9200,
      "girls": 9201,
      "opportunity": 9202,
      "empirical": 9203,
      "rough": 9204,
      "neighbor": 9205,
      "aligned": 9206,
      "los": 9207,
      "equally": 9208,
      "invers": 9209,
      "automated": 9210,
      "pathophys": 9211,
      "station": 9212,
      "##mer": 9213,
      "tac": 9214,
      "##eta": 9215,
      "nav": 9216,
      "structured": 9217,
      "##prot": 9218,
      "##ping": 9219,
      "chromosomal": 9220,
      "enhancing": 9221,
      "embryo": 9222,
      "wang": 9223,
      "atrial": 9224,
      "mapped": 9225,
      "phospholip": 9226,
      "detecting": 9227,
      "driving": 9228,
      "professionals": 9229,
      "citr": 9230,
      "warr": 9231,
      "episodes": 9232,
      "pas": 9233,
      "p3": 9234,
      "sap": 9235,
      "brca": 9236,
      "candidates": 9237,
      "forest": 9238,
      "couns": 9239,
      "src": 9240,
      "suppressor": 9241,
      "alternatively": 9242,
      "yields": 9243,
      "glycerol": 9244,
      "cvd": 9245,
      "infiltr": 9246,
      "scoring": 9247,
      "feel": 9248,
      "##aint": 9249,
      "northern": 9250,
      "##opoietic": 9251,
      "scenario": 9252,
      "proven": 9253,
      "motility": 9254,
      "circulation": 9255,
      "resuspended": 9256,
      "southern": 9257,
      "glu": 9258,
      "##onas": 9259,
      "port": 9260,
      "##ensin": 9261,
      "exer": 9262,
      "causal": 9263,
      "##mv": 9264,
      "drive": 9265,
      "vision": 9266,
      "##related": 9267,
      "cultural": 9268,
      "##rought": 9269,
      "##apses": 9270,
      "##aken": 9271,
      "retic": 9272,
      "arth": 9273,
      "evid": 9274,
      "##pass": 9275,
      "recordings": 9276,
      "##ighting": 9277,
      "ammon": 9278,
      "intes": 9279,
      "##ura": 9280,
      "gf": 9281,
      "rnai": 9282,
      "believed": 9283,
      "cisplatin": 9284,
      "serial": 9285,
      "##ano": 9286,
      "emerged": 9287,
      "india": 9288,
      "attempt": 9289,
      "differentiate": 9290,
      "nos": 9291,
      "##uctive": 9292,
      "surveys": 9293,
      "dehydrogenase": 9294,
      "##uly": 9295,
      "specified": 9296,
      "completion": 9297,
      "nsclc": 9298,
      "002": 9299,
      "produces": 9300,
      "rehabilitation": 9301,
      "##acerb": 9302,
      "nicotine": 9303,
      "virulence": 9304,
      "nasal": 9305,
      "sensing": 9306,
      "exacerb": 9307,
      "abol": 9308,
      "sea": 9309,
      "decay": 9310,
      "physi": 9311,
      "immunosup": 9312,
      "tumours": 9313,
      "vp": 9314,
      "va": 9315,
      "microglia": 9316,
      "pock": 9317,
      "##zyme": 9318,
      "gtp": 9319,
      "supr": 9320,
      "phyt": 9321,
      "potentials": 9322,
      "purposes": 9323,
      "rearr": 9324,
      "engineering": 9325,
      "exclusively": 9326,
      "favorable": 9327,
      "pref": 9328,
      "roche": 9329,
      "sten": 9330,
      "selectively": 9331,
      "tubulin": 9332,
      "lag": 9333,
      "##afish": 9334,
      "architecture": 9335,
      "recipients": 9336,
      "son": 9337,
      "zebrafish": 9338,
      "specimen": 9339,
      "creatin": 9340,
      "nonc": 9341,
      "##pread": 9342,
      "questionnaires": 9343,
      "##fig": 9344,
      "arteries": 9345,
      "functionally": 9346,
      "stom": 9347,
      "mmhg": 9348,
      "occas": 9349,
      "reductions": 9350,
      "needle": 9351,
      "##plasia": 9352,
      "atg": 9353,
      "gall": 9354,
      "wides": 9355,
      "##enol": 9356,
      "##chem": 9357,
      "##cemia": 9358,
      "109": 9359,
      "widespread": 9360,
      "##ascul": 9361,
      "seconds": 9362,
      "##120": 9363,
      "##79": 9364,
      "conservation": 9365,
      "redox": 9366,
      "129": 9367,
      "reasonable": 9368,
      "nutritional": 9369,
      "situations": 9370,
      "symptomatic": 9371,
      "rg": 9372,
      "103": 9373,
      "creatinine": 9374,
      "vaccines": 9375,
      "inducible": 9376,
      "ethnicity": 9377,
      "formula": 9378,
      "digestion": 9379,
      "border": 9380,
[...]
